{
  "version": "1.0",
  "truncation": null,
  "padding": null,
  "added_tokens": [],
  "normalizer": null,
  "pre_tokenizer": {
    "type": "ByteLevel",
    "add_prefix_space": true,
    "trim_offsets": true,
    "use_regex": true
  },
  "post_processor": null,
  "decoder": {
    "type": "ByteLevel",
    "add_prefix_space": true,
    "trim_offsets": true,
    "use_regex": true
  },
  "model": {
    "type": "BPE",
    "dropout": null,
    "unk_token": null,
    "continuing_subword_prefix": null,
    "end_of_word_suffix": null,
    "fuse_unk": false,
    "byte_fallback": false,
    "ignore_merges": false,
    "vocab": {
      "!": 0,
      "\"": 1,
      "#": 2,
      "$": 3,
      "%": 4,
      "&": 5,
      "'": 6,
      "(": 7,
      ")": 8,
      "*": 9,
      "+": 10,
      ",": 11,
      "-": 12,
      ".": 13,
      "/": 14,
      "0": 15,
      "1": 16,
      "2": 17,
      "3": 18,
      "4": 19,
      "5": 20,
      "6": 21,
      "7": 22,
      "8": 23,
      "9": 24,
      ":": 25,
      ";": 26,
      "<": 27,
      "=": 28,
      ">": 29,
      "?": 30,
      "@": 31,
      "A": 32,
      "B": 33,
      "C": 34,
      "D": 35,
      "E": 36,
      "F": 37,
      "G": 38,
      "H": 39,
      "I": 40,
      "J": 41,
      "K": 42,
      "L": 43,
      "M": 44,
      "N": 45,
      "O": 46,
      "P": 47,
      "Q": 48,
      "R": 49,
      "S": 50,
      "T": 51,
      "U": 52,
      "V": 53,
      "W": 54,
      "X": 55,
      "Y": 56,
      "Z": 57,
      "[": 58,
      "\\": 59,
      "]": 60,
      "^": 61,
      "_": 62,
      "`": 63,
      "a": 64,
      "b": 65,
      "c": 66,
      "d": 67,
      "e": 68,
      "f": 69,
      "g": 70,
      "h": 71,
      "i": 72,
      "j": 73,
      "k": 74,
      "l": 75,
      "m": 76,
      "n": 77,
      "o": 78,
      "p": 79,
      "q": 80,
      "r": 81,
      "s": 82,
      "t": 83,
      "u": 84,
      "v": 85,
      "w": 86,
      "x": 87,
      "y": 88,
      "z": 89,
      "|": 90,
      "}": 91,
      "~": 92,
      "¡": 93,
      "¢": 94,
      "£": 95,
      "¤": 96,
      "¥": 97,
      "¦": 98,
      "§": 99,
      "¨": 100,
      "©": 101,
      "ª": 102,
      "«": 103,
      "¬": 104,
      "®": 105,
      "¯": 106,
      "°": 107,
      "±": 108,
      "²": 109,
      "³": 110,
      "´": 111,
      "µ": 112,
      "¶": 113,
      "·": 114,
      "¸": 115,
      "¹": 116,
      "º": 117,
      "»": 118,
      "¼": 119,
      "½": 120,
      "¾": 121,
      "¿": 122,
      "Â": 123,
      "Ã": 124,
      "Ä": 125,
      "Å": 126,
      "Æ": 127,
      "Ç": 128,
      "È": 129,
      "É": 130,
      "Ê": 131,
      "Ë": 132,
      "Ì": 133,
      "Í": 134,
      "Î": 135,
      "Ï": 136,
      "Ð": 137,
      "Ñ": 138,
      "Ò": 139,
      "Ó": 140,
      "Ô": 141,
      "Õ": 142,
      "Ö": 143,
      "×": 144,
      "Ø": 145,
      "Ù": 146,
      "Ú": 147,
      "Û": 148,
      "à": 149,
      "á": 150,
      "â": 151,
      "ã": 152,
      "ä": 153,
      "å": 154,
      "æ": 155,
      "ç": 156,
      "è": 157,
      "é": 158,
      "ê": 159,
      "ë": 160,
      "ì": 161,
      "í": 162,
      "ï": 163,
      "ð": 164,
      "Ċ": 165,
      "Ġ": 166,
      "Ģ": 167,
      "ģ": 168,
      "Ĥ": 169,
      "ĥ": 170,
      "Ħ": 171,
      "ħ": 172,
      "Ĩ": 173,
      "ĩ": 174,
      "Ī": 175,
      "ī": 176,
      "Ĭ": 177,
      "ĭ": 178,
      "Į": 179,
      "į": 180,
      "İ": 181,
      "ı": 182,
      "Ĳ": 183,
      "ĳ": 184,
      "Ĵ": 185,
      "ĵ": 186,
      "Ķ": 187,
      "ķ": 188,
      "ĸ": 189,
      "Ĺ": 190,
      "ĺ": 191,
      "Ļ": 192,
      "ļ": 193,
      "Ľ": 194,
      "ľ": 195,
      "Ŀ": 196,
      "ŀ": 197,
      "Ł": 198,
      "ł": 199,
      "Ń": 200,
      "Ġt": 201,
      "Ġa": 202,
      "in": 203,
      "he": 204,
      "re": 205,
      "on": 206,
      "Ġthe": 207,
      "er": 208,
      "Ġs": 209,
      "Ġw": 210,
      "at": 211,
      "Ġo": 212,
      "nd": 213,
      "Ġc": 214,
      "it": 215,
      "or": 216,
      "es": 217,
      "is": 218,
      "en": 219,
      "ou": 220,
      "Ġf": 221,
      "Ġb": 222,
      "ing": 223,
      "Ġp": 224,
      "ed": 225,
      "an": 226,
      "al": 227,
      "Ġto": 228,
      "Ġm": 229,
      "ar": 230,
      "Ġand": 231,
      "Ġof": 232,
      "Ġin": 233,
      "Ġd": 234,
      "ic": 235,
      "Ġh": 236,
      "le": 237,
      "as": 238,
      "om": 239,
      "ion": 240,
      "Ġth": 241,
      "ll": 242,
      "âĢ": 243,
      "ent": 244,
      "Ġl": 245,
      "ve": 246,
      "st": 247,
      "Ġe": 248,
      "Ġre": 249,
      "Ġn": 250,
      "ro": 251,
      "Ġy": 252,
      "Ġg": 253,
      "ĠI": 254,
      "ly": 255,
      "ct": 256,
      "Ġbe": 257,
      "ĠT": 258,
      "ut": 259,
      "ĠS": 260,
      "et": 261,
      "ot": 262,
      "Ġis": 263,
      "id": 264,
      "Ġyou": 265,
      "ay": 266,
      "Ġon": 267,
      "Ġfor": 268,
      "ow": 269,
      "ĠA": 270,
      "ĠC": 271,
      "ur": 272,
      "se": 273,
      "im": 274,
      "ig": 275,
      "ad": 276,
      "ce": 277,
      "am": 278,
      "ver": 279,
      "Ġthat": 280,
      "Ġu": 281,
      "ch": 282,
      "il": 283,
      "ith": 284,
      "ation": 285,
      "Ġst": 286,
      "ol": 287,
      "ir": 288,
      "Ġwith": 289,
      "ĠM": 290,
      "âĢĻ": 291,
      "Ġit": 292,
      "Ġhe": 293,
      "Ġwe": 294,
      "ra": 295,
      "ĠB": 296,
      "ĠP": 297,
      "Ġwh": 298,
      "Ġas": 299,
      "Ġan": 300,
      "ill": 301,
      "ers": 302,
      "if": 303,
      "ke": 304,
      "Ġpro": 305,
      "ter": 306,
      "Ġha": 307,
      "Ġare": 308,
      "ĠW": 309,
      "ge": 310,
      "Ġcon": 311,
      "ld": 312,
      "oo": 313,
      "her": 314,
      "ul": 315,
      "ĠH": 316,
      "Ġor": 317,
      "ate": 318,
      "ĠD": 319,
      "ess": 320,
      "ck": 321,
      "pp": 322,
      "Ġat": 323,
      "Ġse": 324,
      "Ġcom": 325,
      "ĠThe": 326,
      "ore": 327,
      "ri": 328,
      "ment": 329,
      "Ġde": 330,
      "est": 331,
      "Ġ1": 332,
      "ĠF": 333,
      "ĠR": 334,
      "us": 335,
      "igh": 336,
      "th": 337,
      "ab": 338,
      "Ġwas": 339,
      "Ġ(": 340,
      "Ġ2": 341,
      "ist": 342,
      "rom": 343,
      "Ġne": 344,
      "pe": 345,
      "un": 346,
      "Ġex": 347,
      "ĠL": 348,
      "res": 349,
      "ant": 350,
      "qu": 351,
      "ity": 352,
      "Ġsu": 353,
      "ive": 354,
      "Ġv": 355,
      "Ġr": 356,
      "op": 357,
      "ĠâĢ": 358,
      "ĠG": 359,
      "em": 360,
      "ĠN": 361,
      "Ġhave": 362,
      "ort": 363,
      "ain": 364,
      "ĠE": 365,
      "art": 366,
      "Ġthis": 367,
      "Ġnot": 368,
      "ust": 369,
      "nt": 370,
      "Ġfrom": 371,
      "Ġsh": 372,
      "um": 373,
      "Ġyour": 374,
      "os": 375,
      "Ġby": 376,
      "and": 377,
      "el": 378,
      "ies": 379,
      "ight": 380,
      "Ġal": 381,
      "Ġch": 382,
      "Ġcan": 383,
      "all": 384,
      "ome": 385,
      "ĠO": 386,
      "ie": 387,
      "Ġle": 388,
      "ard": 389,
      "out": 390,
      "ould": 391,
      "Ġwill": 392,
      "red": 393,
      "our": 394,
      "ud": 395,
      "Ġab": 396,
      "Ġdo": 397,
      "gh": 398,
      "iv": 399,
      "ost": 400,
      "Ġwor": 401,
      "te": 402,
      "ally": 403,
      "00": 404,
      "'s": 405,
      "Ġpl": 406,
      "od": 407,
      "ĠJ": 408,
      "Ġall": 409,
      "rou": 410,
      "ast": 411,
      "ci": 412,
      "ear": 413,
      "Ġj": 414,
      "ak": 415,
      "ide": 416,
      "Ġk": 417,
      "ine": 418,
      "ag": 419,
      "ure": 420,
      "fe": 421,
      "The": 422,
      "Ġhas": 423,
      "pt": 424,
      "per": 425,
      "Ġso": 426,
      "Ġme": 427,
      "Ġbut": 428,
      "Ġwhe": 429,
      "ack": 430,
      "âĢĿ": 431,
      "ice": 432,
      "Ġus": 433,
      "ction": 434,
      "age": 435,
      "ich": 436,
      "ther": 437,
      "ac": 438,
      "Ġout": 439,
      "Ġad": 440,
      "pl": 441,
      "ĠU": 442,
      "Ġup": 443,
      "ake": 444,
      "Ġthey": 445,
      "one": 446,
      "ook": 447,
      "ind": 448,
      "ry": 449,
      "so": 450,
      "og": 451,
      "Ġtheir": 452,
      "are": 453,
      "ong": 454,
      "Ġmore": 455,
      "Ġcomp": 456,
      "Ġen": 457,
      "Ġhis": 458,
      "very": 459,
      "ime": 460,
      "ated": 461,
      "able": 462,
      "Ġmy": 463,
      "ood": 464,
      "ous": 465,
      "Ġte": 466,
      "cc": 467,
      "Ġone": 468,
      "ame": 469,
      "Ġcl": 470,
      "ans": 471,
      "ite": 472,
      "iz": 473,
      "ike": 474,
      "Ġsa": 475,
      "ĠTh": 476,
      "ip": 477,
      "Ġwho": 478,
      "orm": 479,
      "ĠIn": 480,
      "Ġabout": 481,
      "ĠâĢľ": 482,
      "Ġim": 483,
      "ib": 484,
      "Ġcont": 485,
      "Ġour": 486,
      "ru": 487,
      "Ġgo": 488,
      "ions": 489,
      "Ġman": 490,
      "ne": 491,
      "ance": 492,
      "Ġwhich": 493,
      "du": 494,
      "cl": 495,
      "Ġfe": 496,
      "ĠK": 497,
      "Ġ20": 498,
      "act": 499,
      "ia": 500,
      "to": 501,
      "ber": 502,
      "ase": 503,
      "ire": 504,
      "Ġres": 505,
      "ĠY": 506,
      "ail": 507,
      "ff": 508,
      "ree": 509,
      "reat": 510,
      "ign": 511,
      "Ġwork": 512,
      "oc": 513,
      "ays": 514,
      "ach": 515,
      "Ġper": 516,
      "ary": 517,
      "Ġapp": 518,
      "ap": 519,
      "..": 520,
      "ace": 521,
      "Ġother": 522,
      "ult": 523,
      "ations": 524,
      "ven": 525,
      "ick": 526,
      "ep": 527,
      "ĠSt": 528,
      "ass": 529,
      "au": 530,
      "ub": 531,
      "Ġoff": 532,
      "Ġyear": 533,
      "Ġtime": 534,
      "Ġsome": 535,
      "ical": 536,
      "Ġqu": 537,
      "ue": 538,
      "Ġlike": 539,
      "ile": 540,
      "Ġalso": 541,
      "Ġ\"": 542,
      "Ġany": 543,
      "ount": 544,
      "Ġdis": 545,
      "Ġhad": 546,
      "now": 547,
      "ark": 548,
      "ence": 549,
      "vel": 550,
      "ĠIt": 551,
      "ress": 552,
      "Ġget": 553,
      "Ġun": 554,
      "ord": 555,
      "form": 556,
      "ĠV": 557,
      "Ġwere": 558,
      "Ġthem": 559,
      "Ġbeen": 560,
      "Ġnew": 561,
      "ings": 562,
      "erv": 563,
      "Ġ3": 564,
      "Ġpart": 565,
      "Ġsp": 566,
      "ĠCh": 567,
      "Ġag": 568,
      "Ġ-": 569,
      "ond": 570,
      "Ġthere": 571,
      "ose": 572,
      "ove": 573,
      "Ġover": 574,
      "av": 575,
      "Ġpe": 576,
      "Ġwhen": 577,
      "Ġher": 578,
      "Ġwould": 579,
      "ough": 580,
      "ition": 581,
      "Ġwhat": 582,
      "Ġar": 583,
      "ial": 584,
      "Ġif": 585,
      "ink": 586,
      "ents": 587,
      "ors": 588,
      "ens": 589,
      "Ġthan": 590,
      "Ġtr": 591,
      "Ġjust": 592,
      "Ġ201": 593,
      "ound": 594,
      "Ġro": 595,
      "irst": 596,
      "Ġspe": 597,
      "ish": 598,
      "Ġpre": 599,
      "mer": 600,
      "port": 601,
      "ob": 602,
      "int": 603,
      "Ġbec": 604,
      "Ġknow": 605,
      "Ġrec": 606,
      "ĠWe": 607,
      "wn": 608,
      "ild": 609,
      "Ġinto": 610,
      "ople": 611,
      "Ġsaid": 612,
      "ren": 613,
      "ory": 614,
      "ĠHe": 615,
      "fter": 616,
      "nder": 617,
      "own": 618,
      "ov": 619,
      "Ġneed": 620,
      "Ġam": 621,
      "oy": 622,
      "itt": 623,
      "Ġsc": 624,
      "rough": 625,
      "ater": 626,
      "Ġhow": 627,
      "ade": 628,
      "Ġco": 629,
      "Ġtw": 630,
      "Ġacc": 631,
      "Ġits": 632,
      "ang": 633,
      "old": 634,
      "Ġno": 635,
      "vers": 636,
      "Ġpeople": 637,
      "lic": 638,
      "ning": 639,
      "Ġbl": 640,
      "Ġdes": 641,
      "Ġfirst": 642,
      "ons": 643,
      "Ġmay": 644,
      "we": 645,
      "Ġshe": 646,
      "ĠâĢĵ": 647,
      "clud": 648,
      "ces": 649,
      "ual": 650,
      "hed": 651,
      "cial": 652,
      "ian": 653,
      "Ġcomm": 654,
      "ause": 655,
      "amp": 656,
      "ates": 657,
      "'t": 658,
      "Ġonly": 659,
      "ft": 660,
      "ull": 661,
      "Ġ19": 662,
      "lp": 663,
      "Ġ4": 664,
      "Ġtra": 665,
      "Ġmake": 666,
      "day": 667,
      "ĠThis": 668,
      "ric": 669,
      "Ġbet": 670,
      "Ġback": 671,
      "ments": 672,
      "Ġmost": 673,
      "Ġadd": 674,
      "end": 675,
      "Ġpo": 676,
      "rent": 677,
      "ĠRe": 678,
      "tern": 679,
      "Ġlook": 680,
      "Ġem": 681,
      "Ġprov": 682,
      "round": 683,
      "Ġhelp": 684,
      "Ġevery": 685,
      "Ġind": 686,
      "Ġ5": 687,
      "ily": 688,
      "Ġfl": 689,
      "ating": 690,
      "Ġwant": 691,
      "Ġthrough": 692,
      "hing": 693,
      "iew": 694,
      "Ġcons": 695,
      "ious": 696,
      "Ġtwo": 697,
      "Ġinclud": 698,
      "les": 699,
      ").": 700,
      "Ġsee": 701,
      "gr": 702,
      "ise": 703,
      "cts": 704,
      "Ġuse": 705,
      "Ġwell": 706,
      "Ġprodu": 707,
      "Ġthese": 708,
      "Ġafter": 709,
      "Ġunder": 710,
      "ks": 711,
      "Ġbu": 712,
      "ph": 713,
      "iss": 714,
      "sel": 715,
      "Ġcould": 716,
      "oll": 717,
      "ew": 718,
      "ities": 719,
      "Ġact": 720,
      "xt": 721,
      "je": 722,
      "ced": 723,
      "ife": 724,
      "fore": 725,
      "Ġph": 726,
      "ert": 727,
      "urn": 728,
      "Ġserv": 729,
      "aw": 730,
      "ific": 731,
      "pport": 732,
      "hen": 733,
      "Ġhim": 734,
      "Ġdif": 735,
      "row": 736,
      "Ġplay": 737,
      "uch": 738,
      "Ġvery": 739,
      "Ġrel": 740,
      "Ġyears": 741,
      "Ġsy": 742,
      "ting": 743,
      "Ġinc": 744,
      "Ġway": 745,
      "Ġeven": 746,
      "Ġreg": 747,
      "Ġgood": 748,
      "ont": 749,
      "erson": 750,
      "Th": 751,
      "rit": 752,
      "Ġra": 753,
      "ange": 754,
      "Ġpr": 755,
      "Ġinv": 756,
      "Ġnow": 757,
      "ational": 758,
      "Ġmany": 759,
      "Ġrem": 760,
      "ock": 761,
      "Ġimp": 762,
      "Ġke": 763,
      "iness": 764,
      "lect": 765,
      "Ġev": 766,
      "oss": 767,
      "Ġthen": 768,
      "als": 769,
      "Ġcol": 770,
      "aking": 771,
      "Ġstud": 772,
      "Ġ200": 773,
      "ful": 774,
      "Ġwhere": 775,
      "cess": 776,
      "Ġdid": 777,
      "ĠYou": 778,
      "Ġsm": 779,
      "olog": 780,
      "com": 781,
      "Ġshould": 782,
      "oth": 783,
      "Ġright": 784,
      "ased": 785,
      "||": 786,
      "ffe": 787,
      "ĠWh": 788,
      "ible": 789,
      "ility": 790,
      "ident": 791,
      "ool": 792,
      "ĠUn": 793,
      "any": 794,
      "ts": 795,
      "Ġbecause": 796,
      "ath": 797,
      "ward": 798,
      "bs": 799,
      ".âĢĿ": 800,
      "Ġsec": 801,
      "ular": 802,
      "Ġstart": 803,
      "ĠSe": 804,
      "ures": 805,
      "),": 806,
      "ĠAs": 807,
      "ble": 808,
      "Ġdon": 809,
      "Ġown": 810,
      "ower": 811,
      "ied": 812,
      "get": 813,
      "erm": 814,
      "uring": 815,
      "Ġexper": 816,
      "Ġgreat": 817,
      "Ġac": 818,
      "Ġdown": 819,
      "Ġbus": 820,
      "Ġtoo": 821,
      "Ġgu": 822,
      "hip": 823,
      "ys": 824,
      "Ġfin": 825,
      "Ġmuch": 826,
      "ty": 827,
      "Ġsuch": 828,
      "Ġthink": 829,
      "Ġatt": 830,
      "ices": 831,
      "Ġent": 832,
      "ĠAnd": 833,
      "hes": 834,
      "other": 835,
      "ell": 836,
      "formation": 837,
      "Ġ$": 838,
      "stem": 839,
      "Ġagain": 840,
      "ative": 841,
      "ĠCom": 842,
      "up": 843,
      "Ġday": 844,
      "pect": 845,
      "ited": 846,
      "Ġlong": 847,
      "Ġ6": 848,
      "gan": 849,
      "its": 850,
      "ork": 851,
      "arch": 852,
      "Ġtake": 853,
      "Ġhigh": 854,
      "velop": 855,
      "ict": 856,
      "air": 857,
      "ics": 858,
      "Ġset": 859,
      "omet": 860,
      "alth": 861,
      "Ġinst": 862,
      "Ġdec": 863,
      "ener": 864,
      "Ġcall": 865,
      "Ġfind": 866,
      "Ġthose": 867,
      "rib": 868,
      "Ġbefore": 869,
      "Ġhere": 870,
      "Ġpres": 871,
      "Ġinte": 872,
      "Ġwee": 873,
      "Ġdoes": 874,
      "Ġend": 875,
      "Ġbel": 876,
      "und": 877,
      "ĠAn": 878,
      "Ġmade": 879,
      "Ġshow": 880,
      "Ġmon": 881,
      "Ġbeing": 882,
      "In": 883,
      "Ġ&": 884,
      "ner": 885,
      "ason": 886,
      "Ġread": 887,
      "ĠPro": 888,
      "Ġins": 889,
      "cy": 890,
      "ĠDe": 891,
      "Ġdiffe": 892,
      "ract": 893,
      "Ġbest": 894,
      "Ġperson": 895,
      "ix": 896,
      "Ġrequ": 897,
      "ollow": 898,
      "Ġworld": 899,
      "Ġass": 900,
      "Ġcar": 901,
      "ues": 902,
      "Ġmin": 903,
      "rest": 904,
      "alk": 905,
      "ually": 906,
      "ĠIf": 907,
      "Ġlast": 908,
      "ax": 909,
      "way": 910,
      "Ġloc": 911,
      "io": 912,
      "Ġsur": 913,
      "Ġhome": 914,
      "âĢľ": 915,
      "Ġfam": 916,
      "Ġbr": 917,
      "Ġsim": 918,
      "ĠNew": 919,
      "ng": 920,
      "chool": 921,
      "ank": 922,
      "Ġ10": 923,
      "Ġbusiness": 924,
      "ject": 925,
      "gram": 926,
      "20": 927,
      "Ġhand": 928,
      "Ġlife": 929,
      "Ġ7": 930,
      "Ġinformation": 931,
      "Ġche": 932,
      "Ġpol": 933,
      "Ġav": 934,
      "line": 935,
      "self": 936,
      "...": 937,
      "ving": 938,
      "ave": 939,
      "Ġear": 940,
      "ins": 941,
      "ublic": 942,
      "led": 943,
      "pen": 944,
      "Ġsystem": 945,
      "ĠBut": 946,
      "ince": 947,
      "Ġmark": 948,
      "Ġwhile": 949,
      "Ġdevelop": 950,
      "Ġtrans": 951,
      "Ġmed": 952,
      "Ġlead": 953,
      "atch": 954,
      "Ġcount": 955,
      "Ġmem": 956,
      "Ġused": 957,
      "Ġinter": 958,
      "ouse": 959,
      ".\"": 960,
      "li": 961,
      "ros": 962,
      "chn": 963,
      "land": 964,
      "ather": 965,
      "az": 966,
      "Ġ8": 967,
      "pr": 968,
      "Ġeach": 969,
      "ives": 970,
      "Ġmod": 971,
      "arm": 972,
      "Ġcre": 973,
      "We": 974,
      "Ġreally": 975,
      "Ġthough": 976,
      "ness": 977,
      "ple": 978,
      "Ġret": 979,
      "Ġsub": 980,
      "Ġnum": 981,
      "Ġgoing": 982,
      "view": 983,
      "Ġart": 984,
      "akes": 985,
      "Ġaround": 986,
      "Ġform": 987,
      "cept": 988,
      "ĠAl": 989,
      "imes": 990,
      "Ġdet": 991,
      "Ġfollow": 992,
      "ines": 993,
      "Ġdisc": 994,
      "Ġsomet": 995,
      "Ġcour": 996,
      "meric": 997,
      "ween": 998,
      "read": 999,
      ",âĢĿ": 1000,
      "Ġsupport": 1001,
      "ale": 1002,
      "Ġvis": 1003,
      "ĠSh": 1004,
      "ience": 1005,
      "gg": 1006,
      "Ġdesign": 1007,
      "Ġstill": 1008,
      "ution": 1009,
      "ene": 1010,
      "Ġser": 1011,
      "oun": 1012,
      "ctions": 1013,
      "ever": 1014,
      "roup": 1015,
      "Ġsay": 1016,
      "riend": 1017,
      "ality": 1018,
      "ĠSo": 1019,
      "irect": 1020,
      "lease": 1021,
      "ved": 1022,
      "ets": 1023,
      "ize": 1024,
      "ash": 1025,
      "Ġcur": 1026,
      "Ġcomple": 1027,
      "Ġbook": 1028,
      "Ġteam": 1029,
      "ĠFor": 1030,
      "Ġsame": 1031,
      "Ġsl": 1032,
      "Ġcare": 1033,
      "der": 1034,
      "Ġadv": 1035,
      "Ġstr": 1036,
      "Ġed": 1037,
      "ĠAr": 1038,
      "Ġprovid": 1039,
      "Ġpoint": 1040,
      "Ġgr": 1041,
      "ata": 1042,
      "Ġsk": 1043,
      "Ġbetween": 1044,
      "Ġdifferent": 1045,
      "Ġrun": 1046,
      "Ġsign": 1047,
      "ivers": 1048,
      "Ġchar": 1049,
      "ah": 1050,
      "ages": 1051,
      "Ġaut": 1052,
      "the": 1053,
      "man": 1054,
      "Ġthree": 1055,
      "ĠThey": 1056,
      "Ġchild": 1057,
      "Ġfeel": 1058,
      "ĠCl": 1059,
      "ars": 1060,
      "ittle": 1061,
      "Ġfound": 1062,
      "ute": 1063,
      "Ġcommun": 1064,
      "ĠBe": 1065,
      "Ġplace": 1066,
      "Ġboth": 1067,
      "Ġ9": 1068,
      "Ġcle": 1069,
      "Ġprogram": 1070,
      "Ġstate": 1071,
      "Ġgl": 1072,
      "ex": 1073,
      "ustom": 1074,
      "ĠAmeric": 1075,
      "Ġfew": 1076,
      "Ġexp": 1077,
      "000": 1078,
      "Ġeas": 1079,
      "Ġbo": 1080,
      "less": 1081,
      "ways": 1082,
      "ional": 1083,
      "Ġlot": 1084,
      "Ġpost": 1085,
      "ĠLe": 1086,
      "Ġrep": 1087,
      "Ġpur": 1088,
      "Ġhapp": 1089,
      "This": 1090,
      "ody": 1091,
      "ists": 1092,
      "Wh": 1093,
      "It": 1094,
      "be": 1095,
      "ired": 1096,
      "Ġfree": 1097,
      "ten": 1098,
      "ton": 1099,
      "ized": 1100,
      "Ġmet": 1101,
      "Ġfun": 1102,
      "ves": 1103,
      "ety": 1104,
      "orn": 1105,
      "Ġthings": 1106,
      "ames": 1107,
      "ĠAd": 1108,
      "Ġext": 1109,
      "Ġlove": 1110,
      "ient": 1111,
      "vern": 1112,
      "ology": 1113,
      "Ġfull": 1114,
      "Ġlar": 1115,
      "thing": 1116,
      "Ġimport": 1117,
      "ffect": 1118,
      "Ġprocess": 1119,
      "Ġtop": 1120,
      "Ġgener": 1121,
      "Ġprof": 1122,
      "Ġmonth": 1123,
      "uc": 1124,
      "oh": 1125,
      "Ġlittle": 1126,
      "Ġhealth": 1127,
      "Ġreal": 1128,
      "ants": 1129,
      "Ġreport": 1130,
      "Ġlist": 1131,
      "Ġfact": 1132,
      "ature": 1133,
      "Ġtechn": 1134,
      "cent": 1135,
      "ailable": 1136,
      "Ġduring": 1137,
      "ital": 1138,
      "ross": 1139,
      "Ġplan": 1140,
      "ished": 1141,
      "bers": 1142,
      "cer": 1143,
      "Ġkeep": 1144,
      "ield": 1145,
      ",\"": 1146,
      "ug": 1147,
      "Ġcome": 1148,
      "Ġdef": 1149,
      "arn": 1150,
      "con": 1151,
      "Ġopen": 1152,
      "Ġref": 1153,
      "Ġob": 1154,
      "Ġfil": 1155,
      "ering": 1156,
      "Ġappro": 1157,
      "Ġposs": 1158,
      "att": 1159,
      "Ġcent": 1160,
      "tt": 1161,
      "Ġfr": 1162,
      "rand": 1163,
      "Ġint": 1164,
      "Ġsomething": 1165,
      "Ġusing": 1166,
      "ically": 1167,
      "Ġpartic": 1168,
      "Ġinterest": 1169,
      "Ġrest": 1170,
      "Ġiss": 1171,
      "ĠThere": 1172,
      "ms": 1173,
      "Ġcontin": 1174,
      "ared": 1175,
      "oad": 1176,
      "Ġgot": 1177,
      "ĠBl": 1178,
      "iving": 1179,
      "10": 1180,
      "gy": 1181,
      "ention": 1182,
      "ined": 1183,
      "atur": 1184,
      "oot": 1185,
      "Ġresp": 1186,
      "Ġwithout": 1187,
      "Ġbig": 1188,
      "Ġmight": 1189,
      "ining": 1190,
      "Ġresult": 1191,
      "Ġcor": 1192,
      "Ġcustom": 1193,
      "Ġput": 1194,
      "Ġmust": 1195,
      "Ġbetter": 1196,
      "Ġallow": 1197,
      "Ġnext": 1198,
      "Ġconf": 1199,
      "Ġfriend": 1200,
      "Ġty": 1201,
      "Ġpat": 1202,
      "Ġpri": 1203,
      "Ġcompany": 1204,
      "Ġanother": 1205,
      "Ġgame": 1206,
      "Ġgroup": 1207,
      "Ġpass": 1208,
      "Ġincluding": 1209,
      "Ġtry": 1210,
      "ger": 1211,
      "Ġvar": 1212,
      "Ġsmall": 1213,
      "Ġhead": 1214,
      "Ġschool": 1215,
      "Ġdist": 1216,
      "Ġavailable": 1217,
      "ĠHow": 1218,
      "Ġalways": 1219,
      "Ġsol": 1220,
      "Ġstand": 1221,
      "Ġtri": 1222,
      "ĠShe": 1223,
      "Ġweek": 1224,
      "Ġquest": 1225,
      "ĠâĢĺ": 1226,
      "Ġsecond": 1227,
      "Ġide": 1228,
      "Ġorgan": 1229,
      "iqu": 1230,
      "Ġmain": 1231,
      "reen": 1232,
      "âĢ¦": 1233,
      "Ġsince": 1234,
      "ik": 1235,
      "Ġdata": 1236,
      "Ġdri": 1237,
      "uss": 1238,
      "ploy": 1239,
      "Ġnever": 1240,
      "Ġfamily": 1241,
      "stand": 1242,
      "Ġmus": 1243,
      "Ġval": 1244,
      "Ġwr": 1245,
      "Ġmov": 1246,
      "ĠAll": 1247,
      "Ġwater": 1248,
      "Ġmarket": 1249,
      "Ġopt": 1250,
      "ier": 1251,
      "Ġhard": 1252,
      "rol": 1253,
      "ample": 1254,
      "Ġbuild": 1255,
      "ĠEx": 1256,
      "ĠOn": 1257,
      "ertain": 1258,
      "Ġnumber": 1259,
      "ately": 1260,
      "ĠFr": 1261,
      "ware": 1262,
      "Ġrece": 1263,
      "Ġcr": 1264,
      "Ġincre": 1265,
      "aj": 1266,
      "ism": 1267,
      "Ġold": 1268,
      "ling": 1269,
      "Ġask": 1270,
      "illion": 1271,
      "Ġproble": 1272,
      "Ġpower": 1273,
      "Ġpublic": 1274,
      "Ġpay": 1275,
      "ĠInd": 1276,
      "ĠPl": 1277,
      "ision": 1278,
      "ĠIs": 1279,
      "Ġperform": 1280,
      "Ġexpl": 1281,
      "Ġbro": 1282,
      "ps": 1283,
      "ral": 1284,
      "ĠâĢĶ": 1285,
      "Ġclass": 1286,
      "Ġdays": 1287,
      "ted": 1288,
      "ĠQ": 1289,
      "Ġwom": 1290,
      "Ġimportant": 1291,
      "els": 1292,
      "Ġsure": 1293,
      "rence": 1294,
      "19": 1295,
      "me": 1296,
      "âĢĶ": 1297,
      "Ġlevel": 1298,
      "Ġdirect": 1299,
      "Ġinf": 1300,
      "iversity": 1301,
      "Ġagainst": 1302,
      "Ġspec": 1303,
      "ense": 1304,
      "rist": 1305,
      "Ġexperience": 1306,
      "Ġel": 1307,
      "Ġlaw": 1308,
      "oney": 1309,
      "ior": 1310,
      "ER": 1311,
      "ccess": 1312,
      "Ġve": 1313,
      "Ġwin": 1314,
      "Ġservice": 1315,
      "ird": 1316,
      "Ġgive": 1317,
      "Ġi": 1318,
      "Ġseem": 1319,
      "ok": 1320,
      "Ġcost": 1321,
      "Ġhum": 1322,
      "work": 1323,
      "Ġca": 1324,
      "pend": 1325,
      "co": 1326,
      "Ġ0": 1327,
      "inal": 1328,
      "Ġable": 1329,
      "uck": 1330,
      "Ġless": 1331,
      "Ġbelie": 1332,
      "Ġtest": 1333,
      "Ġlight": 1334,
      "ote": 1335,
      "Ġlet": 1336,
      "Ġ18": 1337,
      "ards": 1338,
      "Ġinvest": 1339,
      "Ġfour": 1340,
      "Ġ'": 1341,
      "raph": 1342,
      "Ġsays": 1343,
      "Ġbre": 1344,
      "If": 1345,
      "Ġgrow": 1346,
      "Ġpos": 1347,
      "ases": 1348,
      "ered": 1349,
      "Ġ12": 1350,
      "ĠZ": 1351,
      "ĠTe": 1352,
      "ĠCon": 1353,
      "ours": 1354,
      "Ġunt": 1355,
      "here": 1356,
      "ably": 1357,
      ".,": 1358,
      "Ġrese": 1359,
      "Ġonline": 1360,
      "Ġcurrent": 1361,
      "Ġmeet": 1362,
      "gin": 1363,
      "Ġwithin": 1364,
      "Ġleg": 1365,
      "ats": 1366,
      "ĠPh": 1367,
      "ration": 1368,
      "Ġsit": 1369,
      "Ġdi": 1370,
      "ivid": 1371,
      "Ġprovide": 1372,
      "Ġgovern": 1373,
      "ĠCol": 1374,
      "Ġorder": 1375,
      "Ġpop": 1376,
      "ope": 1377,
      "cing": 1378,
      "pos": 1379,
      "ator": 1380,
      "pped": 1381,
      "Ġ.": 1382,
      "ien": 1383,
      "Ġturn": 1384,
      "outh": 1385,
      "ron": 1386,
      "50": 1387,
      "Ġoper": 1388,
      "ffic": 1389,
      "ann": 1390,
      "ret": 1391,
      "ently": 1392,
      "Ġann": 1393,
      "ĠThat": 1394,
      "Ġproper": 1395,
      "Ġtoday": 1396,
      "Ġaway": 1397,
      "pping": 1398,
      "med": 1399,
      "ains": 1400,
      "Ġhist": 1401,
      "Ġbeh": 1402,
      "ients": 1403,
      "Ġest": 1404,
      "aut": 1405,
      "ission": 1406,
      "He": 1407,
      "ember": 1408,
      "ott": 1409,
      "Ġsing": 1410,
      "ww": 1411,
      "ider": 1412,
      "ury": 1413,
      "ised": 1414,
      "Ġfood": 1415,
      "Ġprote": 1416,
      "Ġdem": 1417,
      "ĠUS": 1418,
      "Ġprev": 1419,
      "ney": 1420,
      "Ġnight": 1421,
      "Ġsupp": 1422,
      "Ġview": 1423,
      "Ġjob": 1424,
      "hor": 1425,
      "Ġworking": 1426,
      "ec": 1427,
      "ged": 1428,
      "oint": 1429,
      "Ġaccess": 1430,
      "ium": 1431,
      "ruct": 1432,
      "Ġmaking": 1433,
      "ording": 1434,
      "min": 1435,
      "ream": 1436,
      "lish": 1437,
      "Ġpresent": 1438,
      "atter": 1439,
      "Ġarea": 1440,
      "ĠOr": 1441,
      "iron": 1442,
      "Ġprom": 1443,
      "ley": 1444,
      "Ġeng": 1445,
      "Ġaddition": 1446,
      "por": 1447,
      "ĠTo": 1448,
      "ured": 1449,
      "Ġcourse": 1450,
      "Ġservices": 1451,
      "tend": 1452,
      "Ġtru": 1453,
      "Ġchange": 1454,
      "ified": 1455,
      "Ġchang": 1456,
      "ĠComm": 1457,
      "Ġcase": 1458,
      "Ġ[": 1459,
      "Ġuntil": 1460,
      "aring": 1461,
      "Ġspecial": 1462,
      "Ġequ": 1463,
      "30": 1464,
      "ĠSp": 1465,
      "fect": 1466,
      "Ġthing": 1467,
      "ĠSc": 1468,
      "orth": 1469,
      "ids": 1470,
      "Ġcap": 1471,
      "ĠRes": 1472,
      "of": 1473,
      "Ġsal": 1474,
      "Ġpast": 1475,
      "ĠTr": 1476,
      "Ġlocal": 1477,
      "ead": 1478,
      "ina": 1479,
      "soci": 1480,
      "'re": 1481,
      "irl": 1482,
      "Ġdev": 1483,
      "ories": 1484,
      "You": 1485,
      "ĠNo": 1486,
      "Ġchildren": 1487,
      "Ġstudents": 1488,
      "IN": 1489,
      "sh": 1490,
      "Ġword": 1491,
      "ĠMan": 1492,
      "Ġwhy": 1493,
      "ability": 1494,
      "ify": 1495,
      "Ġleft": 1496,
      "Ġphot": 1497,
      "cu": 1498,
      "eng": 1499,
      "Ġkind": 1500,
      "Ġfac": 1501,
      "Ġeffect": 1502,
      "ump": 1503,
      "Ġconst": 1504,
      "Ġpract": 1505,
      "Ġlooking": 1506,
      "omm": 1507,
      "ĠWhen": 1508,
      "lection": 1509,
      "Ġseason": 1510,
      "by": 1511,
      "conom": 1512,
      "augh": 1513,
      "Ġintern": 1514,
      "Ġterm": 1515,
      "iting": 1516,
      "Ġlarge": 1517,
      "Ġwebs": 1518,
      "ĠCent": 1519,
      "joy": 1520,
      "ries": 1521,
      "Ġ15": 1522,
      "icle": 1523,
      "As": 1524,
      "Ġbas": 1525,
      "Ġunderstand": 1526,
      "12": 1527,
      "Ġmoney": 1528,
      "Ġtalk": 1529,
      "Ġdr": 1530,
      "Ġemploy": 1531,
      "itions": 1532,
      "Ġevent": 1533,
      "ohn": 1534,
      "let": 1535,
      "ĠCan": 1536,
      "ĠMar": 1537,
      "Ġprofess": 1538,
      "Ġtimes": 1539,
      "bo": 1540,
      "Ġroom": 1541,
      "Ġname": 1542,
      "arent": 1543,
      "ization": 1544,
      "ĠWhat": 1545,
      "ising": 1546,
      "Ġoften": 1547,
      "Ġsuccess": 1548,
      "Ġenough": 1549,
      "Ġalong": 1550,
      "Ġtell": 1551,
      "Ġmove": 1552,
      "Ġwrit": 1553,
      "Ġactiv": 1554,
      "Ġvide": 1555,
      "Ġapplic": 1556,
      "Ġhaving": 1557,
      "Ġnear": 1558,
      "ĠChrist": 1559,
      "Ġdra": 1560,
      "Ġcond": 1561,
      "Ġsite": 1562,
      "ajor": 1563,
      "agement": 1564,
      "Ġdidn": 1565,
      "Ġ|": 1566,
      "part": 1567,
      "gether": 1568,
      "Ġtogether": 1569,
      "Ġimpro": 1570,
      "ready": 1571,
      "Ġcomplete": 1572,
      "ived": 1573,
      "Ġtreat": 1574,
      "ode": 1575,
      "ination": 1576,
      "utes": 1577,
      "Ġes": 1578,
      "alf": 1579,
      "aster": 1580,
      "Ġever": 1581,
      "ential": 1582,
      "Ġindust": 1583,
      "ocus": 1584,
      "11": 1585,
      "Ġrecord": 1586,
      "Ġsw": 1587,
      "Ġcheck": 1588,
      "veral": 1589,
      "Ġcountry": 1590,
      "ills": 1591,
      "ĠAt": 1592,
      "ane": 1593,
      "ĠEng": 1594,
      "urs": 1595,
      "ĠWith": 1596,
      "une": 1597,
      "iven": 1598,
      "Ġproduct": 1599,
      "Ġcreat": 1600,
      "Ġcommunity": 1601,
      "aim": 1602,
      "Ġhouse": 1603,
      "enn": 1604,
      "ĠUniversity": 1605,
      "Ġlearn": 1606,
      "ĠMay": 1607,
      "Ġpain": 1608,
      "Ġshort": 1609,
      "Ġcalled": 1610,
      "Ġproducts": 1611,
      "Ġexpect": 1612,
      "Ġbecome": 1613,
      "ĠCo": 1614,
      "aterial": 1615,
      "Ġair": 1616,
      "itive": 1617,
      "Ġ199": 1618,
      "ee": 1619,
      "Ġfar": 1620,
      "Ġbody": 1621,
      "Ġmen": 1622,
      "Ġcame": 1623,
      "Ġbit": 1624,
      "Ġside": 1625,
      "Ġdone": 1626,
      "Ġline": 1627,
      "ern": 1628,
      "br": 1629,
      "Ġ30": 1630,
      "ividual": 1631,
      "Ġstory": 1632,
      "Ġconne": 1633,
      "Ġalready": 1634,
      "Ġbene": 1635,
      "ush": 1636,
      "Ġfollowing": 1637,
      "ows": 1638,
      "Ġoffic": 1639,
      "Ġinclude": 1640,
      "'m": 1641,
      "side": 1642,
      "Ġmembers": 1643,
      "ĠGod": 1644,
      "Ġcontrol": 1645,
      "Ġoffer": 1646,
      "ots": 1647,
      "Ġmar": 1648,
      "Ġbuy": 1649,
      "viron": 1650,
      "ained": 1651,
      "Ġocc": 1652,
      "ency": 1653,
      "Ġfeat": 1654,
      "son": 1655,
      "Ġ11": 1656,
      "ored": 1657,
      "Ġwent": 1658,
      "ery": 1659,
      "Ġcertain": 1660,
      "Ġaccount": 1661,
      "Ġenjoy": 1662,
      "Ġtrad": 1663,
      "ĠCar": 1664,
      "Ġothers": 1665,
      "Ġpossible": 1666,
      "Ġsocial": 1667,
      "Ġmil": 1668,
      "Ġpersonal": 1669,
      "Ġseveral": 1670,
      "Ġfore": 1671,
      "Ġresearch": 1672,
      "ON": 1673,
      "Ġpa": 1674,
      "ĠAmerican": 1675,
      "ĠFl": 1676,
      "Ġreview": 1677,
      "Ġmean": 1678,
      "Ġreturn": 1679,
      "Ġgetting": 1680,
      "Ġgovernment": 1681,
      "rop": 1682,
      "Ġnews": 1683,
      "ither": 1684,
      "rap": 1685,
      "fer": 1686,
      "ands": 1687,
      "Ġmeans": 1688,
      "Ġlive": 1689,
      "pportun": 1690,
      "Ġtre": 1691,
      "Ġmakes": 1692,
      "Ġneeds": 1693,
      "What": 1694,
      "Ġleast": 1695,
      "Ġtook": 1696,
      "Ġhold": 1697,
      "Ġmusic": 1698,
      "Ġbased": 1699,
      "uture": 1700,
      "ances": 1701,
      "Ġmajor": 1702,
      "Ġmillion": 1703,
      "ails": 1704,
      "Ġdoing": 1705,
      "Ġindividual": 1706,
      "oice": 1707,
      "Ġeasy": 1708,
      "ĠMy": 1709,
      "For": 1710,
      "Ġcou": 1711,
      "Ġlim": 1712,
      "Ġmind": 1713,
      "Ġpot": 1714,
      "'ve": 1715,
      "fort": 1716,
      "Ġfocus": 1717,
      "ES": 1718,
      "ĠJohn": 1719,
      "Ġla": 1720,
      "Ġcamp": 1721,
      "osed": 1722,
      "Ġfav": 1723,
      "ique": 1724,
      "Ġyoung": 1725,
      "uff": 1726,
      "Ġeduc": 1727,
      "eral": 1728,
      "wh": 1729,
      "ones": 1730,
      "Ġquality": 1731,
      "Ġdoesn": 1732,
      "ians": 1733,
      "St": 1734,
      "Ġthought": 1735,
      "Ġbenef": 1736,
      "atic": 1737,
      "Ġproject": 1738,
      "err": 1739,
      "idd": 1740,
      "mber": 1741,
      "Ġnon": 1742,
      "ript": 1743,
      "orts": 1744,
      "lement": 1745,
      "Ġvisit": 1746,
      "not": 1747,
      "Ġwebsite": 1748,
      "AR": 1749,
      "Ġwon": 1750,
      "Ġpercent": 1751,
      "Ġactually": 1752,
      "wards": 1753,
      "app": 1754,
      "Ġopportun": 1755,
      "Ġwomen": 1756,
      "AT": 1757,
      "most": 1758,
      "aps": 1759,
      "ides": 1760,
      "ched": 1761,
      "Ġclear": 1762,
      "cially": 1763,
      "vironment": 1764,
      "Ġcomes": 1765,
      "Ġorig": 1766,
      "for": 1767,
      "rodu": 1768,
      "aff": 1769,
      "oor": 1770,
      "ches": 1771,
      "ĠApp": 1772,
      "ĠSte": 1773,
      "ĠSu": 1774,
      "Ġacross": 1775,
      "ĠAm": 1776,
      "Ġmom": 1777,
      "AN": 1778,
      "ully": 1779,
      "Ġparticular": 1780,
      "Ġcreate": 1781,
      "over": 1782,
      "crib": 1783,
      "Ġeconom": 1784,
      "Ġfund": 1785,
      "Ġnet": 1786,
      "uro": 1787,
      "Ġelect": 1788,
      "eb": 1789,
      "Ġstarted": 1790,
      "Ġreason": 1791,
      "Ġlow": 1792,
      "ama": 1793,
      "Ġhuman": 1794,
      "Ġcharact": 1795,
      "Ġmaterial": 1796,
      "Ġdeal": 1797,
      "Ġey": 1798,
      "Ġanal": 1799,
      "aken": 1800,
      "lished": 1801,
      "Ġdevelopment": 1802,
      "Ġyet": 1803,
      "urther": 1804,
      "Ġquick": 1805,
      "Ġonce": 1806,
      "arr": 1807,
      "--": 1808,
      "Ġtold": 1809,
      "Ġhappen": 1810,
      "yle": 1811,
      "ĠÂ": 1812,
      "Ġinvol": 1813,
      "Ġtax": 1814,
      "ference": 1815,
      "ai": 1816,
      "ĠRep": 1817,
      "ctor": 1818,
      "Ġlink": 1819,
      "ony": 1820,
      "Ġcontact": 1821,
      "Ġce": 1822,
      "Ġfuture": 1823,
      "lf": 1824,
      "Ġhours": 1825,
      "Ġmult": 1826,
      "Ġkey": 1827,
      "Ġsoft": 1828,
      "Ġexample": 1829,
      "che": 1830,
      "Ġpar": 1831,
      "Ġvers": 1832,
      "Ġearly": 1833,
      "Ġ16": 1834,
      "Ġlater": 1835,
      "Ġpolit": 1836,
      "ĠBr": 1837,
      "Ġcity": 1838,
      "ĠX": 1839,
      "ister": 1840,
      "OR": 1841,
      "ĠMed": 1842,
      "Ġcut": 1843,
      "ĠUnited": 1844,
      "Ġfriends": 1845,
      "There": 1846,
      "âĢĵ": 1847,
      "ateg": 1848,
      "Ġstrong": 1849,
      "ograph": 1850,
      "Ġfive": 1851,
      "And": 1852,
      "Ġ--": 1853,
      "Ġbring": 1854,
      "Ġbeaut": 1855,
      "ift": 1856,
      "Ġmonths": 1857,
      "!!": 1858,
      "verage": 1859,
      "ĠThese": 1860,
      "mm": 1861,
      "cle": 1862,
      "Ġfield": 1863,
      "Ġredu": 1864,
      "ges": 1865,
      "ips": 1866,
      "ulation": 1867,
      "Ġris": 1868,
      "ource": 1869,
      "Ġident": 1870,
      "ape": 1871,
      "ĠIntern": 1872,
      "'ll": 1873,
      "Ġemail": 1874,
      "Ġshare": 1875,
      "Ġperfect": 1876,
      "Ġspecific": 1877,
      "book": 1878,
      "Ġknown": 1879,
      "Ġ14": 1880,
      "Ġrequire": 1881,
      "Ġstudy": 1882,
      "Ġtyp": 1883,
      "ĠOne": 1884,
      "de": 1885,
      "Ġauthor": 1886,
      "room": 1887,
      "Ġbelow": 1888,
      "Ġheart": 1889,
      "use": 1890,
      "Ġwa": 1891,
      "ĠState": 1892,
      "iday": 1893,
      "Ġhot": 1894,
      "Ġhig": 1895,
      "illed": 1896,
      "Ġbegin": 1897,
      "Ġvideo": 1898,
      "Ġtem": 1899,
      "Ġitem": 1900,
      "Ġappear": 1901,
      "Ġpress": 1902,
      "Ġdiscuss": 1903,
      "Ġclose": 1904,
      "resent": 1905,
      "ĠWor": 1906,
      "light": 1907,
      "oon": 1908,
      "ĠCont": 1909,
      "Ġprob": 1910,
      "Ġproblem": 1911,
      "But": 1912,
      "Ġet": 1913,
      "ourn": 1914,
      "Ġhistory": 1915,
      "ober": 1916,
      "lling": 1917,
      "par": 1918,
      "acy": 1919,
      "Ġpriv": 1920,
      "utions": 1921,
      "Ġcult": 1922,
      "ĠNe": 1923,
      "jects": 1924,
      "icy": 1925,
      "Ġstep": 1926,
      "ĠEn": 1927,
      "reet": 1928,
      "lev": 1929,
      "An": 1930,
      "Ġ2012": 1931,
      "Ġcomb": 1932,
      "Ġface": 1933,
      "ster": 1934,
      "iod": 1935,
      "Ġpack": 1936,
      "ĠSy": 1937,
      "15": 1938,
      "itor": 1939,
      "sw": 1940,
      "unch": 1941,
      "Ġsound": 1942,
      "ĠDo": 1943,
      "Ġcompet": 1944,
      "Ġpick": 1945,
      "Ġamong": 1946,
      "Ġwalk": 1947,
      "ners": 1948,
      "ensive": 1949,
      "play": 1950,
      "oose": 1951,
      "anies": 1952,
      "ĠPr": 1953,
      "urity": 1954,
      "ources": 1955,
      "Ġaddress": 1956,
      "//": 1957,
      "Ġeverything": 1958,
      "Ġpage": 1959,
      "Ġvari": 1960,
      "Ġmor": 1961,
      "Ġhalf": 1962,
      "osp": 1963,
      "Ġindustry": 1964,
      "Ġwhole": 1965,
      "Ġchall": 1966,
      "Ġsingle": 1967,
      "ball": 1968,
      "ler": 1969,
      "Ġrespons": 1970,
      "go": 1971,
      "Ġtaking": 1972,
      "Ġpurch": 1973,
      "Ġener": 1974,
      "new": 1975,
      "atural": 1976,
      "ison": 1977,
      "Ġstay": 1978,
      "ued": 1979,
      "ĠCal": 1980,
      "ural": 1981,
      "imate": 1982,
      "Ġseen": 1983,
      "Ġago": 1984,
      "Ġminutes": 1985,
      "lege": 1986,
      "idence": 1987,
      "load": 1988,
      "ĠInst": 1989,
      "ino": 1990,
      "Ġwind": 1991,
      "Ġrelations": 1992,
      "Ġsomeone": 1993,
      "ned": 1994,
      "though": 1995,
      "Ġant": 1996,
      "Ġens": 1997,
      "ilar": 1998,
      "Ġbelieve": 1999,
      "Ġenc": 2000,
      "ilities": 2001,
      "ĠComp": 2002,
      "Ġwhether": 2003,
      "ĠHowever": 2004,
      "ĠNot": 2005,
      "Ġquestion": 2006,
      "hod": 2007,
      "Ġgames": 2008,
      "Ġspace": 2009,
      "fic": 2010,
      "Ġpie": 2011,
      "16": 2012,
      "Ġgirl": 2013,
      "Ġbreak": 2014,
      "ging": 2015,
      "Ġ17": 2016,
      "Ġsci": 2017,
      "aces": 2018,
      "pecially": 2019,
      "ilt": 2020,
      "ille": 2021,
      "cted": 2022,
      "rain": 2023,
      "selves": 2024,
      "abor": 2025,
      "ided": 2026,
      "ĠYork": 2027,
      "Ġtot": 2028,
      "rew": 2029,
      "Ġhope": 2030,
      "Ġclaim": 2031,
      "pro": 2032,
      "ĠCount": 2033,
      "Ġenvironment": 2034,
      "irm": 2035,
      "ply": 2036,
      "mb": 2037,
      "ĠMc": 2038,
      "Ġpub": 2039,
      "Ġmedia": 2040,
      "Ġste": 2041,
      "Ġage": 2042,
      "ung": 2043,
      "hers": 2044,
      "Ġsuper": 2045,
      "ibility": 2046,
      "Ġanything": 2047,
      "Ġgiven": 2048,
      "Ġ100": 2049,
      "ledge": 2050,
      "org": 2051,
      "Ġ13": 2052,
      "How": 2053,
      "ĠMe": 2054,
      "Ġissues": 2055,
      "tain": 2056,
      "Ġcomput": 2057,
      "ental": 2058,
      "rict": 2059,
      "iver": 2060,
      "fully": 2061,
      "Ġfront": 2062,
      "Ġfre": 2063,
      "rown": 2064,
      "Ġstore": 2065,
      "af": 2066,
      "ggest": 2067,
      "Ġbad": 2068,
      "Ġphys": 2069,
      "Ġmanag": 2070,
      "iously": 2071,
      "ogn": 2072,
      "irt": 2073,
      "Ġamount": 2074,
      "Ġess": 2075,
      "18": 2076,
      "Ġfall": 2077,
      "Ġabove": 2078,
      "Ġcommon": 2079,
      "So": 2080,
      "Ġmess": 2081,
      "Ġmeas": 2082,
      "ĠGu": 2083,
      "://": 2084,
      "ĠCity": 2085,
      "Ġprice": 2086,
      "ĠServ": 2087,
      "Ġplease": 2088,
      "On": 2089,
      "Ġdeli": 2090,
      "Ġclean": 2091,
      "Ġjo": 2092,
      "When": 2093,
      "Ġdue": 2094,
      "Ġresults": 2095,
      "13": 2096,
      "urch": 2097,
      "ĠStates": 2098,
      "Ġ25": 2099,
      "Ġcontent": 2100,
      "Ġeff": 2101,
      "Ġ24": 2102,
      "Ġrecomm": 2103,
      "Ġwatch": 2104,
      "Ġidea": 2105,
      "come": 2106,
      "ĠMin": 2107,
      "Ġsearch": 2108,
      "ĠNational": 2109,
      "Ġcra": 2110,
      "Ġmot": 2111,
      "ĠEuro": 2112,
      "Ġperiod": 2113,
      "itted": 2114,
      "ators": 2115,
      "Ġz": 2116,
      "Ġrecommend": 2117,
      "asing": 2118,
      "vent": 2119,
      "Ġtool": 2120,
      "Ġcred": 2121,
      "Ġconsider": 2122,
      "dd": 2123,
      "Ġseries": 2124,
      "ĠPres": 2125,
      "Ġquestions": 2126,
      "Ġalmost": 2127,
      "AS": 2128,
      "Ġsix": 2129,
      "Ġ#": 2130,
      "Ġcompanies": 2131,
      "Ġfurther": 2132,
      "Ġwond": 2133,
      "Ġ/": 2134,
      "ĠOur": 2135,
      "ox": 2136,
      "Ġrange": 2137,
      "Ġtechnology": 2138,
      "IS": 2139,
      "back": 2140,
      "uation": 2141,
      "Ġvol": 2142,
      "ĠChe": 2143,
      "Ġsuggest": 2144,
      "Ġdeb": 2145,
      "ams": 2146,
      "Ġeither": 2147,
      "ĠYour": 2148,
      "14": 2149,
      "Ġnecess": 2150,
      "Ġtaken": 2151,
      "Ġcell": 2152,
      "ED": 2153,
      "used": 2154,
      "Ġenergy": 2155,
      "Ġaud": 2156,
      "Ġthird": 2157,
      "Ġconcer": 2158,
      "EN": 2159,
      "ried": 2160,
      "Ġcal": 2161,
      "Ġport": 2162,
      "ancial": 2163,
      "Ġblog": 2164,
      "Ġbar": 2165,
      "Ġaff": 2166,
      "Ġdou": 2167,
      "Ġbuilding": 2168,
      "anks": 2169,
      "Ġtravel": 2170,
      "Ġblack": 2171,
      "Ch": 2172,
      "Ġself": 2173,
      "Ġpoints": 2174,
      "opy": 2175,
      "Ġtrying": 2176,
      "ops": 2177,
      "Ġeveryone": 2178,
      "Ġworks": 2179,
      "Ġtrack": 2180,
      "Ġbrand": 2181,
      "Ġentire": 2182,
      "Ġfavor": 2183,
      "Ġcir": 2184,
      "ask": 2185,
      "Ġrepl": 2186,
      "elt": 2187,
      "ĠAfter": 2188,
      "Ġlikely": 2189,
      "Ġfeatures": 2190,
      "Ġfilm": 2191,
      "ively": 2192,
      "Ġwar": 2193,
      "gle": 2194,
      "cript": 2195,
      "ĠJan": 2196,
      "200": 2197,
      "Ġ:": 2198,
      "ĠGo": 2199,
      "ficult": 2200,
      "cell": 2201,
      "obal": 2202,
      ".)": 2203,
      "ples": 2204,
      "Re": 2205,
      "ĠTw": 2206,
      "yl": 2207,
      "AL": 2208,
      "Ġcrit": 2209,
      "Ġ2013": 2210,
      "Ġmag": 2211,
      "Ġpict": 2212,
      "ĠMr": 2213,
      "Ġsent": 2214,
      "Ġareas": 2215,
      "time": 2216,
      "__": 2217,
      "gress": 2218,
      "Ġdocu": 2219,
      "Ġpret": 2220,
      "year": 2221,
      "Ġwanted": 2222,
      "Ġmanagement": 2223,
      "ĠEd": 2224,
      "rie": 2225,
      "Ġtraining": 2226,
      "Ġespecially": 2227,
      "gest": 2228,
      "itting": 2229,
      "vert": 2230,
      "rug": 2231,
      "Ġ50": 2232,
      "Ġcustomers": 2233,
      "Ġsex": 2234,
      "Ġsimple": 2235,
      "Ġtype": 2236,
      "ication": 2237,
      "lex": 2238,
      "ites": 2239,
      "Ġhost": 2240,
      "Ġland": 2241,
      "Ġmiss": 2242,
      "Ġquite": 2243,
      "Ġcompl": 2244,
      "ires": 2245,
      "Ġrelationship": 2246,
      "Ġexc": 2247,
      "Ġinstall": 2248,
      "resh": 2249,
      "Ġsignific": 2250,
      "25": 2251,
      "my": 2252,
      "aur": 2253,
      "Ġhowever": 2254,
      "Ġweb": 2255,
      "oid": 2256,
      "ili": 2257,
      "Ġvalue": 2258,
      "Ġcoming": 2259,
      "IT": 2260,
      "ĠEurope": 2261,
      "Ġprobably": 2262,
      "Ġvarious": 2263,
      "Ġoffice": 2264,
      "Ġdam": 2265,
      "ĠWorld": 2266,
      "Ġneeded": 2267,
      "umb": 2268,
      "omes": 2269,
      "Ġdeath": 2270,
      "minist": 2271,
      "ially": 2272,
      "ĠPe": 2273,
      "Ġdifficult": 2274,
      "ights": 2275,
      "Ġtext": 2276,
      "IC": 2277,
      "Ġrather": 2278,
      "ification": 2279,
      "Ġrequired": 2280,
      "ĠGe": 2281,
      "Ġelse": 2282,
      "itch": 2283,
      "Ġasked": 2284,
      "Ġred": 2285,
      "oved": 2286,
      "Ġissue": 2287,
      "ĠSec": 2288,
      "iful": 2289,
      "Ġimprove": 2290,
      "Ġparent": 2291,
      "Ġdig": 2292,
      "Ġaccording": 2293,
      "Ġabs": 2294,
      "Ġpretty": 2295,
      "ĠAust": 2296,
      "Ġparticip": 2297,
      "Ġbehind": 2298,
      "Ġconsum": 2299,
      "ĠGl": 2300,
      "Ġwhite": 2301,
      "ibr": 2302,
      "Ġevents": 2303,
      "chie": 2304,
      "Ġliving": 2305,
      "Ġperformance": 2306,
      "ĠNorth": 2307,
      "where": 2308,
      "empt": 2309,
      "nes": 2310,
      "ĠWill": 2311,
      "ĠPart": 2312,
      "itten": 2313,
      "Ġoffers": 2314,
      "nding": 2315,
      "Ġposition": 2316,
      "Ġprovides": 2317,
      "Ġsong": 2318,
      "Ġexist": 2319,
      "olution": 2320,
      "fact": 2321,
      "Ġproblems": 2322,
      "ĠQu": 2323,
      "icated": 2324,
      "Ġfoot": 2325,
      "ĠDep": 2326,
      "oe": 2327,
      "angu": 2328,
      "Ġsimply": 2329,
      "Ġsoon": 2330,
      "To": 2331,
      "iol": 2332,
      "ĠSchool": 2333,
      "17": 2334,
      "Ġisn": 2335,
      "Ġassist": 2336,
      "Ġoil": 2337,
      "roll": 2338,
      "Ġnothing": 2339,
      "Ġmethod": 2340,
      "Ġswe": 2341,
      "Ġansw": 2342,
      "Ġways": 2343,
      "val": 2344,
      "apt": 2345,
      "Ġwords": 2346,
      "Ġinit": 2347,
      "yn": 2348,
      "Ġupon": 2349,
      "Ġgra": 2350,
      "Ġadded": 2351,
      "ruction": 2352,
      "Ġrisk": 2353,
      "Ġ2011": 2354,
      "ĠHis": 2355,
      "Ġdeterm": 2356,
      "reme": 2357,
      "Ġinfl": 2358,
      "ĠMark": 2359,
      "Ġhy": 2360,
      "ĠBar": 2361,
      "Ġcharacter": 2362,
      "Ġexperien": 2363,
      "Ġcontinue": 2364,
      "ĠGr": 2365,
      "ĠSouth": 2366,
      "Ġprofessional": 2367,
      "eth": 2368,
      "aching": 2369,
      "icro": 2370,
      "Ġpopular": 2371,
      "ief": 2372,
      "pril": 2373,
      "Ġprovided": 2374,
      "ables": 2375,
      "Ġrepresent": 2376,
      "Ã©": 2377,
      "ĠPark": 2378,
      "itional": 2379,
      "Ġaccept": 2380,
      "Ġmatter": 2381,
      "ĠAf": 2382,
      "ze": 2383,
      "Ġfire": 2384,
      "âĢ¢": 2385,
      "Ġsize": 2386,
      "Ġproperty": 2387,
      "head": 2388,
      "Ġcard": 2389,
      "Ġinn": 2390,
      "Ġsimilar": 2391,
      "Ġweeks": 2392,
      "ĠSm": 2393,
      "Ġtou": 2394,
      "amer": 2395,
      "Ġaction": 2396,
      "Ġfail": 2397,
      "ĠDes": 2398,
      "Ġupd": 2399,
      "Ġannoun": 2400,
      "Ġhtt": 2401,
      "Ġstaff": 2402,
      "ĠDis": 2403,
      "ĠCenter": 2404,
      "anc": 2405,
      "Ġground": 2406,
      "ĠOct": 2407,
      "Ġrequest": 2408,
      "ĠAmerica": 2409,
      "Ġstat": 2410,
      "Ġprep": 2411,
      "ĠDr": 2412,
      "Ġtakes": 2413,
      "Ġlog": 2414,
      "Ġwriting": 2415,
      "Ġparty": 2416,
      "US": 2417,
      "....": 2418,
      "ring": 2419,
      "ole": 2420,
      "Ġphone": 2421,
      "urance": 2422,
      "Ġheld": 2423,
      "ees": 2424,
      "ĠTra": 2425,
      "Ġroad": 2426,
      "Ġextra": 2427,
      "ĠPer": 2428,
      "Ġrad": 2429,
      "Ġsignificant": 2430,
      "lt": 2431,
      "ules": 2432,
      "ades": 2433,
      "Ġhon": 2434,
      "Ġknowledge": 2435,
      "Ġnatural": 2436,
      "uge": 2437,
      "reg": 2438,
      "Ġrole": 2439,
      "Ġtrue": 2440,
      "ĠAb": 2441,
      "na": 2442,
      "Ġimpact": 2443,
      "Ġseems": 2444,
      "Ġgeneral": 2445,
      "clus": 2446,
      "obile": 2447,
      "ĠJu": 2448,
      "Ġincludes": 2449,
      "aily": 2450,
      "RE": 2451,
      "Ġskin": 2452,
      "Ġforward": 2453,
      "ĠJust": 2454,
      "ĠCor": 2455,
      "ises": 2456,
      "ume": 2457,
      "Ġfinal": 2458,
      "Ġassoci": 2459,
      "pper": 2460,
      "Ġbed": 2461,
      "Ġrecent": 2462,
      "22": 2463,
      "ada": 2464,
      "ĠKe": 2465,
      "medi": 2466,
      "Ġestab": 2467,
      "Ġchanges": 2468,
      "ĠMarch": 2469,
      "ival": 2470,
      "Ġattack": 2471,
      "face": 2472,
      "AC": 2473,
      "Ġcook": 2474,
      "overed": 2475,
      "ĠSome": 2476,
      "leased": 2477,
      "ĠAug": 2478,
      "Ġdel": 2479,
      "Ġshows": 2480,
      "Ġcoll": 2481,
      "ĠCounty": 2482,
      "Ġrecogn": 2483,
      "Ġincrease": 2484,
      "ĠAct": 2485,
      "ĠBy": 2486,
      "Ġcannot": 2487,
      "Ġoutside": 2488,
      "Ġeducation": 2489,
      "Ġdate": 2490,
      "Ġregard": 2491,
      "put": 2492,
      "Ġcover": 2493,
      "Ġhit": 2494,
      "Ġinde": 2495,
      "ĠJune": 2496,
      "Ġkids": 2497,
      "Ġanim": 2498,
      "Ġsaw": 2499,
      "Ġmodel": 2500,
      "Ġstop": 2501,
      "aving": 2502,
      "Ġtreatment": 2503,
      "ID": 2504,
      "Ġnational": 2505,
      "Ġfunction": 2506,
      "ĠTH": 2507,
      "Ġcourt": 2508,
      "ĠPresident": 2509,
      "Ġball": 2510,
      "Ġyourself": 2511,
      "Ġunique": 2512,
      "arget": 2513,
      "Ġfig": 2514,
      "right": 2515,
      "Ġwide": 2516,
      "Ġselect": 2517,
      "Ġengine": 2518,
      "Al": 2519,
      "ĠDav": 2520,
      "eter": 2521,
      "Ġ2010": 2522,
      "Ġtable": 2523,
      "Ġinj": 2524,
      "hib": 2525,
      "Ġcreated": 2526,
      "Ġmoment": 2527,
      "Ġop": 2528,
      "ude": 2529,
      "Ġrunning": 2530,
      "Ġprint": 2531,
      "Ġgen": 2532,
      "irit": 2533,
      "uary": 2534,
      "amed": 2535,
      "Ġmember": 2536,
      "ĠPol": 2537,
      "astic": 2538,
      "Ġfinancial": 2539,
      "Ġleave": 2540,
      "anced": 2541,
      "arter": 2542,
      "Ġarticle": 2543,
      "Ġnetwork": 2544,
      "Ġdom": 2545,
      "Ġpark": 2546,
      "Ġloss": 2547,
      "Ġsum": 2548,
      "Ġlonger": 2549,
      "Ġofficial": 2550,
      "Ġdefin": 2551,
      "60": 2552,
      "Ġoriginal": 2553,
      "iter": 2554,
      "oring": 2555,
      "Ġlay": 2556,
      "ufact": 2557,
      "Ġsle": 2558,
      "idge": 2559,
      "Ġstri": 2560,
      "Ġopp": 2561,
      "Ġbase": 2562,
      "Ġlat": 2563,
      "Ġachie": 2564,
      "Ġtit": 2565,
      "oph": 2566,
      "Ġdescrib": 2567,
      "Ġdesigned": 2568,
      "Ġcontrib": 2569,
      "ĠIm": 2570,
      "iff": 2571,
      "earch": 2572,
      "ĠAg": 2573,
      "80": 2574,
      "ĠOb": 2575,
      "Ġsafe": 2576,
      "ederal": 2577,
      "Ġopportunity": 2578,
      "Ġsecurity": 2579,
      "iet": 2580,
      "Ġcouple": 2581,
      "Ġcomputer": 2582,
      "Ġbooks": 2583,
      "Ġfa": 2584,
      "atory": 2585,
      "Ġthroughout": 2586,
      "ales": 2587,
      "Ġblood": 2588,
      "Ġspeak": 2589,
      "Ġbeautiful": 2590,
      "Ġagree": 2591,
      "erc": 2592,
      "Ġrate": 2593,
      "based": 2594,
      "Ġexam": 2595,
      "Ġsystems": 2596,
      "Ġlate": 2597,
      "aced": 2598,
      "ciety": 2599,
      "Ġtown": 2600,
      "Ġcause": 2601,
      "Ġdog": 2602,
      "oura": 2603,
      "ĠReg": 2604,
      "Ġnorm": 2605,
      "Ġhigher": 2606,
      "Ġworth": 2607,
      "Ġusually": 2608,
      "iddle": 2609,
      "Ġplayers": 2610,
      "Ġrespect": 2611,
      "ĠApril": 2612,
      "ĠPre": 2613,
      "Ġleaders": 2614,
      "Ġpolitical": 2615,
      "Ġemb": 2616,
      "Ġsoftware": 2617,
      "Ġetc": 2618,
      "Ġlost": 2619,
      "Ġready": 2620,
      "ĠStud": 2621,
      "gu": 2622,
      "Ġapplication": 2623,
      "ĠBo": 2624,
      "ĠInc": 2625,
      "Ġoptions": 2626,
      "Ġmorning": 2627,
      "Ġcoun": 2628,
      "Ġreceive": 2629,
      "Ġversion": 2630,
      "izing": 2631,
      "Ġusers": 2632,
      "Ġill": 2633,
      "ceed": 2634,
      "Ġsales": 2635,
      "oud": 2636,
      "Ġmedical": 2637,
      "Ġsense": 2638,
      "Ġexpress": 2639,
      "cil": 2640,
      "Ġthemselves": 2641,
      "Ġreceived": 2642,
      "Ġsens": 2643,
      "ĠSpe": 2644,
      "Ġdest": 2645,
      "Ġrecently": 2646,
      "ysis": 2647,
      "Ġdetails": 2648,
      "aining": 2649,
      "Ġanyone": 2650,
      "Ġbott": 2651,
      "Ġfast": 2652,
      "ana": 2653,
      "Ġensure": 2654,
      "Ġbox": 2655,
      "ĠWest": 2656,
      "ĠHigh": 2657,
      "Ġinside": 2658,
      "mit": 2659,
      "Ġrights": 2660,
      "ffects": 2661,
      "AM": 2662,
      "Ġx": 2663,
      "sy": 2664,
      "Ġfit": 2665,
      "edd": 2666,
      "Ġreading": 2667,
      "Ġcollect": 2668,
      "Ġnice": 2669,
      "Ġregular": 2670,
      "aturday": 2671,
      "off": 2672,
      "ĠHar": 2673,
      "ĠNow": 2674,
      "Ġblock": 2675,
      "Ġmach": 2676,
      "uth": 2677,
      "Ġ,": 2678,
      "Ġprior": 2679,
      "Ġtotal": 2680,
      "Ġpotential": 2681,
      "sc": 2682,
      "40": 2683,
      "arning": 2684,
      "Ġhands": 2685,
      "ha": 2686,
      "Ġgrowth": 2687,
      "ague": 2688,
      "Ġmeeting": 2689,
      "ournal": 2690,
      "ashing": 2691,
      "Ġformer": 2692,
      "Ġcolor": 2693,
      "aign": 2694,
      "Ġri": 2695,
      "Ġdeep": 2696,
      "ĠDay": 2697,
      "ĠSept": 2698,
      "Ġpolicy": 2699,
      "fl": 2700,
      "ĠHouse": 2701,
      "irth": 2702,
      "oogle": 2703,
      "ological": 2704,
      "Ġlives": 2705,
      "ĠDon": 2706,
      "Ġchoose": 2707,
      "ett": 2708,
      "Ġcareer": 2709,
      "Ġwonder": 2710,
      "ĠEl": 2711,
      "ached": 2712,
      "Ġprivate": 2713,
      "like": 2714,
      "Ġprograms": 2715,
      "Ġcurrently": 2716,
      "cast": 2717,
      "oke": 2718,
      "oes": 2719,
      "ĠPa": 2720,
      "Ġele": 2721,
      "Ġshall": 2722,
      "pri": 2723,
      "Ġbal": 2724,
      "Ġneg": 2725,
      "Ġclick": 2726,
      "artment": 2727,
      "aging": 2728,
      "Ġhappy": 2729,
      "mon": 2730,
      "Ġpractice": 2731,
      "Ġdepend": 2732,
      "Ġitself": 2733,
      "ession": 2734,
      "lier": 2735,
      "nds": 2736,
      "Ġstra": 2737,
      "Ġobs": 2738,
      "ĠMich": 2739,
      "ĠFeb": 2740,
      "Ġbegan": 2741,
      "Ġcomfort": 2742,
      "Ġterms": 2743,
      "Ġvia": 2744,
      "Ġmass": 2745,
      "Ġitems": 2746,
      "hel": 2747,
      "Ġpaper": 2748,
      "Ġpers": 2749,
      "icles": 2750,
      "Ġpric": 2751,
      "Ġattend": 2752,
      "Ġteac": 2753,
      "ek": 2754,
      "Ġ2014": 2755,
      "Ġdeg": 2756,
      "istic": 2757,
      "Ġdrive": 2758,
      "rought": 2759,
      "Ġadditional": 2760,
      "Ġ...": 2761,
      "Ġintrodu": 2762,
      "action": 2763,
      "Ġgoal": 2764,
      "Ġut": 2765,
      "Ġdefe": 2766,
      "Ġchance": 2767,
      "Ġwasn": 2768,
      "Ġcountries": 2769,
      "Ġexact": 2770,
      "Ġ21": 2771,
      "ences": 2772,
      "Ġstruct": 2773,
      "ĠAssoci": 2774,
      "Ġpan": 2775,
      "ground": 2776,
      "Ġur": 2777,
      "Ġep": 2778,
      "Ġworked": 2779,
      "Ġdecision": 2780,
      "Ġfight": 2781,
      "Ġmatch": 2782,
      "Ġlo": 2783,
      "ĠMore": 2784,
      "ese": 2785,
      "Ġcorre": 2786,
      "Ġdrug": 2787,
      "ĠSan": 2788,
      "Ġplaying": 2789,
      "Ġsat": 2790,
      "Ġquickly": 2791,
      "ament": 2792,
      "attle": 2793,
      "Ġgoes": 2794,
      "ĠChar": 2795,
      "Ġarri": 2796,
      "haps": 2797,
      "ĠJuly": 2798,
      "anguage": 2799,
      "atives": 2800,
      "uses": 2801,
      "azing": 2802,
      "Ġboard": 2803,
      "Ġcele": 2804,
      "Ġround": 2805,
      "ĠArt": 2806,
      "ux": 2807,
      "ĠCalif": 2808,
      "Ġprim": 2809,
      "Ġwall": 2810,
      "Ġviol": 2811,
      "airs": 2812,
      "Ġhair": 2813,
      "Ġlevels": 2814,
      "ĠEnglish": 2815,
      "Ġincluded": 2816,
      "Ġinsp": 2817,
      "bor": 2818,
      "unt": 2819,
      "Ġsqu": 2820,
      "ny": 2821,
      "24": 2822,
      "imum": 2823,
      "Ġproduction": 2824,
      "Ġappe": 2825,
      "Ġcool": 2826,
      "Ġpresident": 2827,
      "adem": 2828,
      "Ġmother": 2829,
      "ĠAustral": 2830,
      "inary": 2831,
      "Ġability": 2832,
      "ham": 2833,
      "ĠWhile": 2834,
      "Ġtarget": 2835,
      "Ġclos": 2836,
      "Ġ40": 2837,
      "Ġveh": 2838,
      "ĠPar": 2839,
      "Ġnecessary": 2840,
      "21": 2841,
      "ĠWar": 2842,
      "Ġsil": 2843,
      "Ġcases": 2844,
      "ĠUs": 2845,
      "ĠCour": 2846,
      "Ġinvolved": 2847,
      "Ġmix": 2848,
      "Ġrev": 2849,
      "Ġgave": 2850,
      "pose": 2851,
      "asons": 2852,
      "ĠBu": 2853,
      "atform": 2854,
      "Ġwritten": 2855,
      "Ġbecame": 2856,
      "ĠEm": 2857,
      "OS": 2858,
      "Ġcredit": 2859,
      "Ġuser": 2860,
      "Ġpatients": 2861,
      "OT": 2862,
      "Ġrelease": 2863,
      "Ġstock": 2864,
      "Ġlatest": 2865,
      "ĠInt": 2866,
      "ecut": 2867,
      "Ġdisplay": 2868,
      "su": 2869,
      "Ġimmedi": 2870,
      "Ġwoman": 2871,
      "erve": 2872,
      "onse": 2873,
      "ĠSw": 2874,
      "ĠOff": 2875,
      "Ġsubject": 2876,
      "With": 2877,
      "iam": 2878,
      "hood": 2879,
      "reng": 2880,
      "ĠHere": 2881,
      "Ġ2009": 2882,
      "Ġlegal": 2883,
      "Ġvict": 2884,
      "ming": 2885,
      "All": 2886,
      "ĠHealth": 2887,
      "ĠPat": 2888,
      "Ġdise": 2889,
      "Ġinternational": 2890,
      "ĠMon": 2891,
      "Ġlooks": 2892,
      "Ġcondu": 2893,
      "Ġconditions": 2894,
      "ĠRed": 2895,
      "ornia": 2896,
      "ĠBro": 2897,
      "Ġimm": 2898,
      "Ġcustomer": 2899,
      "ING": 2900,
      "My": 2901,
      "ris": 2902,
      "Ġmyself": 2903,
      "aby": 2904,
      "Ġactivities": 2905,
      "ville": 2906,
      "ĠTV": 2907,
      "Ġsus": 2908,
      "Ġstyle": 2909,
      "ĠNews": 2910,
      "ications": 2911,
      "onday": 2912,
      "Ġbur": 2913,
      "Ġremember": 2914,
      "Ġinvestig": 2915,
      "Ġemer": 2916,
      "Ġsett": 2917,
      "Ġlearning": 2918,
      "Ġjud": 2919,
      "unday": 2920,
      "Ġgrad": 2921,
      "Ġbuilt": 2922,
      "Ġstudent": 2923,
      "Ġdecided": 2924,
      "bit": 2925,
      "Ġsurpr": 2926,
      "str": 2927,
      "Ġinstead": 2928,
      "Ġsummer": 2929,
      "Ġeasily": 2930,
      "ought": 2931,
      "Ġapproach": 2932,
      "OU": 2933,
      "Ġpropos": 2934,
      "itte": 2935,
      "Ġmanufact": 2936,
      "itc": 2937,
      "Ġgroups": 2938,
      "ĠDepartment": 2939,
      "Ġcampaign": 2940,
      "ĠVal": 2941,
      "That": 2942,
      "Ġhimself": 2943,
      "Ġfavorite": 2944,
      "just": 2945,
      "Ġfelt": 2946,
      "Ġsaf": 2947,
      "Ġstandard": 2948,
      "At": 2949,
      "'d": 2950,
      "pre": 2951,
      "Ġmention": 2952,
      "ĠFriday": 2953,
      "ĠAfric": 2954,
      "Ġboy": 2955,
      "Ġautom": 2956,
      "ĠAugust": 2957,
      "wood": 2958,
      "Ġfile": 2959,
      "illing": 2960,
      "Ġones": 2961,
      "Ġ23": 2962,
      "itter": 2963,
      "Ġscreen": 2964,
      "ĠBrit": 2965,
      "Ġattempt": 2966,
      "Ġstru": 2967,
      "Ġprojects": 2968,
      "ky": 2969,
      "Ġmovie": 2970,
      "Ġeyes": 2971,
      "Ġcy": 2972,
      "Ġbank": 2973,
      "press": 2974,
      "Ġcand": 2975,
      "itary": 2976,
      "ĠMus": 2977,
      "23": 2978,
      "aly": 2979,
      "Ġlab": 2980,
      "Ġsn": 2981,
      "ester": 2982,
      "Ġskills": 2983,
      "oul": 2984,
      "ule": 2985,
      "Ġglobal": 2986,
      "ovember": 2987,
      "Ġtour": 2988,
      "Ġadminist": 2989,
      "ĠSci": 2990,
      "Ġpred": 2991,
      "Ġdraw": 2992,
      "Ġrelated": 2993,
      "iction": 2994,
      "Ġdownload": 2995,
      "ening": 2996,
      "aught": 2997,
      "rote": 2998,
      "Ġlower": 2999,
      "Ġcosts": 3000,
      "Ġexcept": 3001,
      "Ġord": 3002,
      "Ġideas": 3003,
      "Ġleading": 3004,
      "Ġfresh": 3005,
      "ĠSer": 3006,
      "Ġreported": 3007,
      "hern": 3008,
      "Ġpolice": 3009,
      "erous": 3010,
      "ĠSaturday": 3011,
      "Ġsaying": 3012,
      "Ġaw": 3013,
      "aves": 3014,
      "Ġplans": 3015,
      "Ġbi": 3016,
      "ĠOf": 3017,
      "key": 3018,
      "idered": 3019,
      "Ġimage": 3020,
      "ĠFace": 3021,
      "ĠSen": 3022,
      "Ġtouch": 3023,
      "Ġpull": 3024,
      "Ġfair": 3025,
      "Ġplayed": 3026,
      "Ġwrong": 3027,
      "ĠJanuary": 3028,
      "Our": 3029,
      "Ġsun": 3030,
      "ension": 3031,
      "Ġ22": 3032,
      "Ġdecl": 3033,
      "Ph": 3034,
      "Ġallows": 3035,
      "fficient": 3036,
      "Ġknew": 3037,
      "enty": 3038,
      "Ġhuge": 3039,
      "Ġsepar": 3040,
      "ests": 3041,
      "Ġ2015": 3042,
      "Ġheard": 3043,
      "ray": 3044,
      "Ġattention": 3045,
      "ĠFrom": 3046,
      "ĠCalifornia": 3047,
      "Ġdead": 3048,
      "ishing": 3049,
      "Ġdocument": 3050,
      "Ġapply": 3051,
      "ipment": 3052,
      "Ġsell": 3053,
      "Ġencoura": 3054,
      "oom": 3055,
      "cip": 3056,
      "ĠBlack": 3057,
      "Ġhor": 3058,
      "Ġaffect": 3059,
      "Sh": 3060,
      "Ġhear": 3061,
      "Ġcomment": 3062,
      "Ġeffective": 3063,
      "ivity": 3064,
      "hold": 3065,
      "usiness": 3066,
      "Ġrout": 3067,
      "ĠHer": 3068,
      "ĠFin": 3069,
      "70": 3070,
      "Ġcas": 3071,
      "Ġled": 3072,
      "aged": 3073,
      "Ġdrink": 3074,
      "ĠInternational": 3075,
      "Ġmodern": 3076,
      "Ġprotect": 3077,
      "Ġdepart": 3078,
      "Ġparts": 3079,
      "ald": 3080,
      "Ġstates": 3081,
      "Ġgets": 3082,
      "Ġintegr": 3083,
      "Ġinteresting": 3084,
      "Ġplatform": 3085,
      "ĠJe": 3086,
      "Ġclients": 3087,
      "Ġchoice": 3088,
      "Ġmid": 3089,
      "Ġaverage": 3090,
      "www": 3091,
      "Ġresources": 3092,
      "Ġdiv": 3093,
      "board": 3094,
      "amb": 3095,
      "Ġtal": 3096,
      "ĠAdd": 3097,
      "ns": 3098,
      "alt": 3099,
      "Ġvariety": 3100,
      "ĠPost": 3101,
      "Ġdevice": 3102,
      "ma": 3103,
      "Ġwrite": 3104,
      "Ġpath": 3105,
      "ĠOctober": 3106,
      "Ġbrought": 3107,
      "avy": 3108,
      "ĠThen": 3109,
      "iple": 3110,
      "Ġ2008": 3111,
      "Ġthinking": 3112,
      "pite": 3113,
      "Ġ198": 3114,
      "Be": 3115,
      "Ġtrust": 3116,
      "Ġenter": 3117,
      "cious": 3118,
      "Ġcenter": 3119,
      "Ġanswer": 3120,
      "Ġparents": 3121,
      "Ġcross": 3122,
      "Ġsafety": 3123,
      "itution": 3124,
      "Ġexpected": 3125,
      "verse": 3126,
      "Ġprevent": 3127,
      "Ġdaily": 3128,
      "cember": 3129,
      "Ġsave": 3130,
      "sec": 3131,
      "Ġweight": 3132,
      "ael": 3133,
      "Ġwood": 3134,
      "Ġstreng": 3135,
      "wise": 3136,
      "Cl": 3137,
      "Ġcompletely": 3138,
      "king": 3139,
      "Ġsold": 3140,
      "aries": 3141,
      "ĠGerm": 3142,
      "Ġhol": 3143,
      "AP": 3144,
      "Ġbenefits": 3145,
      "Ġnature": 3146,
      "itation": 3147,
      "cription": 3148,
      "ĠRead": 3149,
      "Ġdress": 3150,
      "Ġpurchase": 3151,
      "name": 3152,
      "Ġfell": 3153,
      "Ġconsidered": 3154,
      "Ġsource": 3155,
      "ĠNet": 3156,
      "Ġeconomic": 3157,
      "Ġgreen": 3158,
      "iring": 3159,
      "aker": 3160,
      "Ġgives": 3161,
      "Ġprin": 3162,
      "Ġgiving": 3163,
      "Ġpublished": 3164,
      "enge": 3165,
      "Ġpiece": 3166,
      "iding": 3167,
      "Ġexcell": 3168,
      "Ġsubs": 3169,
      "Ġ2017": 3170,
      "Ġ+": 3171,
      "99": 3172,
      "ption": 3173,
      "ruary": 3174,
      "Ġarch": 3175,
      "ocr": 3176,
      "Ġinflu": 3177,
      "Ġlif": 3178,
      "ĠAut": 3179,
      "Ġ2016": 3180,
      "Ġrock": 3181,
      "LE": 3182,
      "Ġstarting": 3183,
      "Ġtypes": 3184,
      "Ġ28": 3185,
      "Ġorganization": 3186,
      "Ġmarketing": 3187,
      "Ġamazing": 3188,
      "Ġchalleng": 3189,
      "cies": 3190,
      "Ġcopy": 3191,
      "ĠPlease": 3192,
      "Ġoption": 3193,
      "Ġcontract": 3194,
      "Ġnation": 3195,
      "isc": 3196,
      "ĠGoogle": 3197,
      "Ġbud": 3198,
      "aste": 3199,
      "uel": 3200,
      "Ġsection": 3201,
      "ĠSeptember": 3202,
      "itute": 3203,
      "Ġqual": 3204,
      "orge": 3205,
      "ondon": 3206,
      "Ġdetail": 3207,
      "\".": 3208,
      "ĠAcc": 3209,
      "Ġdoor": 3210,
      "ashington": 3211,
      "Ġdark": 3212,
      "Ġpositive": 3213,
      "yond": 3214,
      "ĠSunday": 3215,
      "ĠDem": 3216,
      "ened": 3217,
      "OM": 3218,
      "vey": 3219,
      "Ġstuff": 3220,
      "Ġfeed": 3221,
      "ari": 3222,
      "Ġspeed": 3223,
      "Ġbroad": 3224,
      "ĠSim": 3225,
      "rs": 3226,
      "erved": 3227,
      "ĠSch": 3228,
      "One": 3229,
      "Ġ26": 3230,
      "Ġbehav": 3231,
      "Ġslow": 3232,
      "Ġanalysis": 3233,
      "ĠGener": 3234,
      "Ġcondition": 3235,
      "mission": 3236,
      "mercial": 3237,
      "Ġflow": 3238,
      "ilies": 3239,
      "Ġlooked": 3240,
      "Ġdirectly": 3241,
      "Ġvac": 3242,
      "Ġplayer": 3243,
      "kend": 3244,
      "unk": 3245,
      "ĠCommun": 3246,
      "isions": 3247,
      "ivil": 3248,
      "Ġeffects": 3249,
      "uesday": 3250,
      "Ġreleased": 3251,
      "idents": 3252,
      "sp": 3253,
      "Ġinsurance": 3254,
      "gar": 3255,
      "Ġimplement": 3256,
      "Ġsometimes": 3257,
      "Ġdro": 3258,
      "ĠNovember": 3259,
      "rel": 3260,
      "Ġsend": 3261,
      "bur": 3262,
      "ursday": 3263,
      "Ġhttp": 3264,
      "Ġprogress": 3265,
      "Ġpartners": 3266,
      "ĠDirect": 3267,
      "Ġlic": 3268,
      "Ġsituation": 3269,
      "Ġcat": 3270,
      "Ġfeature": 3271,
      "Ġinterview": 3272,
      "ara": 3273,
      "omen": 3274,
      "Ġmount": 3275,
      "Ġcollection": 3276,
      "Ġoffe": 3277,
      "ĠAre": 3278,
      "ĠFacebook": 3279,
      "Ġsites": 3280,
      "Ġvot": 3281,
      "ĠFirst": 3282,
      "ibly": 3283,
      "Ġhighly": 3284,
      "Ġconsist": 3285,
      "Ġtowards": 3286,
      "ĠWind": 3287,
      "Ġproviding": 3288,
      "ĠKing": 3289,
      "Ġsche": 3290,
      "Ġlocation": 3291,
      "ĠâĢ¦": 3292,
      "error": 3293,
      "ĠStreet": 3294,
      "Ġson": 3295,
      "Ġextreme": 3296,
      "ĠCons": 3297,
      "iles": 3298,
      "Ġhour": 3299,
      "apan": 3300,
      "Ġwarm": 3301,
      "Ġlocated": 3302,
      "Ġresponse": 3303,
      "zy": 3304,
      "band": 3305,
      "ĠUK": 3306,
      "ĠWeb": 3307,
      "ĠAc": 3308,
      "Ġwrote": 3309,
      "Ġplant": 3310,
      "ength": 3311,
      "Ġphysical": 3312,
      "imately": 3313,
      "ospital": 3314,
      "Ġconvers": 3315,
      "Ġfirm": 3316,
      "add": 3317,
      "Ġmaterials": 3318,
      "Ġlanguage": 3319,
      "aches": 3320,
      "âĢĿ.": 3321,
      "Ġregist": 3322,
      "raft": 3323,
      "ednes": 3324,
      "Ġbirth": 3325,
      "Ġdream": 3326,
      "Ġtried": 3327,
      "Ġcapt": 3328,
      "Ġaware": 3329,
      "Ġavoid": 3330,
      "Ġadvant": 3331,
      "Ġcelebr": 3332,
      "urt": 3333,
      "They": 3334,
      "ĠUp": 3335,
      "itely": 3336,
      "After": 3337,
      "field": 3338,
      "ram": 3339,
      "ffee": 3340,
      "Ġnearly": 3341,
      "rench": 3342,
      "Ġorganiz": 3343,
      "35": 3344,
      "Ġmat": 3345,
      "No": 3346,
      "ĠAir": 3347,
      "Ġfine": 3348,
      "ipping": 3349,
      "ĠMonday": 3350,
      "ĠLa": 3351,
      "Ġ*": 3352,
      "Ġfather": 3353,
      "Ġdigital": 3354,
      "Ġsen": 3355,
      "Ġshot": 3356,
      "Ġspent": 3357,
      "more": 3358,
      "Ġinnov": 3359,
      "arily": 3360,
      "ida": 3361,
      "Ġregul": 3362,
      "Ġge": 3363,
      "Ġspirit": 3364,
      "ran": 3365,
      "Ġthreat": 3366,
      "Ġturned": 3367,
      "Ġlimited": 3368,
      "Ġstories": 3369,
      "Ġcup": 3370,
      "wor": 3371,
      "Ġrace": 3372,
      "ĠWell": 3373,
      "ĠRepublic": 3374,
      "ares": 3375,
      "ores": 3376,
      "uate": 3377,
      "uted": 3378,
      "ĠEvery": 3379,
      "Ġreach": 3380,
      "ittee": 3381,
      "Ġtrip": 3382,
      "Ġlack": 3383,
      "Ġplaces": 3384,
      "Ġadult": 3385,
      "Ġcertainly": 3386,
      "Ġpen": 3387,
      "Ġconcept": 3388,
      "ĠObama": 3389,
      "):": 3390,
      "Ġeffort": 3391,
      "Ġ=": 3392,
      "ica": 3393,
      "ĠDecember": 3394,
      "agn": 3395,
      "Ġfarm": 3396,
      "Ġthous": 3397,
      "Ġhelps": 3398,
      "Ġcamer": 3399,
      "Ġfix": 3400,
      "Ġkn": 3401,
      "EC": 3402,
      "ford": 3403,
      "Ġcode": 3404,
      "Ġgold": 3405,
      "col": 3406,
      "Ġ60": 3407,
      "Ġ27": 3408,
      "ĠEast": 3409,
      "Ġnote": 3410,
      "Ġmultiple": 3411,
      "ednesday": 3412,
      "bl": 3413,
      "ĠWashington": 3414,
      "Ġmessage": 3415,
      "Ġmobile": 3416,
      "Ġconv": 3417,
      "Ġindividuals": 3418,
      "Ġneigh": 3419,
      "Ġclub": 3420,
      "ords": 3421,
      "Ġemployees": 3422,
      "ĠDavid": 3423,
      "Ġreve": 3424,
      "antly": 3425,
      "Ġsort": 3426,
      "Ġcollege": 3427,
      "Ġrestaur": 3428,
      "ĠIndia": 3429,
      "Ġgrowing": 3430,
      "sequ": 3431,
      "Ġfinally": 3432,
      "ET": 3433,
      "Ġhistor": 3434,
      "Ġple": 3435,
      "itiz": 3436,
      "Ġeat": 3437,
      "vest": 3438,
      "Ġmis": 3439,
      "Ġculture": 3440,
      "opping": 3441,
      "Ġindepend": 3442,
      "Ġimag": 3443,
      "?âĢĿ": 3444,
      "Ġcarry": 3445,
      "ĠCoun": 3446,
      "ography": 3447,
      "Ġded": 3448,
      "PS": 3449,
      "rences": 3450,
      "Ġsubst": 3451,
      "ĠLondon": 3452,
      "ĠChina": 3453,
      "aughter": 3454,
      "Ġband": 3455,
      "ĠII": 3456,
      "Ġexerc": 3457,
      "ĠCourt": 3458,
      "Ġwants": 3459,
      "ĠFree": 3460,
      "Ġdire": 3461,
      "ags": 3462,
      "olute": 3463,
      "Ġoccur": 3464,
      "uk": 3465,
      "Ġevidence": 3466,
      "ĠWhite": 3467,
      "mitted": 3468,
      "Ġfeeling": 3469,
      "ancy": 3470,
      "ĠMor": 3471,
      "Ġinterested": 3472,
      "45": 3473,
      "itchen": 3474,
      "pects": 3475,
      "Ġbusinesses": 3476,
      "iment": 3477,
      "Ġshoot": 3478,
      "ĠMost": 3479,
      "Ġalone": 3480,
      "Ġparticularly": 3481,
      "ĠService": 3482,
      "Ġten": 3483,
      "Ġspot": 3484,
      "Ġdemand": 3485,
      "body": 3486,
      "lim": 3487,
      "oming": 3488,
      "Ġdistrib": 3489,
      "ibrary": 3490,
      "cul": 3491,
      "Ġsolution": 3492,
      "Ġtools": 3493,
      "Ġbra": 3494,
      "ĠAN": 3495,
      "ying": 3496,
      "ĠFebruary": 3497,
      "arden": 3498,
      "Ġmaybe": 3499,
      "bum": 3500,
      "Ġbeginning": 3501,
      "Ġaltern": 3502,
      "zz": 3503,
      "oday": 3504,
      "Ġtraditional": 3505,
      "izes": 3506,
      "het": 3507,
      "Ġequipment": 3508,
      "Ġsleep": 3509,
      "mark": 3510,
      "ĠEar": 3511,
      "estern": 3512,
      "Ġactivity": 3513,
      "Ġwhose": 3514,
      "Ġdeveloped": 3515,
      "atever": 3516,
      "Ġver": 3517,
      "Ġdifference": 3518,
      "Ġassess": 3519,
      "Ġaccom": 3520,
      "sych": 3521,
      "arant": 3522,
      "IL": 3523,
      "Ġwish": 3524,
      "Ex": 3525,
      "example": 3526,
      "Ġpurpose": 3527,
      "Ġsuccessful": 3528,
      "Ġobject": 3529,
      "itable": 3530,
      "ĠOut": 3531,
      "Ġer": 3532,
      "Ġfully": 3533,
      "hest": 3534,
      "Ġrespond": 3535,
      "omb": 3536,
      "Ġcomplex": 3537,
      "ruit": 3538,
      "dom": 3539,
      "ĠPM": 3540,
      "ĠGroup": 3541,
      "Ġannounced": 3542,
      "EO": 3543,
      "Ġearlier": 3544,
      "Ġfeet": 3545,
      "Ġmoving": 3546,
      "Ġregion": 3547,
      "Ġtalking": 3548,
      "Ġter": 3549,
      "Ġcert": 3550,
      "Ġstage": 3551,
      "Ġdisease": 3552,
      "Ġdoub": 3553,
      "wide": 3554,
      "Ġwife": 3555,
      "Ġrelig": 3556,
      "rows": 3557,
      "ĠLaw": 3558,
      "Ġexpert": 3559,
      "Ġhop": 3560,
      "ager": 3561,
      "Ġspend": 3562,
      "rast": 3563,
      "Ġult": 3564,
      "Ġfear": 3565,
      "undred": 3566,
      "Ġpaid": 3567,
      "Ġfloor": 3568,
      "Ġphotos": 3569,
      "Ġwait": 3570,
      "Ġexactly": 3571,
      "Ġfamilies": 3572,
      "venue": 3573,
      "Ġheat": 3574,
      "ĠCollege": 3575,
      "Ġimages": 3576,
      "Ġachieve": 3577,
      "olf": 3578,
      "Ġreports": 3579,
      "ault": 3580,
      "aint": 3581,
      "down": 3582,
      "ounds": 3583,
      "Ġopportunities": 3584,
      "set": 3585,
      "Ġprevious": 3586,
      "Ġdirector": 3587,
      "ani": 3588,
      "ĠTHE": 3589,
      "Ġpromot": 3590,
      "Ġprem": 3591,
      "ĠEven": 3592,
      "Ġserious": 3593,
      "Ġnumbers": 3594,
      "ĠTechn": 3595,
      "reed": 3596,
      "vis": 3597,
      "Ġfederal": 3598,
      "Ġhous": 3599,
      "Ġtrail": 3600,
      "Ġdemon": 3601,
      "ĠBusiness": 3602,
      "Ġconsult": 3603,
      "Ġpressure": 3604,
      "Ġchanged": 3605,
      "Ġvoice": 3606,
      "Ġproced": 3607,
      "ĠJapan": 3608,
      "Ġallowed": 3609,
      "BC": 3610,
      "EL": 3611,
      "Ġweekend": 3612,
      "ĠIndian": 3613,
      "inger": 3614,
      "ĠÂ£": 3615,
      "chan": 3616,
      "Ġtick": 3617,
      "Ġseven": 3618,
      "Ġpicture": 3619,
      "Ġappropri": 3620,
      "mas": 3621,
      "Ġremain": 3622,
      "Ġgoals": 3623,
      "ĠAssociation": 3624,
      "Ġimpress": 3625,
      "Ġ2007": 3626,
      "Ġcorpor": 3627,
      "Ġstrugg": 3628,
      "icate": 3629,
      "Ġeight": 3630,
      "Ġhealthy": 3631,
      "Ġstatement": 3632,
      "Ġextend": 3633,
      "Ġserve": 3634,
      "Ġscient": 3635,
      "Ġ29": 3636,
      "Ġacqu": 3637,
      "Ġexcellent": 3638,
      "Ġmiles": 3639,
      "Ġdevices": 3640,
      "Ġcreating": 3641,
      "Ġteams": 3642,
      "Ġrequirements": 3643,
      "Ġtur": 3644,
      "IG": 3645,
      "Ġprices": 3646,
      "ĠProf": 3647,
      "ION": 3648,
      "Ġuses": 3649,
      "ronic": 3650,
      "ĠGreen": 3651,
      "ĠAM": 3652,
      "inner": 3653,
      "Ġblue": 3654,
      "Ġroll": 3655,
      "Ġtitle": 3656,
      "Ġcouldn": 3657,
      "Ġeye": 3658,
      "imin": 3659,
      "ĠGreat": 3660,
      "duc": 3661,
      "AD": 3662,
      "Ġcateg": 3663,
      "Ġinform": 3664,
      "Ġmeaning": 3665,
      "rig": 3666,
      "Ġdry": 3667,
      "que": 3668,
      "Ġtemper": 3669,
      "27": 3670,
      "Ġincreasing": 3671,
      "Ġinstru": 3672,
      "order": 3673,
      "Ġtrade": 3674,
      "olic": 3675,
      "oms": 3676,
      "Ġglass": 3677,
      "Ġwel": 3678,
      "ategy": 3679,
      "Ġappl": 3680,
      "Ġsolutions": 3681,
      "Ġunderstanding": 3682,
      "amm": 3683,
      "Ġstraight": 3684,
      "Ġcorrect": 3685,
      "aled": 3686,
      "ĠProgram": 3687,
      "Ġund": 3688,
      "oly": 3689,
      "Ġden": 3690,
      "ĠTuesday": 3691,
      "Ġincreased": 3692,
      "iant": 3693,
      "Ġplanning": 3694,
      "Ġnormal": 3695,
      "Ġaim": 3696,
      "Ġgrand": 3697,
      "Ġquarter": 3698,
      "ĠAlso": 3699,
      "Ġforce": 3700,
      "Ġfat": 3701,
      "Ġbaby": 3702,
      "Ġstress": 3703,
      "Ġmaintain": 3704,
      "change": 3705,
      "Ġoverall": 3706,
      "Ġshown": 3707,
      "ously": 3708,
      "Ġscience": 3709,
      "Ġbillion": 3710,
      "Ġemot": 3711,
      "Ġimmediately": 3712,
      "Ġsmart": 3713,
      "ĠJes": 3714,
      "cause": 3715,
      "Ġdeliver": 3716,
      "Ġopin": 3717,
      "erry": 3718,
      "ashion": 3719,
      "Ġaward": 3720,
      "aling": 3721,
      "Ġanaly": 3722,
      "ĠJack": 3723,
      "ĠGovern": 3724,
      "lin": 3725,
      "Ġfrequ": 3726,
      "Ġcomments": 3727,
      "ĠRock": 3728,
      "house": 3729,
      "nded": 3730,
      "Ġrent": 3731,
      "Ġcapital": 3732,
      "ĠInternet": 3733,
      "Ġfem": 3734,
      "Ġbenefit": 3735,
      "cks": 3736,
      "Ġmilitary": 3737,
      "isf": 3738,
      "Ġcharge": 3739,
      "ĠTrans": 3740,
      "Ġbeyond": 3741,
      "Ġstrateg": 3742,
      "ĠPaul": 3743,
      "Ġcold": 3744,
      "ĠIN": 3745,
      "Ġ2018": 3746,
      "Ġmiddle": 3747,
      "leg": 3748,
      "ĠThursday": 3749,
      "She": 3750,
      "Ġconnect": 3751,
      "Ġliter": 3752,
      "ĠLet": 3753,
      "Ġalthough": 3754,
      "Ġwild": 3755,
      "ancing": 3756,
      "Ġconc": 3757,
      "rial": 3758,
      "ĠCanada": 3759,
      "ĠOther": 3760,
      "Ġprefer": 3761,
      "Ġpattern": 3762,
      "Ġdegree": 3763,
      "Ġgas": 3764,
      "28": 3765,
      "Ġfans": 3766,
      "Ġâ": 3767,
      "Ġload": 3768,
      "Ġtrou": 3769,
      "Ġreduce": 3770,
      "Ġsust": 3771,
      "place": 3772,
      "ban": 3773,
      "Ġresponsible": 3774,
      "mp": 3775,
      "Ġdoll": 3776,
      "Ġchurch": 3777,
      "iance": 3778,
      "ĠTex": 3779,
      "Ġdefinitely": 3780,
      "26": 3781,
      "lying": 3782,
      "Ġapplications": 3783,
      "Ġapart": 3784,
      "Ġpoor": 3785,
      "Ġlik": 3786,
      "Ġfra": 3787,
      "Ġdamage": 3788,
      "ecutive": 3789,
      "Ġinvestment": 3790,
      "Ġperhaps": 3791,
      "Ġoffered": 3792,
      "ĠPal": 3793,
      "ago": 3794,
      "ĠHome": 3795,
      "Ġrules": 3796,
      "Ġowners": 3797,
      "Ġhappened": 3798,
      "Ġmeasure": 3799,
      "bed": 3800,
      "pm": 3801,
      "Ġpet": 3802,
      "edding": 3803,
      "orage": 3804,
      "Ġbill": 3805,
      "ĠRom": 3806,
      "Ġwat": 3807,
      "anch": 3808,
      "well": 3809,
      "Is": 3810,
      "arc": 3811,
      "Ġnamed": 3812,
      "Ġmachine": 3813,
      "Ġsociety": 3814,
      "Ġjobs": 3815,
      "Ġgone": 3816,
      "ĠBoard": 3817,
      "ĠHall": 3818,
      "rem": 3819,
      "ĠInter": 3820,
      "Ġannual": 3821,
      "Ġhundred": 3822,
      "Ġproduce": 3823,
      "Ġalbum": 3824,
      "Ġcandid": 3825,
      "apter": 3826,
      "Ġschools": 3827,
      "OL": 3828,
      "Ġadvert": 3829,
      "Ġslight": 3830,
      "Ġreasons": 3831,
      "Ġ197": 3832,
      "ĠReview": 3833,
      "Ġcirc": 3834,
      "ĠMet": 3835,
      "Ġcommercial": 3836,
      "isl": 3837,
      "Ġclin": 3838,
      "Ġfollowed": 3839,
      "Ġguy": 3840,
      "Ġsurv": 3841,
      "Ġenh": 3842,
      "see": 3843,
      "Ġble": 3844,
      "Here": 3845,
      "rief": 3846,
      "Ġcru": 3847,
      "Ġrates": 3848,
      "ĠCong": 3849,
      "Ġgreater": 3850,
      "reci": 3851,
      "Ġactive": 3852,
      "Ġgirls": 3853,
      "ĠBra": 3854,
      "etic": 3855,
      "ĠDel": 3856,
      "Ġcancer": 3857,
      "Ġstudies": 3858,
      "Ġincome": 3859,
      "Ġwww": 3860,
      "asc": 3861,
      "ĠFe": 3862,
      "Ġassociated": 3863,
      "29": 3864,
      "ĠSystem": 3865,
      "Ġabsolute": 3866,
      "Now": 3867,
      "Ġbrain": 3868,
      "Ġhelped": 3869,
      "ampions": 3870,
      "ĠMichael": 3871,
      "ST": 3872,
      "ĠDist": 3873,
      "ĠResearch": 3874,
      "100": 3875,
      "Ġdating": 3876,
      "Ġlargest": 3877,
      "amic": 3878,
      "Ġloved": 3879,
      "ĠRuss": 3880,
      "ĠAss": 3881,
      "ĠCle": 3882,
      "ĠRich": 3883,
      "Ġdang": 3884,
      "iable": 3885,
      "bon": 3886,
      "Ġbreat": 3887,
      "iber": 3888,
      "Ġcontain": 3889,
      "Ġpow": 3890,
      "Ġcells": 3891,
      "Ġsurround": 3892,
      "istics": 3893,
      "Ġtruly": 3894,
      "Ġmax": 3895,
      "iling": 3896,
      "Ġmoved": 3897,
      "Ġmovement": 3898,
      "ĠFrench": 3899,
      "ĠMicro": 3900,
      "ĠCouncil": 3901,
      "Ġdoctor": 3902,
      "ĠServices": 3903,
      "Ġfinished": 3904,
      "Ġbrother": 3905,
      "ĠFlor": 3906,
      "Ġefforts": 3907,
      "Ġcry": 3908,
      "itude": 3909,
      "Ġborn": 3910,
      "Ġcoffee": 3911,
      "ĠWednesday": 3912,
      "Ġeconomy": 3913,
      "ĠBook": 3914,
      "Ġbudget": 3915,
      "De": 3916,
      "Ġ2019": 3917,
      "Ġcontinued": 3918,
      "force": 3919,
      "gen": 3920,
      "ero": 3921,
      "ĠGet": 3922,
      "Ġletter": 3923,
      "ube": 3924,
      "Pro": 3925,
      "ĠAnt": 3926,
      "Ġchallenge": 3927,
      "mat": 3928,
      "Ġsale": 3929,
      "ico": 3930,
      "Ġvehicle": 3931,
      "ĠGold": 3932,
      "coming": 3933,
      "Ġpowerful": 3934,
      "Ġsurface": 3935,
      "orrow": 3936,
      "Ġnotice": 3937,
      "ĠMod": 3938,
      "ĠAny": 3939,
      "Ġtruth": 3940,
      "Ġing": 3941,
      "Un": 3942,
      "ado": 3943,
      "ĠJames": 3944,
      "care": 3945,
      "ervation": 3946,
      "Ġspread": 3947,
      "ĠChristian": 3948,
      "ĠSuper": 3949,
      "Ġmer": 3950,
      "Ġorigin": 3951,
      "Ġpopulation": 3952,
      "Ġbasis": 3953,
      "Ġadvantage": 3954,
      "istry": 3955,
      "ĠOver": 3956,
      "soft": 3957,
      "Ġeval": 3958,
      "Ġahead": 3959,
      "Ġjoin": 3960,
      "While": 3961,
      "Ġadvice": 3962,
      "Ġcompon": 3963,
      "Ġcompared": 3964,
      "Ġleader": 3965,
      "Ġstar": 3966,
      "ĠYear": 3967,
      "Ġconstruction": 3968,
      "asy": 3969,
      "rael": 3970,
      "term": 3971,
      "osing": 3972,
      "rupt": 3973,
      "Ġpatient": 3974,
      "akers": 3975,
      "ĠEuropean": 3976,
      "Ġtransfer": 3977,
      "Ġdouble": 3978,
      "ĠPlay": 3979,
      "ĠBill": 3980,
      "ĠWhy": 3981,
      "Ġhus": 3982,
      "Ġlots": 3983,
      "Ġlines": 3984,
      "Ġfinish": 3985,
      "Ġcentury": 3986,
      "useum": 3987,
      "ech": 3988,
      "ĠMany": 3989,
      "ĠMac": 3990,
      "ĠPort": 3991,
      "ĠOffice": 3992,
      "pa": 3993,
      "Ġbeg": 3994,
      "ĠBel": 3995,
      "Ġbottom": 3996,
      "**": 3997,
      "Ġ2006": 3998,
      "Ġguide": 3999,
      "IV": 4000,
      "Ġprofession": 4001,
      "90": 4002,
      "ses": 4003,
      "icks": 4004,
      "Ġcolle": 4005,
      "Ġbasic": 4006,
      "ooth": 4007,
      "Ġaren": 4008,
      "Ġpages": 4009,
      "ĠRec": 4010,
      "Ġdelivery": 4011,
      "ulf": 4012,
      "ustr": 4013,
      "Ġserved": 4014,
      "Ġclient": 4015,
      "Ġkept": 4016,
      "Ġoccas": 4017,
      "ĠIS": 4018,
      "Ġguys": 4019,
      "Ġopening": 4020,
      "Ġsweet": 4021,
      "Ġcitiz": 4022,
      "Ġnut": 4023,
      "ĠTy": 4024,
      "Ġ2020": 4025,
      "ĠTexas": 4026,
      "Ġchem": 4027,
      "Ġoffering": 4028,
      "ĠAustralia": 4029,
      "By": 4030,
      "ĠEv": 4031,
      "ĠDevelop": 4032,
      "ĠAv": 4033,
      "Ġcash": 4034,
      "icip": 4035,
      "ken": 4036,
      "Ġpartner": 4037,
      "IP": 4038,
      "Ġstrategy": 4039,
      "Don": 4040,
      "Ġeasier": 4041,
      "Ġfaith": 4042,
      "ston": 4043,
      "Ġreb": 4044,
      "iny": 4045,
      "Ġpassed": 4046,
      "Ġessential": 4047,
      "Ġadjust": 4048,
      "Ġwouldn": 4049,
      "ij": 4050,
      "Ġgar": 4051,
      "DA": 4052,
      "la": 4053,
      "Ġcalls": 4054,
      "atively": 4055,
      "Ġpros": 4056,
      "ĠEduc": 4057,
      "ĠAnge": 4058,
      "Ġregarding": 4059,
      "ĠBritish": 4060,
      "Ġwear": 4061,
      "New": 4062,
      "Ġarr": 4063,
      "Ġexpand": 4064,
      "Ġstrength": 4065,
      "rey": 4066,
      "ĠMiss": 4067,
      "ĠGood": 4068,
      "ĠMart": 4069,
      "anging": 4070,
      "igned": 4071,
      "ĠBen": 4072,
      "ĠChristmas": 4073,
      "Ġsuff": 4074,
      "Ġsetting": 4075,
      "Ġfigure": 4076,
      "Ġweather": 4077,
      "Ġgun": 4078,
      "Ġdisapp": 4079,
      "Ġruns": 4080,
      "ĠCompany": 4081,
      "Ġiniti": 4082,
      "hips": 4083,
      "ties": 4084,
      "ĠPri": 4085,
      "Ġsports": 4086,
      "iced": 4087,
      "Ġsteps": 4088,
      "Ġobv": 4089,
      "men": 4090,
      "Ġappreci": 4091,
      "Ġwonderful": 4092,
      "unte": 4093,
      "Ġclot": 4094,
      "Ġdied": 4095,
      "Ġcompleted": 4096,
      "Ġpeace": 4097,
      "Ġshop": 4098,
      "ils": 4099,
      "ourney": 4100,
      "Ġfab": 4101,
      "ĠSun": 4102,
      "OP": 4103,
      "Ġhelping": 4104,
      "Ġesc": 4105,
      "Ġreplace": 4106,
      "using": 4107,
      "ĠRoad": 4108,
      "ĠJesus": 4109,
      "Com": 4110,
      "ĠGeneral": 4111,
      "?\"": 4112,
      "ĠThom": 4113,
      "ologies": 4114,
      "Ġhotel": 4115,
      "opped": 4116,
      "itar": 4117,
      "ĠMarket": 4118,
      "Ġfan": 4119,
      "ĠFound": 4120,
      "Ġtransport": 4121,
      "33": 4122,
      "Ġmaster": 4123,
      "ĠSl": 4124,
      "Ġconnection": 4125,
      "Ġstatus": 4126,
      "ĠBest": 4127,
      "Ġexisting": 4128,
      "Ġsatisf": 4129,
      "oving": 4130,
      "Ġgenerally": 4131,
      "ifying": 4132,
      "Ġseeing": 4133,
      "Ġtoward": 4134,
      "Ġcast": 4135,
      "Ġinternet": 4136,
      "imal": 4137,
      "âĢĿ,": 4138,
      "Ġcivil": 4139,
      "Ġkitchen": 4140,
      "Ġestablished": 4141,
      "Ġ@": 4142,
      "Ġphoto": 4143,
      "Ġorganizations": 4144,
      "Ġlength": 4145,
      "Ġknows": 4146,
      "Ġguarant": 4147,
      "ker": 4148,
      "ĠEngland": 4149,
      "ĠWindows": 4150,
      "ios": 4151,
      "ĠBig": 4152,
      "azine": 4153,
      "Ġ80": 4154,
      "uman": 4155,
      "Ġanti": 4156,
      "with": 4157,
      "Ġmechan": 4158,
      "ocal": 4159,
      "Ġlearned": 4160,
      "Ġcamera": 4161,
      "ĠWork": 4162,
      "Ġscore": 4163,
      "ĠIsland": 4164,
      "Ġhaven": 4165,
      "ĠAnn": 4166,
      "Ġrich": 4167,
      "Ġpictures": 4168,
      "rian": 4169,
      "eds": 4170,
      "Ġbackground": 4171,
      "iller": 4172,
      "ĠHot": 4173,
      "Ġmeant": 4174,
      "Ġseemed": 4175,
      "Ġconference": 4176,
      "ona": 4177,
      "Ġrepe": 4178,
      "Ġlarger": 4179,
      "Ġappropriate": 4180,
      "ĠRet": 4181,
      "Ġentertain": 4182,
      "ls": 4183,
      "Ġappoint": 4184,
      "Ġaccur": 4185,
      "Ġtrain": 4186,
      "vere": 4187,
      "gl": 4188,
      "hens": 4189,
      "ipped": 4190,
      "Ġcreative": 4191,
      "ym": 4192,
      "Ġir": 4193,
      "Ġstream": 4194,
      "ĠRem": 4195,
      "Se": 4196,
      "aming": 4197,
      "odes": 4198,
      "eria": 4199,
      "ĠMem": 4200,
      "Ġprotection": 4201,
      "Ġsupply": 4202,
      "Ġgift": 4203,
      "oves": 4204,
      "____": 4205,
      "OV": 4206,
      "know": 4207,
      "text": 4208,
      "These": 4209,
      "Ġadop": 4210,
      "ĠSpr": 4211,
      "ula": 4212,
      "ander": 4213,
      "ĠClub": 4214,
      "Ġhighest": 4215,
      "ĠRiver": 4216,
      "65": 4217,
      "OW": 4218,
      "aven": 4219,
      "asure": 4220,
      "ĠRober": 4221,
      "udd": 4222,
      "sey": 4223,
      "works": 4224,
      "Please": 4225,
      "Ġwine": 4226,
      "Ġvirt": 4227,
      "Ġplus": 4228,
      "Ġworkers": 4229,
      "ĠPublic": 4230,
      "unately": 4231,
      "friend": 4232,
      "raw": 4233,
      "ĠOh": 4234,
      "Ġlock": 4235,
      "Ġmonitor": 4236,
      "Ġwhatever": 4237,
      "enses": 4238,
      "ĠIsrael": 4239,
      "Ġprot": 4240,
      "Ġcontinu": 4241,
      "Ġstructure": 4242,
      "Ġmist": 4243,
      "Ġreality": 4244,
      "Ġharm": 4245,
      "ĠOF": 4246,
      "last": 4247,
      "Ġincred": 4248,
      "Ġheavy": 4249,
      "Ġcollabor": 4250,
      "Ġhomes": 4251,
      "ĠMary": 4252,
      "Ġcritical": 4253,
      "Ġactual": 4254,
      "Ġframe": 4255,
      "ĠTime": 4256,
      "umn": 4257,
      "Ġtend": 4258,
      "orial": 4259,
      "ĠPress": 4260,
      "rowd": 4261,
      "Ġsecret": 4262,
      "box": 4263,
      "rapy": 4264,
      "Ġfant": 4265,
      "ĠLife": 4266,
      "Ġ2005": 4267,
      "Ġhusband": 4268,
      "isco": 4269,
      "Ġextremely": 4270,
      "ĠPC": 4271,
      "Ġreviews": 4272,
      "Ġrare": 4273,
      "Ġearth": 4274,
      "porary": 4275,
      "TH": 4276,
      "ĠTwitter": 4277,
      "Ġcommit": 4278,
      "Ġcharacters": 4279,
      "Ġfish": 4280,
      "ĠSee": 4281,
      ");": 4282,
      "Ġmission": 4283,
      "ĠHel": 4284,
      "ae": 4285,
      "Ġspecies": 4286,
      "Ġaudience": 4287,
      "Ġafford": 4288,
      "Ġthank": 4289,
      "icine": 4290,
      "Ġrequires": 4291,
      "ooper": 4292,
      "Ġvill": 4293,
      "iers": 4294,
      "Ġbiggest": 4295,
      "Ġdemonstr": 4296,
      "Ġremains": 4297,
      "ĠFlorida": 4298,
      "Ġestablish": 4299,
      "Ġton": 4300,
      "dule": 4301,
      "ucky": 4302,
      "Ġolder": 4303,
      "Ġdaughter": 4304,
      "gency": 4305,
      "ports": 4306,
      "Ġbeat": 4307,
      "Ġ35": 4308,
      "IM": 4309,
      "Not": 4310,
      "za": 4311,
      "ĠHist": 4312,
      "Ġconduct": 4313,
      "gal": 4314,
      "Â®": 4315,
      "ĠSur": 4316,
      "Ġtesting": 4317,
      "ĠST": 4318,
      "Ġplaced": 4319,
      "75": 4320,
      "Ġhom": 4321,
      "Ġattract": 4322,
      "Ġproduced": 4323,
      "pective": 4324,
      "Ġdriving": 4325,
      "amin": 4326,
      "Some": 4327,
      "ĠOnce": 4328,
      "Ġrob": 4329,
      "Ġdeveloping": 4330,
      "Ġpieces": 4331,
      "Ġtherefore": 4332,
      "Ġargu": 4333,
      "Ġbehavior": 4334,
      "Ġmodels": 4335,
      "rees": 4336,
      "ady": 4337,
      "ĠChurch": 4338,
      "ĠCr": 4339,
      "acity": 4340,
      "ĠSam": 4341,
      "ĠWhe": 4342,
      "ĠScience": 4343,
      "inese": 4344,
      "ĠMag": 4345,
      "Ġfactors": 4346,
      "ĠSol": 4347,
      "Ġrefer": 4348,
      "ĠInstitute": 4349,
      "Con": 4350,
      "itors": 4351,
      "Ġnames": 4352,
      "oos": 4353,
      "ĠApple": 4354,
      "ĠCamp": 4355,
      "anta": 4356,
      "ĠOpen": 4357,
      "Ġfinding": 4358,
      "ĠBank": 4359,
      "Ġexperienced": 4360,
      "roy": 4361,
      "Ġvir": 4362,
      "Ġbath": 4363,
      "Ġprimary": 4364,
      "AA": 4365,
      "encies": 4366,
      "Ġonto": 4367,
      "Ġforms": 4368,
      "ĠPeople": 4369,
      "ipp": 4370,
      "Ġexperiences": 4371,
      "Ġcovered": 4372,
      "Ġclaims": 4373,
      "Ġlinks": 4374,
      "Ġbalance": 4375,
      "Ġ31": 4376,
      "Ġscen": 4377,
      "Ġhighlight": 4378,
      "Ġ90": 4379,
      "ĠClass": 4380,
      "ĠBay": 4381,
      "NA": 4382,
      "ĠSub": 4383,
      "Ġrecords": 4384,
      "Ġbecomes": 4385,
      "oices": 4386,
      "Ġdrop": 4387,
      "berg": 4388,
      "Ġnovel": 4389,
      "gers": 4390,
      "Ġremind": 4391,
      "ĠMount": 4392,
      "Ġchallenges": 4393,
      "ĠTom": 4394,
      "ĠEach": 4395,
      "fit": 4396,
      "ĠLord": 4397,
      "Ġjournal": 4398,
      "Ġresist": 4399,
      "Ġdetermine": 4400,
      "500": 4401,
      "Ġevening": 4402,
      "ĠSince": 4403,
      "Ġcaused": 4404,
      "gn": 4405,
      "ĠPhil": 4406,
      "Ġstandards": 4407,
      "semb": 4408,
      "osis": 4409,
      "Ġdescribed": 4410,
      "iled": 4411,
      "ĠPlan": 4412,
      "44": 4413,
      "look": 4414,
      "standing": 4415,
      "Ġbow": 4416,
      "Ġguess": 4417,
      "ĠRob": 4418,
      "ĠProdu": 4419,
      "Ġelectric": 4420,
      "Ġmanager": 4421,
      "Ġhospital": 4422,
      "ĠSk": 4423,
      "atically": 4424,
      "Ġsustain": 4425,
      "Ġhappens": 4426,
      "levant": 4427,
      "inn": 4428,
      "CH": 4429,
      "Ġshowed": 4430,
      "annel": 4431,
      "Ġacadem": 4432,
      "ĠBecause": 4433,
      "Ġlands": 4434,
      "olly": 4435,
      "estival": 4436,
      "icon": 4437,
      "entially": 4438,
      "ĠBrown": 4439,
      "Ġfiles": 4440,
      "ĠCommission": 4441,
      "Ġwindow": 4442,
      "TS": 4443,
      "Ġtim": 4444,
      "Ġshared": 4445,
      "Ġpolic": 4446,
      "Ġkeeping": 4447,
      "Ġmethods": 4448,
      "Ġexhib": 4449,
      "ĠLou": 4450,
      "Ġthanks": 4451,
      "ĠCongress": 4452,
      "oto": 4453,
      "Ġmill": 4454,
      "ĠUse": 4455,
      "ĠDemocr": 4456,
      "UR": 4457,
      "Ġflav": 4458,
      "Ġunit": 4459,
      "phone": 4460,
      "free": 4461,
      "iation": 4462,
      "ss": 4463,
      "Ġscene": 4464,
      "CC": 4465,
      "Ġsecure": 4466,
      "EM": 4467,
      "ror": 4468,
      "reak": 4469,
      "ctors": 4470,
      "ota": 4471,
      "Ġthousands": 4472,
      "Ġdat": 4473,
      "uled": 4474,
      "ulated": 4475,
      "Ġtraffic": 4476,
      "Ġstreet": 4477,
      "Ġcontinues": 4478,
      "Ġcompetition": 4479,
      "vin": 4480,
      "Ġstorage": 4481,
      "Ġfurn": 4482,
      "ĠMex": 4483,
      "ĠAP": 4484,
      "Ġwatching": 4485,
      "Ġgain": 4486,
      "Ar": 4487,
      "Ġlimit": 4488,
      "Ġearn": 4489,
      "Ġgrant": 4490,
      "state": 4491,
      "Ġvision": 4492,
      "Ġposted": 4493,
      "Ġtechnical": 4494,
      "Ġsand": 4495,
      "Ġviews": 4496,
      "Ġsenior": 4497,
      "Do": 4498,
      "Ġmemory": 4499,
      "Ġmajority": 4500,
      "Ġthus": 4501,
      "Ġexclus": 4502,
      "acing": 4503,
      "iques": 4504,
      "Ġlegisl": 4505,
      "Ġmanufacture": 4506,
      "osure": 4507,
      "Ġideal": 4508,
      "do": 4509,
      "ented": 4510,
      "Ġlabor": 4511,
      "Ġdirection": 4512,
      "95": 4513,
      "Ġtips": 4514,
      "ĠCap": 4515,
      "Ġpsych": 4516,
      "Ġvote": 4517,
      "Ġparties": 4518,
      "Ġowner": 4519,
      "Ġcentral": 4520,
      "Ġanimals": 4521,
      "edy": 4522,
      "Ġhar": 4523,
      "Ġtrial": 4524,
      "Ġsolid": 4525,
      "enture": 4526,
      "Ġuseful": 4527,
      "lig": 4528,
      "Ġstick": 4529,
      "Ġoperations": 4530,
      "ĠInformation": 4531,
      "Ġreflect": 4532,
      "Ġpresented": 4533,
      "Ġradio": 4534,
      "Ġguid": 4535,
      "ĠManagement": 4536,
      "mail": 4537,
      "Ġmatt": 4538,
      "night": 4539,
      "Ġcommunities": 4540,
      "Ġcomfortable": 4541,
      "Ġsession": 4542,
      "ĠGeorge": 4543,
      "Ġcrowd": 4544,
      "Ġmanage": 4545,
      "Ġepis": 4546,
      "\",": 4547,
      "47": 4548,
      "apers": 4549,
      "fast": 4550,
      "Ġice": 4551,
      "rab": 4552,
      "ĠJo": 4553,
      "eed": 4554,
      "Ġforget": 4555,
      "Ġrank": 4556,
      "Ġ70": 4557,
      "asp": 4558,
      "gment": 4559,
      "itness": 4560,
      "Ġvalues": 4561,
      "but": 4562,
      "Ġbatter": 4563,
      "Ġofficials": 4564,
      "Ġexercise": 4565,
      "Ġcards": 4566,
      "ĠStr": 4567,
      "Ġlaws": 4568,
      "Ġstation": 4569,
      "Ġpayment": 4570,
      "Ġsnow": 4571,
      "orney": 4572,
      "ĠDesign": 4573,
      "Ġmail": 4574,
      "Ġjourney": 4575,
      "Ġclearly": 4576,
      "Ġbul": 4577,
      "ĠCD": 4578,
      "ĠEducation": 4579,
      "Ġelements": 4580,
      "Ġ196": 4581,
      "ellow": 4582,
      "Ġwaiting": 4583,
      "37": 4584,
      "ette": 4585,
      "Ġjump": 4586,
      "Ġprepared": 4587,
      "Ġdecide": 4588,
      "Ġsym": 4589,
      "Ġmulti": 4590,
      "Ġfashion": 4591,
      "Ġinjury": 4592,
      "Ġcatch": 4593,
      "Ġeth": 4594,
      "Ġmentioned": 4595,
      "Ġforeign": 4596,
      "icago": 4597,
      "Ġwhom": 4598,
      "Ġrap": 4599,
      "Ġselection": 4600,
      "Ġsem": 4601,
      "ordin": 4602,
      "Ġestim": 4603,
      "Ġleadership": 4604,
      "miss": 4605,
      "ĠCare": 4606,
      "azon": 4607,
      "Ġappears": 4608,
      "Ġadvance": 4609,
      "ĠDec": 4610,
      "Ġvictim": 4611,
      "Ġleaving": 4612,
      "Ġplenty": 4613,
      "ĠAmericans": 4614,
      "actions": 4615,
      "ishes": 4616,
      "Ġfol": 4617,
      "omin": 4618,
      "ĠCarol": 4619,
      "Ġindependent": 4620,
      "iture": 4621,
      "Ġended": 4622,
      "Ġdepartment": 4623,
      "overy": 4624,
      "ĠPet": 4625,
      "cles": 4626,
      "Ġopened": 4627,
      "Ġotherwise": 4628,
      "Ġrule": 4629,
      "Ġcoach": 4630,
      "ĠBlue": 4631,
      "Ġcontains": 4632,
      "lor": 4633,
      "Ġpal": 4634,
      "Ġimpl": 4635,
      "water": 4636,
      "osh": 4637,
      "Ġprec": 4638,
      "Ġdep": 4639,
      "ĠRel": 4640,
      "Ġcris": 4641,
      "ĠUSA": 4642,
      "PA": 4643,
      "cture": 4644,
      "Ġkilled": 4645,
      "ĠVir": 4646,
      "osition": 4647,
      "estic": 4648,
      "ĠDirector": 4649,
      "Ġlose": 4650,
      "reek": 4651,
      "Ġshowing": 4652,
      "Ġbird": 4653,
      "imb": 4654,
      "cient": 4655,
      "Ġrat": 4656,
      "ĠMake": 4657,
      "ĠIns": 4658,
      "Ġdespite": 4659,
      "yer": 4660,
      "Ġteaching": 4661,
      "ugg": 4662,
      "Ġbag": 4663,
      "ĠStar": 4664,
      "Ġenvironmental": 4665,
      "ĠMat": 4666,
      "ĠPower": 4667,
      "unction": 4668,
      "oyal": 4669,
      "Ġretail": 4670,
      "Ġadministration": 4671,
      "Ġlisted": 4672,
      "Ġign": 4673,
      "Ġkid": 4674,
      "Ġmur": 4675,
      "Ġnor": 4676,
      "ĠIT": 4677,
      "Ġcommunication": 4678,
      "48": 4679,
      "Cont": 4680,
      "Ġlaunch": 4681,
      "More": 4682,
      "RA": 4683,
      "Ġbrief": 4684,
      "Ġsumm": 4685,
      "ĠTor": 4686,
      "hy": 4687,
      "ads": 4688,
      "Ġfunds": 4689,
      "Ġadding": 4690,
      "riage": 4691,
      "Ġcore": 4692,
      "ĠWood": 4693,
      "Ġstarts": 4694,
      "Ġwinter": 4695,
      "ĠAfrica": 4696,
      "ĠTop": 4697,
      "Ġdiscover": 4698,
      "iency": 4699,
      "Ġflex": 4700,
      "Pl": 4701,
      "no": 4702,
      "roud": 4703,
      "Ġboo": 4704,
      "Ġthrow": 4705,
      "uries": 4706,
      "ĠDet": 4707,
      "Ġpractices": 4708,
      "Ġfootball": 4709,
      "point": 4710,
      "ront": 4711,
      "Ġpray": 4712,
      "Ġclasses": 4713,
      "inc": 4714,
      "ĠChinese": 4715,
      "Ġutil": 4716,
      "amily": 4717,
      "Ġspending": 4718,
      "38": 4719,
      "ĠMain": 4720,
      "craft": 4721,
      "alls": 4722,
      "Ġexcited": 4723,
      "Ġshopping": 4724,
      "Ġincor": 4725,
      "ĠUnder": 4726,
      "ĠAlthough": 4727,
      "Ġactions": 4728,
      "Ġcoverage": 4729,
      "itz": 4730,
      "Ġdiscussion": 4731,
      "Ġgeneration": 4732,
      "Ġpassion": 4733,
      "Ġvolunte": 4734,
      "esterday": 4735,
      "Ġfill": 4736,
      "Ġbutton": 4737,
      "rad": 4738,
      "Ġfamous": 4739,
      "Ġopinion": 4740,
      "Ġcitizens": 4741,
      "Ġsources": 4742,
      "ĠSum": 4743,
      "ĠSal": 4744,
      "Ġwedding": 4745,
      "ĠMil": 4746,
      "Ġdriver": 4747,
      "Ġreturned": 4748,
      "Ġbought": 4749,
      "Ġ195": 4750,
      "ĠSmith": 4751,
      "ĠFore": 4752,
      "olate": 4753,
      "how": 4754,
      "pet": 4755,
      "roid": 4756,
      "Ġleaves": 4757,
      "ĠAlex": 4758,
      "Ġtask": 4759,
      "Ġmort": 4760,
      "Ġbecoming": 4761,
      "ĠCommittee": 4762,
      "Ġingred": 4763,
      "Ġgraph": 4764,
      "ĠClick": 4765,
      "ĠMicrosoft": 4766,
      "ste": 4767,
      "life": 4768,
      "Ġegg": 4769,
      "ĠLake": 4770,
      "Ġhandle": 4771,
      "ĠLike": 4772,
      "Ġdedicated": 4773,
      "Ġship": 4774,
      "Ġpair": 4775,
      "Ġwilling": 4776,
      "ception": 4777,
      "ĠColor": 4778,
      "ternal": 4779,
      "Ġraised": 4780,
      "Ġapprox": 4781,
      "ĠBer": 4782,
      "Ġflu": 4783,
      "Ġdete": 4784,
      "Ġpolicies": 4785,
      "From": 4786,
      "ipe": 4787,
      "Ġpool": 4788,
      "Ġrelax": 4789,
      "Ab": 4790,
      "Ġsouth": 4791,
      "oles": 4792,
      "lands": 4793,
      "ucle": 4794,
      "Ġwelcome": 4795,
      "Ġclosed": 4796,
      "Ġserver": 4797,
      "rd": 4798,
      "Ġspect": 4799,
      "Ġcorner": 4800,
      "iliar": 4801,
      "arge": 4802,
      "Ġshut": 4803,
      "fin": 4804,
      "Ġremove": 4805,
      "Ġtransl": 4806,
      "ĠMal": 4807,
      "outhern": 4808,
      "Ġconven": 4809,
      "Ġap": 4810,
      "Ġhonest": 4811,
      "ĠSa": 4812,
      "Ġschedule": 4813,
      "resp": 4814,
      "Ġpresence": 4815,
      "Ġminute": 4816,
      "which": 4817,
      "Ġbright": 4818,
      "Ġvideos": 4819,
      "cont": 4820,
      "hab": 4821,
      "Ġmostly": 4822,
      "Ġslightly": 4823,
      "ĠFire": 4824,
      "Ġwaste": 4825,
      "Ġpaint": 4826,
      "while": 4827,
      "Ġcounter": 4828,
      "Ġbattle": 4829,
      "MS": 4830,
      "tained": 4831,
      "Ġtree": 4832,
      "Ġsongs": 4833,
      "Ġefficient": 4834,
      "Ġspring": 4835,
      "Ġsty": 4836,
      "Ġartist": 4837,
      "Ġupdate": 4838,
      "!\"": 4839,
      "win": 4840,
      "ĠPR": 4841,
      "Ġresidents": 4842,
      "Ġmanaged": 4843,
      "aked": 4844,
      "Ġleads": 4845,
      "antic": 4846,
      "uke": 4847,
      "Ġnotes": 4848,
      "Ġseparate": 4849,
      "Ġsmaller": 4850,
      "32": 4851,
      "tion": 4852,
      "ĠDiv": 4853,
      "Ġsugar": 4854,
      "Ġclimate": 4855,
      "Ġcraft": 4856,
      "Post": 4857,
      "abilities": 4858,
      "Ġrain": 4859,
      "ĠWater": 4860,
      "Ġcombination": 4861,
      "36": 4862,
      "cel": 4863,
      "Ġagency": 4864,
      "Ġreached": 4865,
      "Ġ2000": 4866,
      "Ġnumerous": 4867,
      "Ġcab": 4868,
      "Ġselected": 4869,
      "Bl": 4870,
      "ĠTimes": 4871,
      "Ġking": 4872,
      "Ġarticles": 4873,
      "Ġclassic": 4874,
      "34": 4875,
      "ĠHill": 4876,
      "ĠWho": 4877,
      "Ġride": 4878,
      "ĠChild": 4879,
      "Ġsched": 4880,
      "Ġpoll": 4881,
      "ĠDevelopment": 4882,
      "atures": 4883,
      "oop": 4884,
      "Ġadvanced": 4885,
      "Ġthoughts": 4886,
      "Ġsexual": 4887,
      "ĠToday": 4888,
      "ĠJones": 4889,
      "ĠTwo": 4890,
      "Ġfilled": 4891,
      "inct": 4892,
      "Ġwinning": 4893,
      "Ġrestaurant": 4894,
      "active": 4895,
      "Why": 4896,
      "going": 4897,
      "illa": 4898,
      "Ġconcerns": 4899,
      "Ġdiet": 4900,
      "Ġprinci": 4901,
      "ait": 4902,
      "ĠHy": 4903,
      "ferences": 4904,
      "ĠOnline": 4905,
      "Ġalternative": 4906,
      "Ġmental": 4907,
      "Ġworry": 4908,
      "Ġconsid": 4909,
      "Ġfourth": 4910,
      "Ġcars": 4911,
      "Ġasking": 4912,
      "door": 4913,
      "Ġfreed": 4914,
      "Ġsympt": 4915,
      "Ġnorth": 4916,
      "ĠCentral": 4917,
      "Ġconnected": 4918,
      "ĠTur": 4919,
      "ĠYes": 4920,
      "Ġindic": 4921,
      "levision": 4922,
      "ĠCheck": 4923,
      "ĠLear": 4924,
      "CT": 4925,
      "Ġarrest": 4926,
      "cket": 4927,
      "Ġ2004": 4928,
      "Ġdocuments": 4929,
      "Ġcontext": 4930,
      "Ġfeels": 4931,
      "Ġwalking": 4932,
      "Ġsoul": 4933,
      "ĠCur": 4934,
      "Ġeating": 4935,
      "that": 4936,
      "Ġobtain": 4937,
      "Ġinitial": 4938,
      "Ġabsolutely": 4939,
      "vention": 4940,
      "Ġunless": 4941,
      "spe": 4942,
      "zen": 4943,
      "Ġcloud": 4944,
      "net": 4945,
      "ĠJew": 4946,
      "Ġdefense": 4947,
      "Ġbuying": 4948,
      "Ġsch": 4949,
      "ĠSil": 4950,
      "ĠVol": 4951,
      "BS": 4952,
      "IR": 4953,
      "ĠAtt": 4954,
      "ĠGovernment": 4955,
      "pan": 4956,
      "âĢĺ": 4957,
      "Ġteacher": 4958,
      "PR": 4959,
      "Ġrelevant": 4960,
      "ĠFood": 4961,
      "ĠGrand": 4962,
      "igan": 4963,
      "Ġdiagn": 4964,
      "fortunately": 4965,
      "rag": 4966,
      "outs": 4967,
      "ĠChicago": 4968,
      "Ġidentify": 4969,
      "DF": 4970,
      "ĠScott": 4971,
      "Ġlaun": 4972,
      "Ġagreement": 4973,
      "ye": 4974,
      "Ġperformed": 4975,
      "ii": 4976,
      "ading": 4977,
      "Ġhearing": 4978,
      "Ġsequ": 4979,
      "Ġrid": 4980,
      "Ġsharing": 4981,
      "what": 4982,
      "01": 4983,
      "eal": 4984,
      "unn": 4985,
      "Ġtemperature": 4986,
      "Ġdesk": 4987,
      "ĠLeague": 4988,
      "Ġdebt": 4989,
      "Ġthr": 4990,
      "ĠJer": 4991,
      "Ġflat": 4992,
      "ĠArch": 4993,
      "Ġcolors": 4994,
      "ĠTest": 4995,
      "Ġrelationships": 4996,
      "Ġdoubt": 4997,
      "ini": 4998,
      "Ġcorporate": 4999,
      "ĠSing": 5000,
      "Ġmarkets": 5001,
      "ĠFranc": 5002,
      "Ġchanging": 5003,
      "ĠEarth": 5004,
      "Ġban": 5005,
      "Ġdinner": 5006,
      "Ġcapacity": 5007,
      "Ġmicro": 5008,
      "ĠMad": 5009,
      "Ġran": 5010,
      "ĠJournal": 5011,
      "Ġveget": 5012,
      "Ġchief": 5013,
      "Ġkick": 5014,
      "Ġdecisions": 5015,
      "Ġmouth": 5016,
      "Ġbrings": 5017,
      "Ġdelic": 5018,
      "Ġjoint": 5019,
      "Ġcommitted": 5020,
      "!âĢĿ": 5021,
      "Ġbon": 5022,
      "Ġshipping": 5023,
      "Ġmap": 5024,
      "Ġoperating": 5025,
      "Ad": 5026,
      "Ġtaste": 5027,
      "ĠLove": 5028,
      "Ġplants": 5029,
      "Ġexperts": 5030,
      "esome": 5031,
      "ĠProfess": 5032,
      "orter": 5033,
      "Ġentry": 5034,
      "Ġfocused": 5035,
      "known": 5036,
      "Ġgarden": 5037,
      "ĠForm": 5038,
      "Ġshape": 5039,
      "Ġmeasures": 5040,
      "ya": 5041,
      "ĠTO": 5042,
      "ulate": 5043,
      "ĠUnion": 5044,
      "unning": 5045,
      "Ġpreviously": 5046,
      "Ġcircum": 5047,
      "Ġestate": 5048,
      "ĠParty": 5049,
      "isation": 5050,
      "Ġproceed": 5051,
      "Ġappeared": 5052,
      "Me": 5053,
      "Ġsounds": 5054,
      "Ġpus": 5055,
      "llig": 5056,
      "IA": 5057,
      "ĠBob": 5058,
      "ĠDown": 5059,
      "Ġminor": 5060,
      "Ġcream": 5061,
      "Ġfacilities": 5062,
      "May": 5063,
      "ĠGra": 5064,
      "Ġmotor": 5065,
      "Ġ45": 5066,
      "Ġteachers": 5067,
      "tenance": 5068,
      "Ġresponsibility": 5069,
      "ĠConst": 5070,
      "noon": 5071,
      "Ġcart": 5072,
      "Ġmo": 5073,
      "Ġseek": 5074,
      "Ġdecor": 5075,
      "Ġpackage": 5076,
      "ĠTre": 5077,
      "ĠTheir": 5078,
      "obe": 5079,
      "icken": 5080,
      "Ġposts": 5081,
      "Your": 5082,
      "ga": 5083,
      "po": 5084,
      "Ġ>": 5085,
      "Ġbeauty": 5086,
      "coh": 5087,
      "Ġspl": 5088,
      "Ġrise": 5089,
      "tered": 5090,
      "Ġeventually": 5091,
      "ĠEngine": 5092,
      "Ġforest": 5093,
      "top": 5094,
      "ĠCanad": 5095,
      "ĠSpecial": 5096,
      "ĠAND": 5097,
      "ki": 5098,
      "Ġfee": 5099,
      "ĠThomas": 5100,
      "Ġdatab": 5101,
      "ixt": 5102,
      "word": 5103,
      "Ġdut": 5104,
      "ĠWin": 5105,
      "Ġvs": 5106,
      "Ġputting": 5107,
      "you": 5108,
      "Ġholiday": 5109,
      "Ġinfluence": 5110,
      "ĠBack": 5111,
      "Ġneighbor": 5112,
      "ĠFrance": 5113,
      "poses": 5114,
      "Ġadapt": 5115,
      "Acc": 5116,
      "BA": 5117,
      "ricult": 5118,
      "Ġoperation": 5119,
      "ifts": 5120,
      "ĠVe": 5121,
      "ĠSociety": 5122,
      "Ġmanner": 5123,
      "ĠLong": 5124,
      "ĠThanks": 5125,
      "Ġproud": 5126,
      "Ġminimum": 5127,
      "Ġexplore": 5128,
      "Ġbrows": 5129,
      "Ġlisten": 5130,
      "Ġassistance": 5131,
      "Ġcompar": 5132,
      "Ġencourage": 5133,
      "icians": 5134,
      "ĠNY": 5135,
      "Ġsea": 5136,
      "ĠJoe": 5137,
      "Ġapparent": 5138,
      "Ġsmooth": 5139,
      "Ġformat": 5140,
      "ĠWestern": 5141,
      "osen": 5142,
      "ĠMedia": 5143,
      "ĠWomen": 5144,
      "umber": 5145,
      "ĠBet": 5146,
      "Ġarchite": 5147,
      "Ġaccompl": 5148,
      "ĠCall": 5149,
      "ĠWall": 5150,
      "ĠDistrict": 5151,
      "Ġfabric": 5152,
      "ĠBur": 5153,
      "Ġconcent": 5154,
      "Ġcharges": 5155,
      "Ġexpensive": 5156,
      "Ġnine": 5157,
      "umin": 5158,
      "Ġsitu": 5159,
      "gery": 5160,
      "ĠTeam": 5161,
      "Ġelection": 5162,
      "Ġsurvey": 5163,
      "Ġvisual": 5164,
      "Ġremoved": 5165,
      "Ġsigned": 5166,
      "arrant": 5167,
      "uce": 5168,
      "ena": 5169,
      "Ġcultural": 5170,
      "Ġallowing": 5171,
      "Ġconversation": 5172,
      "55": 5173,
      "Ġcities": 5174,
      "ograp": 5175,
      "Ġarm": 5176,
      "ĠCommunity": 5177,
      "Ġfemale": 5178,
      "ano": 5179,
      "ENT": 5180,
      "ĠJud": 5181,
      "Ġplays": 5182,
      "ĠAfrican": 5183,
      "Le": 5184,
      "cher": 5185,
      "Ġfif": 5186,
      "Ġburn": 5187,
      "ĠVis": 5188,
      "Ġraise": 5189,
      "Ġholding": 5190,
      "ocolate": 5191,
      "Ġunc": 5192,
      "Ġsector": 5193,
      "Ġaccident": 5194,
      "ka": 5195,
      "aser": 5196,
      "oma": 5197,
      "essions": 5198,
      "ears": 5199,
      "ĠSocial": 5200,
      "usion": 5201,
      "Ġnoted": 5202,
      "ĠMel": 5203,
      "ĠElect": 5204,
      "Ġcompre": 5205,
      "Ġcommand": 5206,
      "Ġinterests": 5207,
      "Ġforces": 5208,
      "Ġchair": 5209,
      ".|": 5210,
      "ĠRobert": 5211,
      "ĠUN": 5212,
      "Ġpush": 5213,
      "Ġarg": 5214,
      "ĠVirgin": 5215,
      "ĠÃ": 5216,
      "Ġsitting": 5217,
      "Ġtechniques": 5218,
      "iration": 5219,
      "Ġhelpful": 5220,
      "Ġdecades": 5221,
      "Ġrooms": 5222,
      "ĠIP": 5223,
      "igr": 5224,
      "uration": 5225,
      "Ġprocesses": 5226,
      "Ġselling": 5227,
      "Ġguests": 5228,
      "49": 5229,
      "rim": 5230,
      "Ġtransform": 5231,
      "Ġdistance": 5232,
      "SA": 5233,
      "Ġexplain": 5234,
      "ups": 5235,
      "Ġsets": 5236,
      "Ġpredict": 5237,
      "ĠJeff": 5238,
      "46": 5239,
      "isher": 5240,
      "ĠDuring": 5241,
      "Ġtele": 5242,
      "Ġpurposes": 5243,
      "Ġessay": 5244,
      "road": 5245,
      "ĠAD": 5246,
      "ĠWil": 5247,
      "ĠShow": 5248,
      "ĠLos": 5249,
      "Ġproperties": 5250,
      "ĠLook": 5251,
      "Ġshock": 5252,
      "Ġweap": 5253,
      "Ġpm": 5254,
      "Ġdrugs": 5255,
      "39": 5256,
      "88": 5257,
      "ĠFoundation": 5258,
      "Ġenjoyed": 5259,
      "Ġnegative": 5260,
      "Ġvan": 5261,
      "Ġourselves": 5262,
      "raq": 5263,
      "idential": 5264,
      "Ġseconds": 5265,
      "ĠExper": 5266,
      "odies": 5267,
      "ĠQue": 5268,
      "Ġprofessionals": 5269,
      "Ġswitch": 5270,
      "Ġanimal": 5271,
      "Ġproposed": 5272,
      "Ġupgr": 5273,
      "Ġintended": 5274,
      "Ġfriendly": 5275,
      "den": 5276,
      "kin": 5277,
      "ulations": 5278,
      "ĠReal": 5279,
      "Ġcalling": 5280,
      "Ġtrouble": 5281,
      "ĠDig": 5282,
      "ĠData": 5283,
      "orthern": 5284,
      "anda": 5285,
      "Ġtrees": 5286,
      "ĠDi": 5287,
      "Ġju": 5288,
      "ructure": 5289,
      "ĠTrump": 5290,
      "lets": 5291,
      "Ġreference": 5292,
      "Ġartists": 5293,
      "rolled": 5294,
      "kins": 5295,
      "Ġoptim": 5296,
      "cuit": 5297,
      "Ġinternal": 5298,
      "However": 5299,
      "Ġexciting": 5300,
      "Ġintellig": 5301,
      "Ġsupposed": 5302,
      "ĠGerman": 5303,
      "Read": 5304,
      "Last": 5305,
      "oses": 5306,
      "Ġmissing": 5307,
      "Ġfailed": 5308,
      "Ġmir": 5309,
      "Ġjoined": 5310,
      "ĠMusic": 5311,
      "OD": 5312,
      "ship": 5313,
      "atin": 5314,
      "Ġlived": 5315,
      "otic": 5316,
      "Ġstret": 5317,
      "ĠAtl": 5318,
      "ht": 5319,
      "Ġwriter": 5320,
      "Ġhttps": 5321,
      "Ġphil": 5322,
      "Ġprison": 5323,
      "Ġproperly": 5324,
      "ĠCEO": 5325,
      "Ġstopped": 5326,
      "Ġtells": 5327,
      "ĠSecret": 5328,
      "ĠValley": 5329,
      "Ġcasino": 5330,
      "Ġcaught": 5331,
      "arian": 5332,
      "Ġspons": 5333,
      "Ġmovies": 5334,
      "Ġforg": 5335,
      "Ġbusy": 5336,
      "Ġreaders": 5337,
      "idden": 5338,
      "ĠMcC": 5339,
      "Ġeditor": 5340,
      "Ġsigns": 5341,
      "31": 5342,
      "Ġder": 5343,
      "ĠHam": 5344,
      "ĠJim": 5345,
      "Ġamb": 5346,
      "Ġafternoon": 5347,
      "Ġoccup": 5348,
      "Ġinfe": 5349,
      "ĠGar": 5350,
      "Ġinstance": 5351,
      "Ġstated": 5352,
      "Ġcop": 5353,
      "Ġforced": 5354,
      "bert": 5355,
      "Ġpossibly": 5356,
      "Ġtotally": 5357,
      "ĠAccording": 5358,
      "Ġfruit": 5359,
      "ĠPay": 5360,
      "Ġsav": 5361,
      "Ġtypically": 5362,
      "Ġfamiliar": 5363,
      "Ġfacility": 5364,
      "pected": 5365,
      "Ġimportance": 5366,
      "tra": 5367,
      "Ġquiet": 5368,
      "ĠIts": 5369,
      "Ġscale": 5370,
      "Ġmarried": 5371,
      "Ġeffic": 5372,
      "ĠId": 5373,
      "okes": 5374,
      "Ġrevenue": 5375,
      "ĠRE": 5376,
      "Ġgreatest": 5377,
      "Ġfuel": 5378,
      "ĠMass": 5379,
      "Ġcontem": 5380,
      "nect": 5381,
      "Ġserving": 5382,
      "Ġresearc": 5383,
      "Des": 5384,
      "Ġparking": 5385,
      "ĠMer": 5386,
      "ums": 5387,
      "arsh": 5388,
      "Ġyouth": 5389,
      "ĠRad": 5390,
      "Phone": 5391,
      "ivered": 5392,
      "Ġroof": 5393,
      "ĠNetwork": 5394,
      "Ġadults": 5395,
      "Ġchemical": 5396,
      "under": 5397,
      "Ġyesterday": 5398,
      "ĠAmazon": 5399,
      "Ġsteel": 5400,
      "Ġwire": 5401,
      "cipe": 5402,
      "ĠStand": 5403,
      "Ġdie": 5404,
      "Ġhero": 5405,
      "Ġsuppl": 5406,
      "LC": 5407,
      "ĠDri": 5408,
      "ician": 5409,
      "istan": 5410,
      "Ġsuit": 5411,
      "ĠOrgan": 5412,
      "alled": 5413,
      "Get": 5414,
      "Ġdu": 5415,
      "cluding": 5416,
      "ita": 5417,
      "Ġkill": 5418,
      "Ġdefend": 5419,
      "Ġmedium": 5420,
      "Ġtopic": 5421,
      "Ġfunding": 5422,
      "ĠLast": 5423,
      "ĠTim": 5424,
      "phas": 5425,
      "Ġdance": 5426,
      "Ġexchange": 5427,
      "ommod": 5428,
      "Ġsymptoms": 5429,
      "bour": 5430,
      "Ġdistrict": 5431,
      "Ġrecommended": 5432,
      "Ġrapid": 5433,
      "VD": 5434,
      "erg": 5435,
      "ĠHen": 5436,
      "ĠMot": 5437,
      "ilding": 5438,
      "Ġinstit": 5439,
      "ĠLouis": 5440,
      "ria": 5441,
      "Ġath": 5442,
      "----": 5443,
      "ĠIraq": 5444,
      "ogue": 5445,
      "Ġspeech": 5446,
      "Ġsupported": 5447,
      "een": 5448,
      "Ġlib": 5449,
      "Ġdisp": 5450,
      "ius": 5451,
      "Ġterror": 5452,
      "Ġgall": 5453,
      "Ġdepos": 5454,
      "ĠReport": 5455,
      "ĠOnly": 5456,
      "Ġcauses": 5457,
      "Add": 5458,
      "ĠBi": 5459,
      "ems": 5460,
      "ĠProject": 5461,
      "Ġorders": 5462,
      "ĠID": 5463,
      "Ġtro": 5464,
      "Ġtight": 5465,
      "ĠNov": 5466,
      "Ġveter": 5467,
      "Ġpromote": 5468,
      "Ġment": 5469,
      "Ġmale": 5470,
      "ulty": 5471,
      "Ġcheap": 5472,
      "Ġfreedom": 5473,
      "Ġmotiv": 5474,
      "ario": 5475,
      "Ġedge": 5476,
      "Ġreligious": 5477,
      "Ġconsequ": 5478,
      "Ġprop": 5479,
      "Ġassum": 5480,
      "Ġcourses": 5481,
      "ĠFrank": 5482,
      "ĠGermany": 5483,
      "hand": 5484,
      "Ġlibrary": 5485,
      "Ġang": 5486,
      "Ġdogs": 5487,
      "Ġintroduced": 5488,
      "Every": 5489,
      "Ġagreed": 5490,
      "nergy": 5491,
      "Ġspecifically": 5492,
      "Ġstores": 5493,
      "ĠAcadem": 5494,
      "Ste": 5495,
      "Ġarrange": 5496,
      "Yes": 5497,
      "iest": 5498,
      "Ġmine": 5499,
      "iminal": 5500,
      "Ġdiscount": 5501,
      "Ġconflic": 5502,
      "Ġaid": 5503,
      "Ġtow": 5504,
      "Ġquant": 5505,
      "Ġtwice": 5506,
      "Ġcombined": 5507,
      "ĠWilliam": 5508,
      "Ġpanel": 5509,
      "Ġapplied": 5510,
      "Just": 5511,
      "ingly": 5512,
      "Ġpun": 5513,
      "yan": 5514,
      "ĠTake": 5515,
      "prise": 5516,
      "Ġconfig": 5517,
      "ĠDou": 5518,
      "Ġlocations": 5519,
      "Ġarrived": 5520,
      "Ġdyn": 5521,
      "Ġworse": 5522,
      "Ġdetailed": 5523,
      "uable": 5524,
      "ĠIr": 5525,
      "ĠLin": 5526,
      "Ġapproximately": 5527,
      "Ġbound": 5528,
      "ĠCustom": 5529,
      "Ġrepair": 5530,
      "Ġloan": 5531,
      "Ġune": 5532,
      "Ġdesigns": 5533,
      "Ġ<": 5534,
      "Ġbeach": 5535,
      "Ġbelief": 5536,
      "Ġ500": 5537,
      "Ġmarriage": 5538,
      "Ġtough": 5539,
      "igation": 5540,
      "ometimes": 5541,
      "ĠBeach": 5542,
      "Ġincorpor": 5543,
      "ĠChris": 5544,
      "dden": 5545,
      "ala": 5546,
      "FL": 5547,
      "Ġdesire": 5548,
      "Ġjudge": 5549,
      "Ġdollars": 5550,
      "Ġingredients": 5551,
      "uts": 5552,
      "ĠPeter": 5553,
      "Ġbroken": 5554,
      "Ġlabel": 5555,
      "ĠOld": 5556,
      "ĠMrs": 5557,
      "Ġseat": 5558,
      "Ġneck": 5559,
      "Ġteach": 5560,
      "Ġtelevision": 5561,
      "Ġvalid": 5562,
      "burg": 5563,
      "Well": 5564,
      "Ġwitness": 5565,
      "Ġpure": 5566,
      "ĠFind": 5567,
      "Ġemp": 5568,
      "ensions": 5569,
      "Ġremark": 5570,
      "Ġemployee": 5571,
      "Ġdraft": 5572,
      "rooms": 5573,
      "cohol": 5574,
      "met": 5575,
      "cean": 5576,
      "Ġagent": 5577,
      "Ġacademic": 5578,
      "05": 5579,
      "77": 5580,
      "wo": 5581,
      "ĠAward": 5582,
      "ĠLight": 5583,
      "Ġtheme": 5584,
      "Ġmetal": 5585,
      "Ġmenu": 5586,
      "Ġfort": 5587,
      "Ġdiscovered": 5588,
      "ĠMont": 5589,
      "ĠIsl": 5590,
      "Ne": 5591,
      "Ġprofile": 5592,
      "Ġtechnologies": 5593,
      "Ġturns": 5594,
      "ampionship": 5595,
      "Ġvisitors": 5596,
      "Ġpicked": 5597,
      "Ġcircumst": 5598,
      "Ġflight": 5599,
      "Ġine": 5600,
      "Ġconcerned": 5601,
      "Ġconsumers": 5602,
      "Ġspiritual": 5603,
      "orry": 5604,
      "Ġdial": 5605,
      "Ġwal": 5606,
      "Ġaspects": 5607,
      "Ġseeking": 5608,
      "ĠAngeles": 5609,
      "Ġaudio": 5610,
      "Ġfly": 5611,
      "Ġrecip": 5612,
      "ĠIll": 5613,
      "ĠNC": 5614,
      "Ġtelling": 5615,
      "Ġtreated": 5616,
      "Ġoccasion": 5617,
      "App": 5618,
      "Ġlunch": 5619,
      "Ġrub": 5620,
      "ĠInvest": 5621,
      "Ġfees": 5622,
      "Ġlandsc": 5623,
      "rical": 5624,
      "According": 5625,
      "Ġinput": 5626,
      "Ġhun": 5627,
      "agram": 5628,
      "Ġaccounts": 5629,
      "Ġbrown": 5630,
      "hetic": 5631,
      "LA": 5632,
      "ocation": 5633,
      "Ġcarried": 5634,
      "Ġprocessing": 5635,
      "Ġphotograph": 5636,
      "uclear": 5637,
      ".âĢĻ": 5638,
      "UN": 5639,
      "Ġthick": 5640,
      "Ġec": 5641,
      "Ġexecutive": 5642,
      "Ġanywhere": 5643,
      "Ġbringing": 5644,
      "Ġvolume": 5645,
      "Ġaffected": 5646,
      "Ġcrisis": 5647,
      "Ġsport": 5648,
      "ĠHave": 5649,
      "Ġsudden": 5650,
      "Ġeducational": 5651,
      "Ġenhance": 5652,
      "ĠPerson": 5653,
      "Ġextensive": 5654,
      "Ġfailure": 5655,
      "ĠHol": 5656,
      "ĠView": 5657,
      "Ġends": 5658,
      "Ġrealize": 5659,
      "Ġapproved": 5660,
      "Ġwebsites": 5661,
      "86": 5662,
      "Ġbike": 5663,
      "SP": 5664,
      "ĠMike": 5665,
      "Ġsalt": 5666,
      "Ġemergency": 5667,
      "Ġdepending": 5668,
      "ĠSand": 5669,
      "Ġweak": 5670,
      "oted": 5671,
      "ĠMic": 5672,
      "ĠHuman": 5673,
      "Ġannounce": 5674,
      "Ġtrib": 5675,
      "Ġuns": 5676,
      "Ġstanding": 5677,
      "ĠStep": 5678,
      "Ġcomponents": 5679,
      "Ġgather": 5680,
      "rip": 5681,
      "ĠFund": 5682,
      "ĠLead": 5683,
      "kes": 5684,
      "Ġconsidering": 5685,
      "kay": 5686,
      "Ġcalcul": 5687,
      "Ġprocedure": 5688,
      "Ġbegins": 5689,
      "OC": 5690,
      "Ġdelivered": 5691,
      "Ġadvertising": 5692,
      "ĠFederal": 5693,
      "Ġcounty": 5694,
      "Ġmut": 5695,
      "ĠFort": 5696,
      "Ġcoast": 5697,
      "Ġdomin": 5698,
      "Ġdecre": 5699,
      "Ġriver": 5700,
      "Ġcategory": 5701,
      "Ġstars": 5702,
      "ĠGen": 5703,
      "Ġunits": 5704,
      "Ġ2003": 5705,
      "Ġelimin": 5706,
      "edia": 5707,
      "Ġimproved": 5708,
      "hensive": 5709,
      "Ġlaunched": 5710,
      "Ġyes": 5711,
      "ĠAT": 5712,
      "cipl": 5713,
      "Ġregistered": 5714,
      "ĠCy": 5715,
      "ĠFil": 5716,
      "Ġfunctions": 5717,
      "ĠCard": 5718,
      "Ġvary": 5719,
      "irty": 5720,
      "Ġregister": 5721,
      "tters": 5722,
      "Ġconfidence": 5723,
      "Ġtests": 5724,
      "lastname": 5725,
      "Ġresol": 5726,
      "Ġviolence": 5727,
      "Let": 5728,
      "ĠConference": 5729,
      "ĠTechnology": 5730,
      "Ġmaximum": 5731,
      "Ġwealth": 5732,
      "ĠThank": 5733,
      "ownt": 5734,
      "Ġinspired": 5735,
      "ĠSeries": 5736,
      "Che": 5737,
      "ĠLab": 5738,
      "ossible": 5739,
      "Ġdetermined": 5740,
      "Ġinvestigation": 5741,
      "ĠHistory": 5742,
      "ĠCath": 5743,
      "ĠEnter": 5744,
      "van": 5745,
      "rier": 5746,
      "ĠExt": 5747,
      "ideo": 5748,
      "Ġaccommod": 5749,
      "ĠCharl": 5750,
      "bing": 5751,
      "iat": 5752,
      "ĠRev": 5753,
      "Ġappearance": 5754,
      "UT": 5755,
      "Ġchain": 5756,
      "Ġswim": 5757,
      "Ġauthority": 5758,
      "mes": 5759,
      "ĠJul": 5760,
      "Ġdiscl": 5761,
      "Ġsupporting": 5762,
      "ĠCarolina": 5763,
      "iability": 5764,
      "rick": 5765,
      "Ġcleaning": 5766,
      "eper": 5767,
      "ĠNor": 5768,
      "Ġbelong": 5769,
      "Ġwearing": 5770,
      "Ġliqu": 5771,
      "Ġperman": 5772,
      "Ġfactor": 5773,
      "gypt": 5774,
      "Ġsam": 5775,
      "Ġsides": 5776,
      "orough": 5777,
      "Ġsevere": 5778,
      "ĠAL": 5779,
      "ĠFamily": 5780,
      "Ġscientific": 5781,
      "Ġschol": 5782,
      "Ġsymb": 5783,
      "Ġmaintenance": 5784,
      "acks": 5785,
      "Ġenem": 5786,
      "ĠAbout": 5787,
      "aded": 5788,
      "aped": 5789,
      "Ġprovider": 5790,
      "Ġbigger": 5791,
      "Ġfavour": 5792,
      "ĠBre": 5793,
      "osoph": 5794,
      "ĠJose": 5795,
      "Ġperspective": 5796,
      "Ġstrategies": 5797,
      "bu": 5798,
      "asks": 5799,
      "Ġplastic": 5800,
      "Ġpregn": 5801,
      "Ġ2002": 5802,
      "Ġofficer": 5803,
      "ĠCanadian": 5804,
      "list": 5805,
      "Ġtables": 5806,
      "ĠPan": 5807,
      "Ġalle": 5808,
      "Ġprotein": 5809,
      "ĠDen": 5810,
      "Ġfields": 5811,
      "Ġcommitment": 5812,
      "irmed": 5813,
      "Ġlit": 5814,
      "ĠGame": 5815,
      "ĠYOU": 5816,
      "Ġagencies": 5817,
      "Ġcloser": 5818,
      "aren": 5819,
      "iveness": 5820,
      "Ġhundreds": 5821,
      "Ġepisode": 5822,
      "reens": 5823,
      "ĠMa": 5824,
      "Ġbuildings": 5825,
      "ĠMedical": 5826,
      "Ġparticipate": 5827,
      "ĠParis": 5828,
      "ĠMartin": 5829,
      "rate": 5830,
      "08": 5831,
      "Ġodd": 5832,
      "Ġbutter": 5833,
      "ĠBoth": 5834,
      "ĠPub": 5835,
      "ĠCorpor": 5836,
      "ias": 5837,
      "ĠWay": 5838,
      "ĠOffic": 5839,
      "Any": 5840,
      "Us": 5841,
      "wing": 5842,
      "ĠMatt": 5843,
      "Ġconfirm": 5844,
      "Ġawesome": 5845,
      "Ġhistorical": 5846,
      "Ġhousing": 5847,
      "Ġfle": 5848,
      "Ġhur": 5849,
      "abet": 5850,
      "Ġjoy": 5851,
      "Ġuniversity": 5852,
      "erves": 5853,
      "ployment": 5854,
      "Ġaccepted": 5855,
      "Ġvictory": 5856,
      "Ġclinical": 5857,
      "Ġboost": 5858,
      "Ġelement": 5859,
      "ĠHD": 5860,
      "Ġresource": 5861,
      "Ġhousehold": 5862,
      "II": 5863,
      "Ġdepress": 5864,
      "Ġsole": 5865,
      "Ġpoly": 5866,
      "ĠAdv": 5867,
      "DS": 5868,
      "Ġstorm": 5869,
      "Ġ2001": 5870,
      "ĠIran": 5871,
      "Ġcrime": 5872,
      "Ġchapter": 5873,
      "ĠKore": 5874,
      "azz": 5875,
      "ĠAdminist": 5876,
      "Ġsquare": 5877,
      "Can": 5878,
      "Ġsister": 5879,
      "iser": 5880,
      "Ġfold": 5881,
      "opyright": 5882,
      "Ġshares": 5883,
      "Ġexplained": 5884,
      "Ġconcern": 5885,
      "Ġadministr": 5886,
      "pret": 5887,
      "Ġtiss": 5888,
      "ĠHaw": 5889,
      "ibilities": 5890,
      "Ġemphas": 5891,
      "Ġconsumer": 5892,
      "ĠMexico": 5893,
      "hors": 5894,
      "ket": 5895,
      "ĠOper": 5896,
      "Ġunivers": 5897,
      "oking": 5898,
      "Ġreduced": 5899,
      "prene": 5900,
      "43": 5901,
      "Ġrecipe": 5902,
      "Ġ32": 5903,
      "Ġcrew": 5904,
      "Ġtruck": 5905,
      "Ġmere": 5906,
      "ĠProte": 5907,
      "Ġdestroy": 5908,
      "lla": 5909,
      "Ġhabit": 5910,
      "icit": 5911,
      "Ġgro": 5912,
      "ĠStart": 5913,
      "Ġfilms": 5914,
      ":||": 5915,
      "ĠProv": 5916,
      "Ġwindows": 5917,
      "Ġinstitutions": 5918,
      "ĠList": 5919,
      "42": 5920,
      "Americ": 5921,
      "oration": 5922,
      "ilit": 5923,
      "ĠWord": 5924,
      "oston": 5925,
      "never": 5926,
      "Ġapps": 5927,
      "Ġkeeps": 5928,
      "Ġdangerous": 5929,
      "ĠVirginia": 5930,
      "07": 5931,
      "Ġsad": 5932,
      "ĠCup": 5933,
      "ĠPac": 5934,
      "respond": 5935,
      "pass": 5936,
      "Ġerror": 5937,
      "ĠCat": 5938,
      "ĠSecurity": 5939,
      "EE": 5940,
      "Ġrough": 5941,
      "ifications": 5942,
      "ĠSenate": 5943,
      "Ġbond": 5944,
      "Ġlights": 5945,
      "Ġpublish": 5946,
      "Ġfurniture": 5947,
      "En": 5948,
      "Ġlux": 5949,
      "Ġreturns": 5950,
      "ĠAud": 5951,
      "ĠWild": 5952,
      "Ġring": 5953,
      "Ġjustice": 5954,
      "anged": 5955,
      "Ġtaxes": 5956,
      "Ġmagn": 5957,
      "related": 5958,
      "rastructure": 5959,
      "Ġrom": 5960,
      "nov": 5961,
      "igration": 5962,
      "Most": 5963,
      "Ġfaster": 5964,
      "Ġnone": 5965,
      "ĠMS": 5966,
      "Ġinstalled": 5967,
      "''": 5968,
      "ĠAri": 5969,
      "ĠHead": 5970,
      "sm": 5971,
      "Ġ36": 5972,
      "Ġremaining": 5973,
      "Ġpaying": 5974,
      "Ġentirely": 5975,
      "Ġfantastic": 5976,
      "Ġusual": 5977,
      "Ġoutput": 5978,
      "Ġfoods": 5979,
      "Ġcycle": 5980,
      "Ġfellow": 5981,
      "Ġlayer": 5982,
      "Ġvehicles": 5983,
      "Ġmatters": 5984,
      "ih": 5985,
      "reprene": 5986,
      "Ġteen": 5987,
      "Ġissued": 5988,
      "02": 5989,
      "Ġsample": 5990,
      "Ġidentified": 5991,
      "!)": 5992,
      "CA": 5993,
      "See": 5994,
      "pot": 5995,
      "ĠEnergy": 5996,
      "oster": 5997,
      "Ġmeat": 5998,
      "Ġsky": 5999,
      "ĠGlobal": 6000,
      "clusion": 6001,
      "CE": 6002,
      "ĠAS": 6003,
      "Ġunf": 6004,
      "real": 6005,
      "ĠWhere": 6006,
      "Ġspeaking": 6007,
      "Ġfulf": 6008,
      "ĠVict": 6009,
      "Ġofficers": 6010,
      "ĠMinister": 6011,
      "Ġwarrant": 6012,
      "ĠMaster": 6013,
      "ĠMuseum": 6014,
      "ulous": 6015,
      "elines": 6016,
      "Ġeffectively": 6017,
      "Ġprepare": 6018,
      "Am": 6019,
      "hent": 6020,
      "Ġrecorded": 6021,
      "ĠPenn": 6022,
      "ĠLind": 6023,
      "ĠVer": 6024,
      "hus": 6025,
      "Ġcolour": 6026,
      "Ġdatabase": 6027,
      "ĠMur": 6028,
      "Te": 6029,
      "Ġrestrict": 6030,
      "ĠPolice": 6031,
      "xi": 6032,
      "anger": 6033,
      "Ġremote": 6034,
      "Ġfollows": 6035,
      "Ġimagine": 6036,
      "arrow": 6037,
      "Ġcreation": 6038,
      "ĠSecond": 6039,
      "Ġupdates": 6040,
      "arp": 6041,
      "Ġoblig": 6042,
      "estyle": 6043,
      "Ġshoes": 6044,
      "Ġrot": 6045,
      "Ġexamples": 6046,
      "Ġflo": 6047,
      "Ġplanned": 6048,
      "Ġwinner": 6049,
      "Ġtradition": 6050,
      "??": 6051,
      "Res": 6052,
      "ĠLand": 6053,
      "Ġabuse": 6054,
      "Ġtheory": 6055,
      "lymp": 6056,
      "Ġstim": 6057,
      "Ġchoices": 6058,
      "Ħ¢": 6059,
      "Ġmal": 6060,
      "ĠWal": 6061,
      "ĠDan": 6062,
      "Ġleague": 6063,
      "Ġrelatively": 6064,
      "Ġformed": 6065,
      "Ġholds": 6066,
      "Ġsubstant": 6067,
      "mosp": 6068,
      "Ġpresentation": 6069,
      "Ġhonor": 6070,
      "Ġautomatically": 6071,
      ")||": 6072,
      "Ġped": 6073,
      "ĠAR": 6074,
      "ĠMax": 6075,
      "ighter": 6076,
      "Ġdram": 6077,
      "ĠJohnson": 6078,
      "appy": 6079,
      "lock": 6080,
      "Ġtaught": 6081,
      "Ġinvestors": 6082,
      "Ġequal": 6083,
      "Ġsignificantly": 6084,
      "ĠRepublican": 6085,
      "can": 6086,
      "Ġlicense": 6087,
      "Ġtom": 6088,
      "Ġemployment": 6089,
      "Ġinstallation": 6090,
      "Ġshooting": 6091,
      "iams": 6092,
      "Ġarms": 6093,
      "Ġworldwide": 6094,
      "iors": 6095,
      "Ġnav": 6096,
      "Ġprotected": 6097,
      "98": 6098,
      "Ġaf": 6099,
      "reets": 6100,
      "esh": 6101,
      "rog": 6102,
      "Ġsurgery": 6103,
      "Su": 6104,
      "Ġboat": 6105,
      "Ġboys": 6106,
      "host": 6107,
      "Ġengineering": 6108,
      "Ġlaugh": 6109,
      "Ġtrading": 6110,
      "Ġupdated": 6111,
      "Ġpractical": 6112,
      "ĠWeek": 6113,
      "Ġfeedback": 6114,
      "Ġtast": 6115,
      "Ġforth": 6116,
      "AG": 6117,
      "First": 6118,
      "Ġcooper": 6119,
      "Ġreform": 6120,
      "ĠBoy": 6121,
      "ĠON": 6122,
      "eah": 6123,
      "Ġwid": 6124,
      "owing": 6125,
      "Ġcontro": 6126,
      "Ġgrade": 6127,
      "Ġpolitics": 6128,
      "Ġsurprise": 6129,
      "itutional": 6130,
      "Ġworksh": 6131,
      "Ġherself": 6132,
      "Ġcriminal": 6133,
      "Ġconserv": 6134,
      "Ġindustrial": 6135,
      "Ġmilk": 6136,
      "ĠAustralian": 6137,
      "ĠSto": 6138,
      "ollywood": 6139,
      "ĠFarm": 6140,
      "Ġmeal": 6141,
      "Ġfacts": 6142,
      "Ġcritic": 6143,
      "Ġsettings": 6144,
      "Ġcircumstances": 6145,
      "EW": 6146,
      "ola": 6147,
      "ĠEgypt": 6148,
      "Ġmoments": 6149,
      "Ġattacks": 6150,
      "Ġmassive": 6151,
      "west": 6152,
      "Ġsan": 6153,
      "Ġguard": 6154,
      "ournament": 6155,
      "Or": 6156,
      "writ": 6157,
      "ĠMiddle": 6158,
      "ache": 6159,
      "Ġmode": 6160,
      "Ġappeal": 6161,
      "Ġchosen": 6162,
      "asts": 6163,
      "Ġcommission": 6164,
      "Ġcharged": 6165,
      "Ġrevealed": 6166,
      "ĠBas": 6167,
      "Ġnoticed": 6168,
      "Ġworst": 6169,
      "Ġunlike": 6170,
      "ĠSteve": 6171,
      "Ġmagazine": 6172,
      "Ġcro": 6173,
      "ĠAndroid": 6174,
      "Ġreput": 6175,
      "Ġcompetitive": 6176,
      "Ġroute": 6177,
      "09": 6178,
      "Ġincreases": 6179,
      "ĠScot": 6180,
      "ĠLibrary": 6181,
      "Ġfixed": 6182,
      "GB": 6183,
      "IF": 6184,
      "fol": 6185,
      "ĠLog": 6186,
      "Ġmotion": 6187,
      "!!!": 6188,
      "Ġemotional": 6189,
      "Ġextended": 6190,
      "Ġobvious": 6191,
      "Oh": 6192,
      "raig": 6193,
      "Ġrecovery": 6194,
      "Ġscript": 6195,
      "Ġindeed": 6196,
      "Ġyards": 6197,
      "ĠMo": 6198,
      "race": 6199,
      "Ġsimpl": 6200,
      "Ġfolks": 6201,
      "Ġtherapy": 6202,
      "eries": 6203,
      "Ġelig": 6204,
      "ansas": 6205,
      "Ġ48": 6206,
      "Ġmusical": 6207,
      "Ġhappening": 6208,
      "enced": 6209,
      "Then": 6210,
      "Ġenable": 6211,
      "Ġregional": 6212,
      "Ġreceiving": 6213,
      "ĠiPhone": 6214,
      "Ġpositions": 6215,
      "Ġcutting": 6216,
      "ĠInstead": 6217,
      "ĠRichard": 6218,
      "Ġmel": 6219,
      "Ġguest": 6220,
      "Ġbreath": 6221,
      "cknow": 6222,
      "Ġcontrast": 6223,
      "âĦ¢": 6224,
      "rics": 6225,
      "Ġattorney": 6226,
      "Ġadvoc": 6227,
      "Ġparticipants": 6228,
      "ĠBrand": 6229,
      "Ġdelight": 6230,
      "ĠLo": 6231,
      "ĠMaybe": 6232,
      "alian": 6233,
      "Ġbrands": 6234,
      "Ġgrab": 6235,
      "ĠColorado": 6236,
      "About": 6237,
      "Ġsac": 6238,
      "Ġsick": 6239,
      "Ġ300": 6240,
      "Ġdistribution": 6241,
      "rum": 6242,
      "Ġexcess": 6243,
      "Ġconstantly": 6244,
      "Ġchat": 6245,
      "Ġrand": 6246,
      "Ġcentre": 6247,
      "Ġkinds": 6248,
      "Ġbread": 6249,
      "ĠBush": 6250,
      "Ġancient": 6251,
      "Ġsyn": 6252,
      "Ġconstruct": 6253,
      "ĠMichigan": 6254,
      "Ġinnovative": 6255,
      "ĠNOT": 6256,
      "ĠEconom": 6257,
      "Ġsmell": 6258,
      "ĠDev": 6259,
      "Ġassemb": 6260,
      "Ġgoods": 6261,
      "Ġlovely": 6262,
      "Ġincredible": 6263,
      "Ð¾": 6264,
      "comm": 6265,
      "Ġbelieved": 6266,
      "ĠSupport": 6267,
      "Ġguarantee": 6268,
      "Fr": 6269,
      "Ġpu": 6270,
      "Ġven": 6271,
      "cribe": 6272,
      "Ġpurchased": 6273,
      "Ġmissed": 6274,
      "secut": 6275,
      "Ġtack": 6276,
      "ĠiP": 6277,
      "Ġrecognized": 6278,
      "inch": 6279,
      "hered": 6280,
      "ĠTour": 6281,
      "Ġowned": 6282,
      "Ġassessment": 6283,
      "Other": 6284,
      "Spe": 6285,
      "Ġhurt": 6286,
      "gend": 6287,
      "abled": 6288,
      "odd": 6289,
      "ĠAnother": 6290,
      "Ġinnovation": 6291,
      "Ġdisappoint": 6292,
      "ef": 6293,
      "lo": 6294,
      "Ġshift": 6295,
      "Ġentertainment": 6296,
      "Qu": 6297,
      "Ġcake": 6298,
      "alog": 6299,
      "ĠKnow": 6300,
      "âĢĻ.": 6301,
      "Ġalcohol": 6302,
      "ensity": 6303,
      "ĠAsia": 6304,
      "ĠArts": 6305,
      "Ġtalent": 6306,
      "inem": 6307,
      "ĠFollow": 6308,
      "ĠGirl": 6309,
      "Ġturning": 6310,
      "Ġearned": 6311,
      "from": 6312,
      "Click": 6313,
      "Ġprocedures": 6314,
      "Ĥ¬": 6315,
      "ĠColumb": 6316,
      "Ġanswers": 6317,
      "Ġexpression": 6318,
      "ĠDigital": 6319,
      "Ġscored": 6320,
      "Ġdistinct": 6321,
      "Ġdomestic": 6322,
      "Ġtickets": 6323,
      "Sc": 6324,
      "Ġgrew": 6325,
      "ĠCam": 6326,
      "ĠBow": 6327,
      "weight": 6328,
      "Ġillustr": 6329,
      "Ġrevolution": 6330,
      "Ġneighborhood": 6331,
      "Ġknowing": 6332,
      "Ġregularly": 6333,
      "Ġfighting": 6334,
      "Ġresearchers": 6335,
      "tr": 6336,
      "ĠCert": 6337,
      "ĠMen": 6338,
      "arts": 6339,
      "ĠLim": 6340,
      "ĠLib": 6341,
      "ĠâĢ¢": 6342,
      "Ġmedicine": 6343,
      "Ġcomprehensive": 6344,
      "cers": 6345,
      "ml": 6346,
      "Ġrenew": 6347,
      "Ġupper": 6348,
      "eless": 6349,
      "ĠThose": 6350,
      "04": 6351,
      "atre": 6352,
      "ĠPage": 6353,
      "Ġfirstname": 6354,
      "Ġdefined": 6355,
      "Ġreasonable": 6356,
      "Ke": 6357,
      "Ġbattery": 6358,
      "ĠAccess": 6359,
      "Ġmeetings": 6360,
      "Ġid": 6361,
      "ĠDef": 6362,
      "Ġwalls": 6363,
      "Ġclothes": 6364,
      "ĠMountain": 6365,
      "Ġconver": 6366,
      "Ġupcoming": 6367,
      "ato": 6368,
      "Ġedition": 6369,
      "ĠPlus": 6370,
      "ĠSign": 6371,
      "ĠBoston": 6372,
      "rome": 6373,
      "Ind": 6374,
      "gage": 6375,
      "Ġcrazy": 6376,
      "Ġscheduled": 6377,
      "han": 6378,
      "uated": 6379,
      "quality": 6380,
      "Ġcooking": 6381,
      "Ġrandom": 6382,
      "FC": 6383,
      "hi": 6384,
      "apes": 6385,
      "Ġvaluable": 6386,
      "Ġhardware": 6387,
      "Ġauthorities": 6388,
      "Ġefficiency": 6389,
      "56": 6390,
      "Ġtrend": 6391,
      "paper": 6392,
      "ĠManager": 6393,
      "Ġelectronic": 6394,
      "ansion": 6395,
      "Ġfeatured": 6396,
      "Ġidentity": 6397,
      "aks": 6398,
      "Ġdrivers": 6399,
      "ĠJapanese": 6400,
      "Up": 6401,
      "ĠGeorg": 6402,
      "iner": 6403,
      "osite": 6404,
      "Ġchannel": 6405,
      "agon": 6406,
      "Ġentered": 6407,
      "Ġvacc": 6408,
      "Ġawareness": 6409,
      "vy": 6410,
      "icial": 6411,
      "ĠTown": 6412,
      "print": 6413,
      "Ġperfectly": 6414,
      "Ġbear": 6415,
      "Ġsupports": 6416,
      "Ġhyd": 6417,
      "ĠKeep": 6418,
      "Ġsilver": 6419,
      "Ġexpertise": 6420,
      "97": 6421,
      "Since": 6422,
      "inations": 6423,
      "ĠSqu": 6424,
      "ĠOil": 6425,
      "Ġdebate": 6426,
      "ĠAuthor": 6427,
      "Ġhouses": 6428,
      "Ġfrequently": 6429,
      "nel": 6430,
      "rete": 6431,
      "ĠTem": 6432,
      "Ġincident": 6433,
      "Ġinfo": 6434,
      "Ġgrown": 6435,
      "ĠSar": 6436,
      "ĠOlymp": 6437,
      "Ġcandidate": 6438,
      "Ġcable": 6439,
      "ora": 6440,
      "Ġatmosp": 6441,
      "Ġsuitable": 6442,
      "ML": 6443,
      "bi": 6444,
      "Ġacknow": 6445,
      "Ġdim": 6446,
      "rible": 6447,
      "ĠMuslim": 6448,
      "ĠWhether": 6449,
      "AY": 6450,
      "cluded": 6451,
      "Ġhook": 6452,
      "ĠIndust": 6453,
      "Ġpulled": 6454,
      "06": 6455,
      "Of": 6456,
      "oral": 6457,
      "Ġreliable": 6458,
      "Ġsurf": 6459,
      "Ġauthors": 6460,
      "Ġchocolate": 6461,
      "Ġtea": 6462,
      "ĠCentre": 6463,
      "ĠJon": 6464,
      "Ġcoordin": 6465,
      "ĠControl": 6466,
      "Ġserves": 6467,
      "Ġinvolve": 6468,
      "Ġbirthday": 6469,
      "Ġrestaurants": 6470,
      "Ã¡": 6471,
      "astern": 6472,
      "otes": 6473,
      "Ġdoors": 6474,
      "Ġwheel": 6475,
      "Ġmuscle": 6476,
      "Ġsuggested": 6477,
      "ua": 6478,
      "Ġiron": 6479,
      "Ġspoke": 6480,
      "erts": 6481,
      "Ġtypical": 6482,
      "Mar": 6483,
      "inet": 6484,
      "ĠMP": 6485,
      "Ġvast": 6486,
      "Ġrail": 6487,
      "Ġregulations": 6488,
      "illy": 6489,
      "cling": 6490,
      "Ġcarbon": 6491,
      "Ġcorrespond": 6492,
      "ĠWilliams": 6493,
      "Im": 6494,
      "ĠAff": 6495,
      "ĠPass": 6496,
      "Ġmonthly": 6497,
      "03": 6498,
      "Ġimpossible": 6499,
      "stream": 6500,
      "ĠSaf": 6501,
      "anges": 6502,
      "Ġinfrastructure": 6503,
      "Ġdelay": 6504,
      "long": 6505,
      "ÃŃ": 6506,
      "omy": 6507,
      "essed": 6508,
      "Another": 6509,
      "ĠJackson": 6510,
      "Ġcovers": 6511,
      "endar": 6512,
      "Ġbasket": 6513,
      "Ġhorse": 6514,
      "Ġmillions": 6515,
      "zil": 6516,
      "Ġdeals": 6517,
      "away": 6518,
      "ĠRussian": 6519,
      "ĠSP": 6520,
      "Ġsuc": 6521,
      "Go": 6522,
      "AB": 6523,
      "Pe": 6524,
      "tle": 6525,
      "Ġdump": 6526,
      "Ġtopics": 6527,
      "Ġplanet": 6528,
      "iate": 6529,
      "Ġlosing": 6530,
      "ĠCreat": 6531,
      "Ġcontra": 6532,
      "Ġstone": 6533,
      "Ġhealthcare": 6534,
      "Ġportion": 6535,
      "ĠOhio": 6536,
      "Many": 6537,
      "alle": 6538,
      "Ġnurs": 6539,
      "Ġyellow": 6540,
      "ĠOR": 6541,
      "Ġcarefully": 6542,
      "ĠCoast": 6543,
      "Ġcandidates": 6544,
      "Over": 6545,
      "Ġast": 6546,
      "inally": 6547,
      "Ġpil": 6548,
      "icity": 6549,
      "lete": 6550,
      "claim": 6551,
      "Ġinstructions": 6552,
      "aid": 6553,
      "ca": 6554,
      "Ġben": 6555,
      "uting": 6556,
      "Ġdropped": 6557,
      "41": 6558,
      "lines": 6559,
      "ĠEr": 6560,
      "ĠPhot": 6561,
      "ĠSpirit": 6562,
      "Ġsustainable": 6563,
      "Ġprove": 6564,
      "Ġoutdoor": 6565,
      "ĠChief": 6566,
      "Ġassign": 6567,
      "Ġmessages": 6568,
      "Ġnegot": 6569,
      "Ġretire": 6570,
      "Ġdish": 6571,
      "Ġproviders": 6572,
      "Ġdiscussed": 6573,
      "Ġfairly": 6574,
      "ĠLt": 6575,
      "earing": 6576,
      "Ġcontest": 6577,
      "Ġresolution": 6578,
      "orders": 6579,
      "ĠAcademy": 6580,
      "TER": 6581,
      "ĠFull": 6582,
      "Ġrow": 6583,
      "Ġgraduate": 6584,
      "96": 6585,
      "Ġcheese": 6586,
      "Ġstands": 6587,
      "Ġrisks": 6588,
      "Ġrecognize": 6589,
      "CS": 6590,
      "ĠCas": 6591,
      "merce": 6592,
      "Ġclosely": 6593,
      "Ġbreakfast": 6594,
      "ĠInte": 6595,
      "Ġsurrounding": 6596,
      "Ġaccurate": 6597,
      "CR": 6598,
      "ĠLive": 6599,
      "agues": 6600,
      "Ġpartnership": 6601,
      "awn": 6602,
      "cons": 6603,
      "ito": 6604,
      "Ġrein": 6605,
      "ĠLink": 6606,
      "Ġarts": 6607,
      "Ġmountain": 6608,
      "Ġappreciate": 6609,
      "law": 6610,
      "Ġpump": 6611,
      "berry": 6612,
      "eration": 6613,
      "Ġdates": 6614,
      "Ġbeer": 6615,
      "ĠPot": 6616,
      "ĠThrough": 6617,
      "Ġ75": 6618,
      "Ġcampus": 6619,
      "Also": 6620,
      "oosing": 6621,
      "pay": 6622,
      "xy": 6623,
      "uling": 6624,
      "Ġdiss": 6625,
      "Ġconfirmed": 6626,
      "forcement": 6627,
      "ĠHotel": 6628,
      "Ġsucceed": 6629,
      "Ġloves": 6630,
      "amber": 6631,
      "ĠFair": 6632,
      "irms": 6633,
      "ATION": 6634,
      "ĠContact": 6635,
      "Ġvillage": 6636,
      "Man": 6637,
      "ĠEnd": 6638,
      "ĠContin": 6639,
      "Ġoriginally": 6640,
      "Ġtail": 6641,
      "Ġnative": 6642,
      "Ġteeth": 6643,
      "Ġvisiting": 6644,
      "Ġcollected": 6645,
      "Ġchallenging": 6646,
      "Ġplate": 6647,
      "ĠLee": 6648,
      "rid": 6649,
      "yard": 6650,
      "class": 6651,
      "Ġexternal": 6652,
      "oga": 6653,
      "Ġinterior": 6654,
      "Ġseriously": 6655,
      "Ġorganized": 6656,
      "Ġprompt": 6657,
      "Ġfigures": 6658,
      "Ġtank": 6659,
      "ĠCir": 6660,
      "Ġcompens": 6661,
      "nam": 6662,
      "Ġathlet": 6663,
      "gent": 6664,
      "pat": 6665,
      "ĠCode": 6666,
      "Ġjack": 6667,
      "Ġacid": 6668,
      "ĠSet": 6669,
      "ĠWatch": 6670,
      "Ġfacing": 6671,
      "Ġdegrees": 6672,
      "Ġille": 6673,
      "Ġwarn": 6674,
      "Ġkne": 6675,
      "ĠUt": 6676,
      "Ġcapable": 6677,
      "ican": 6678,
      "........": 6679,
      "76": 6680,
      "MA": 6681,
      "oman": 6682,
      "Ġ38": 6683,
      "Ġevil": 6684,
      "Ġstudio": 6685,
      "Ġobjects": 6686,
      "Ġflowers": 6687,
      "âĢĻ,": 6688,
      "REE": 6689,
      "Ġconducted": 6690,
      "Ġliked": 6691,
      "Ġdepth": 6692,
      "Ġsessions": 6693,
      "Ġscr": 6694,
      "Ġrealized": 6695,
      "ĠOpt": 6696,
      "Ġprofit": 6697,
      "Ġregistration": 6698,
      "va": 6699,
      "ĠÐ": 6700,
      "oval": 6701,
      "Ġpassing": 6702,
      "Ġwalked": 6703,
      "Ġunable": 6704,
      "iverse": 6705,
      "ĠSecretary": 6706,
      "Ġhumans": 6707,
      "ĠArab": 6708,
      "ĠCost": 6709,
      "eline": 6710,
      "Ġtrig": 6711,
      "Ġroutine": 6712,
      "TC": 6713,
      "ingu": 6714,
      "emic": 6715,
      "plete": 6716,
      "Ġpursu": 6717,
      "Ġsurprised": 6718,
      "Ġpremium": 6719,
      "Ġsymbol": 6720,
      "ĠNight": 6721,
      "Ġcock": 6722,
      "Ġnetworks": 6723,
      "Once": 6724,
      "Ġtut": 6725,
      "alse": 6726,
      "Ġstruggle": 6727,
      "rich": 6728,
      "Ġtag": 6729,
      "ether": 6730,
      "ĠColl": 6731,
      "athy": 6732,
      "ĠBefore": 6733,
      "aniel": 6734,
      "Ġvul": 6735,
      "Ġenthus": 6736,
      "Ġdiverse": 6737,
      "ĠCharles": 6738,
      "Ġaffordable": 6739,
      "Ġdescription": 6740,
      "Ġphase": 6741,
      "Ġdifferences": 6742,
      "Ġreporting": 6743,
      "Ġlicens": 6744,
      "Ġstretch": 6745,
      "person": 6746,
      "ras": 6747,
      "Ġhate": 6748,
      "ĠHand": 6749,
      "ghan": 6750,
      "Ġbelieves": 6751,
      "Ġtonight": 6752,
      "ctive": 6753,
      "Ġchicken": 6754,
      "Ġguitar": 6755,
      "Ġprivacy": 6756,
      "Ġsuccessfully": 6757,
      "profit": 6758,
      "Ġtomorrow": 6759,
      "LY": 6760,
      "date": 6761,
      "asters": 6762,
      "Ġadm": 6763,
      "Ġshel": 6764,
      "Ġyounger": 6765,
      "ĠSpring": 6766,
      "arry": 6767,
      "Ġlie": 6768,
      "Ġisland": 6769,
      "Ġcommittee": 6770,
      "Ġpainting": 6771,
      "Ġcopyright": 6772,
      "Ġsituations": 6773,
      "stone": 6774,
      "ellect": 6775,
      "Ġempt": 6776,
      "Ġbes": 6777,
      "ailability": 6778,
      "Ġsmile": 6779,
      "Ġdecade": 6780,
      "Ġtalked": 6781,
      "mond": 6782,
      "ugh": 6783,
      "ĠOS": 6784,
      "uality": 6785,
      "bal": 6786,
      "Ġnuclear": 6787,
      "Ġtwe": 6788,
      "Ġvend": 6789,
      "Ġcrack": 6790,
      "ĠMid": 6791,
      "Ġvit": 6792,
      "Ġaffili": 6793,
      "ĠDivision": 6794,
      "she": 6795,
      "jection": 6796,
      "Ġcommunications": 6797,
      "Ġdomain": 6798,
      "Are": 6799,
      "ĠSup": 6800,
      "uster": 6801,
      "Ġletters": 6802,
      "Ġinches": 6803,
      "Ġlapt": 6804,
      "ĠKey": 6805,
      "Ġlegislation": 6806,
      "ĠKn": 6807,
      "Ġnormally": 6808,
      "Ġcounsel": 6809,
      "abetes": 6810,
      "Ġicon": 6811,
      "Ġhang": 6812,
      "ĠDie": 6813,
      "ĠFestival": 6814,
      "ĠYoung": 6815,
      "Ġtransition": 6816,
      "Ġdelicious": 6817,
      "TA": 6818,
      "swe": 6819,
      "ĠTit": 6820,
      "urning": 6821,
      "Ġfunny": 6822,
      "aturally": 6823,
      "Ġexclusive": 6824,
      "78": 6825,
      "ĠBible": 6826,
      "inder": 6827,
      "Although": 6828,
      "Ġbat": 6829,
      "uls": 6830,
      "Ġstreets": 6831,
      "Ġvital": 6832,
      "Ġmixed": 6833,
      "ĠSon": 6834,
      "ĠCH": 6835,
      "ĠRights": 6836,
      "Ġ2021": 6837,
      "Ġassets": 6838,
      "Ġmanufacturing": 6839,
      "Ġhat": 6840,
      "ĠLittle": 6841,
      "resents": 6842,
      "quir": 6843,
      "Ġconsistent": 6844,
      "Ġpatterns": 6845,
      "ĠChildren": 6846,
      "greg": 6847,
      "Ġ]": 6848,
      "icing": 6849,
      "Ġshots": 6850,
      "Ġsuggests": 6851,
      "ĠRussia": 6852,
      ".||": 6853,
      "Â°": 6854,
      "Ġtiny": 6855,
      "Ġaspect": 6856,
      "Ġrose": 6857,
      "obby": 6858,
      "Ġslowly": 6859,
      "Ġliquid": 6860,
      "Dr": 6861,
      "hem": 6862,
      "Ġengage": 6863,
      "OVID": 6864,
      "ĠFrancisco": 6865,
      "TR": 6866,
      "Ġsin": 6867,
      "Ġextent": 6868,
      "Ġpossibility": 6869,
      "Ġinjuries": 6870,
      "Ġprotest": 6871,
      "Per": 6872,
      "Ġongoing": 6873,
      "Ġbroadcast": 6874,
      "Ġbare": 6875,
      "ĠCA": 6876,
      "ĠItaly": 6877,
      "Ġsubmit": 6878,
      "ĠNext": 6879,
      "Ġhits": 6880,
      "ĠDC": 6881,
      "nell": 6882,
      "ression": 6883,
      "Ġbonus": 6884,
      "Ġacts": 6885,
      "Ġsight": 6886,
      "ĠDVD": 6887,
      "Ġhasn": 6888,
      "Ġprepar": 6889,
      "rect": 6890,
      "ĠArmy": 6891,
      "Ġtested": 6892,
      "Ġflood": 6893,
      "Ġmachines": 6894,
      "ĠCook": 6895,
      "achel": 6896,
      "Ġentreprene": 6897,
      "Ġtalks": 6898,
      "anish": 6899,
      "ĠEll": 6900,
      "Ġinterpret": 6901,
      "Ġmurder": 6902,
      "Ġphilosoph": 6903,
      "owntown": 6904,
      "66": 6905,
      "ĠSports": 6906,
      "elcome": 6907,
      "Ġsomewhere": 6908,
      "ampion": 6909,
      "Ġfeelings": 6910,
      "Ġtechnique": 6911,
      "gas": 6912,
      "yers": 6913,
      "Ġsoci": 6914,
      "ĠJustice": 6915,
      "Where": 6916,
      "ta": 6917,
      "Ġnob": 6918,
      "ĠGames": 6919,
      "Ġspr": 6920,
      "Ġinvent": 6921,
      "Ġhoping": 6922,
      "Ġalleged": 6923,
      "Ġbanks": 6924,
      "Ġreward": 6925,
      "Ġheight": 6926,
      "ificate": 6927,
      "ĠSoft": 6928,
      "Ġadvis": 6929,
      "Sp": 6930,
      "Tr": 6931,
      "Ġpapers": 6932,
      "Ġbasically": 6933,
      "Ġprinciples": 6934,
      "uction": 6935,
      "eting": 6936,
      "ĠLu": 6937,
      "Ġnecessarily": 6938,
      "ults": 6939,
      "Ġages": 6940,
      "ĠEnvironment": 6941,
      "Ġsubsequ": 6942,
      "Ġlistening": 6943,
      "Ġargument": 6944,
      "Ġresistance": 6945,
      "itage": 6946,
      "ĠGall": 6947,
      "Ġsusp": 6948,
      "ĠCatholic": 6949,
      "Ed": 6950,
      "zer": 6951,
      "Ġbodies": 6952,
      "Ġremained": 6953,
      "elly": 6954,
      "Ġfeaturing": 6955,
      "Ġcircuit": 6956,
      "stood": 6957,
      "lder": 6958,
      "isters": 6959,
      "ĠTherefore": 6960,
      "ERS": 6961,
      "Ġlegs": 6962,
      "Ġurban": 6963,
      "rage": 6964,
      "ubs": 6965,
      "Ġtrained": 6966,
      "Ġapproval": 6967,
      "ĠDoes": 6968,
      "Col": 6969,
      "Ġhall": 6970,
      "umes": 6971,
      "Ġagricult": 6972,
      "Posted": 6973,
      "pes": 6974,
      "Ġelev": 6975,
      "ĠWalk": 6976,
      "Ġpayments": 6977,
      "Ġexpressed": 6978,
      "ĠVictor": 6979,
      "Ġrepresents": 6980,
      "Ġdescribe": 6981,
      "ĠPacific": 6982,
      "born": 6983,
      "Ġfuck": 6984,
      "ashed": 6985,
      "ĠSite": 6986,
      "Ġplug": 6987,
      "Ġphotograp": 6988,
      "Ġanticip": 6989,
      "bles": 6990,
      "Ġsoph": 6991,
      "Ġnarrow": 6992,
      "ĠHon": 6993,
      "Ġinterface": 6994,
      "Ġwatched": 6995,
      "unior": 6996,
      "Ġ55": 6997,
      "Ġlifestyle": 6998,
      "Ġbowl": 6999,
      "equ": 7000,
      "ĠSearch": 7001,
      "ĠField": 7002,
      "ĠRoom": 7003,
      "Ġblind": 7004,
      "Ġobtained": 7005,
      "Ġorganic": 7006,
      "Ġabsor": 7007,
      "Ġimmediate": 7008,
      "lements": 7009,
      "ĠRest": 7010,
      "Ġstatements": 7011,
      "Ġbrowser": 7012,
      "Ġcontemporary": 7013,
      "Ġgolf": 7014,
      "ĠCa": 7015,
      "ĠStat": 7016,
      "Ġoperate": 7017,
      "oned": 7018,
      "Ġthorough": 7019,
      "raid": 7020,
      "Ġrelief": 7021,
      "Ġdrag": 7022,
      "Ġwest": 7023,
      "Ġborder": 7024,
      "otal": 7025,
      "ĠCast": 7026,
      "racy": 7027,
      "ĠBall": 7028,
      "ĠHollywood": 7029,
      "ĠGal": 7030,
      "Ġphr": 7031,
      "Ġamend": 7032,
      "comes": 7033,
      "Ġconfident": 7034,
      "Ġimprovement": 7035,
      "Ġimpressive": 7036,
      "Ġlikes": 7037,
      "Ġvirtual": 7038,
      "zing": 7039,
      "Ġmic": 7040,
      "ĠPack": 7041,
      "Ġsauce": 7042,
      "Ġfinds": 7043,
      "Ġmoves": 7044,
      "UL": 7045,
      "Ġrecording": 7046,
      "85": 7047,
      "Ġthin": 7048,
      "umps": 7049,
      "ĠEp": 7050,
      "Ġinspiration": 7051,
      "RS": 7052,
      "isms": 7053,
      "inton": 7054,
      "Ġpercentage": 7055,
      "zona": 7056,
      "isk": 7057,
      "lyn": 7058,
      "ĠRam": 7059,
      "ĠItalian": 7060,
      "Ġadventure": 7061,
      "Ġdirected": 7062,
      "Ġestimated": 7063,
      "Ġvictims": 7064,
      "ĠRight": 7065,
      "ortion": 7066,
      "arks": 7067,
      "Ġpharm": 7068,
      "Ġintent": 7069,
      "ĠExecutive": 7070,
      "Ġexpectations": 7071,
      "Ġdealing": 7072,
      "Ġoccurred": 7073,
      "xiety": 7074,
      "Ġerr": 7075,
      "sters": 7076,
      "elf": 7077,
      "Ġlinked": 7078,
      "Ġproposal": 7079,
      "Ġfro": 7080,
      "ĠTri": 7081,
      "sell": 7082,
      "Ġauthent": 7083,
      "ĠHarry": 7084,
      "foot": 7085,
      "oil": 7086,
      "ĠCre": 7087,
      "Ġneither": 7088,
      "pel": 7089,
      "ĠGuide": 7090,
      "Ġpersons": 7091,
      "Ġvirus": 7092,
      "Ġmini": 7093,
      "Ġintegrated": 7094,
      "Even": 7095,
      "Today": 7096,
      "opp": 7097,
      "ĠIre": 7098,
      "Ġtwenty": 7099,
      "Ġtracks": 7100,
      "Ġticket": 7101,
      "Ġconvenient": 7102,
      "Ġtissue": 7103,
      "eding": 7104,
      "ĠYet": 7105,
      "Ġinformed": 7106,
      "made": 7107,
      "Ġtall": 7108,
      "otton": 7109,
      "Ġadds": 7110,
      "ĠFour": 7111,
      "ĠFOR": 7112,
      "Ġattrib": 7113,
      "Ġnarr": 7114,
      "ĠLabor": 7115,
      "Ġglad": 7116,
      "Ġguidance": 7117,
      "ba": 7118,
      "cue": 7119,
      "sue": 7120,
      "whel": 7121,
      "etime": 7122,
      "ĠEs": 7123,
      "ĠEqu": 7124,
      "Ġlad": 7125,
      "ĠMult": 7126,
      "ffered": 7127,
      "aze": 7128,
      "ĠExpl": 7129,
      "Ġreligion": 7130,
      "Ġreplacement": 7131,
      "Ġmonitoring": 7132,
      "Ġgent": 7133,
      "Ġresulting": 7134,
      "Ġgrass": 7135,
      "Ġexposure": 7136,
      "HA": 7137,
      "Ġrating": 7138,
      "anna": 7139,
      "Ġpromise": 7140,
      "Ġnearby": 7141,
      "Ġpermanent": 7142,
      "Ġtasks": 7143,
      "Ġsizes": 7144,
      "Ġsufficient": 7145,
      "arters": 7146,
      "ava": 7147,
      "Ġflour": 7148,
      "Ġexplains": 7149,
      "Ġdefinition": 7150,
      ".'": 7151,
      "aper": 7152,
      "Ġcorn": 7153,
      "orable": 7154,
      "Ġexecut": 7155,
      "Ġfiled": 7156,
      "Ġheads": 7157,
      "Ġdining": 7158,
      "ĠDid": 7159,
      "ĠDate": 7160,
      "Ġfacilit": 7161,
      "Ġ1990": 7162,
      "Ġsearching": 7163,
      "Ġdrinking": 7164,
      "Ġpitch": 7165,
      "aints": 7166,
      "ogen": 7167,
      "Ġreserved": 7168,
      "ĠHope": 7169,
      "Ġexceed": 7170,
      "izz": 7171,
      "Ġcategories": 7172,
      "Int": 7173,
      "case": 7174,
      "ifies": 7175,
      "Ġknock": 7176,
      "Ġsuffering": 7177,
      "htt": 7178,
      "oup": 7179,
      "ĠSky": 7180,
      "Ġstrange": 7181,
      "ennis": 7182,
      "Ġ1999": 7183,
      "ventional": 7184,
      "ĠArea": 7185,
      "dated": 7186,
      "ĠAndrew": 7187,
      "ĠPlace": 7188,
      "Ġlessons": 7189,
      "ĠGeorgia": 7190,
      "mar": 7191,
      "ĠHarr": 7192,
      "Ġmembership": 7193,
      "ĠCB": 7194,
      "ĠWrit": 7195,
      "ĠHard": 7196,
      "ĠOl": 7197,
      "Ġterrit": 7198,
      "ouch": 7199,
      "ĠBlog": 7200,
      "teen": 7201,
      "ĠInf": 7202,
      "Ġsomewhat": 7203,
      "Ġpersonally": 7204,
      "ospit": 7205,
      "Ġincreasingly": 7206,
      "ĠHelp": 7207,
      "Ġreferred": 7208,
      "PM": 7209,
      "tail": 7210,
      "Ġlucky": 7211,
      "aylor": 7212,
      "ĠFed": 7213,
      "Ġanyway": 7214,
      "Ġfasc": 7215,
      "oty": 7216,
      "ĠRon": 7217,
      "unes": 7218,
      "osa": 7219,
      "Ġaccessible": 7220,
      "Ġfaculty": 7221,
      "ĠPrem": 7222,
      "Ġsurprising": 7223,
      "front": 7224,
      "Ġfinger": 7225,
      "Ġauto": 7226,
      "Ġsensitive": 7227,
      "Ġobserved": 7228,
      "View": 7229,
      "uine": 7230,
      "ĠPoint": 7231,
      "Ġsaved": 7232,
      "Ġeveryday": 7233,
      "Ġultimately": 7234,
      "ĠRay": 7235,
      "Ġcontribute": 7236,
      "Ġobviously": 7237,
      "dy": 7238,
      "Ġheav": 7239,
      "ĠFriend": 7240,
      "Ġconsumption": 7241,
      "SS": 7242,
      "TV": 7243,
      "utch": 7244,
      "ĠCross": 7245,
      "Ġupl": 7246,
      "Ġtrick": 7247,
      "Thanks": 7248,
      "ĠHor": 7249,
      "Ġmarked": 7250,
      "Ġera": 7251,
      "Ġappointment": 7252,
      "Ġpounds": 7253,
      "aning": 7254,
      "Ġdivid": 7255,
      "ĠVan": 7256,
      "Ġ33": 7257,
      "ounded": 7258,
      "Ġacting": 7259,
      "Ġflag": 7260,
      "aska": 7261,
      "Ġpleasure": 7262,
      "ixture": 7263,
      "Ġaside": 7264,
      "Ġimproving": 7265,
      "Ġscientists": 7266,
      "Ġcos": 7267,
      "essel": 7268,
      "ione": 7269,
      "Ġgay": 7270,
      "Ġhell": 7271,
      "ĠFurther": 7272,
      "ĠRose": 7273,
      "Ġwriters": 7274,
      "Ġforever": 7275,
      "Ġsupplies": 7276,
      "Ġconflict": 7277,
      "grad": 7278,
      "Ġbrill": 7279,
      "Ġsolar": 7280,
      "Ġcollaboration": 7281,
      "Ġapparently": 7282,
      "CO": 7283,
      "nda": 7284,
      "Ġversions": 7285,
      "During": 7286,
      "Mr": 7287,
      "bel": 7288,
      "uter": 7289,
      "Ġcompr": 7290,
      "ĠKen": 7291,
      "ographic": 7292,
      "ĠDisc": 7293,
      "Ġwaters": 7294,
      "Ġlandscape": 7295,
      "Ġatmosphere": 7296,
      "ument": 7297,
      "Ðµ": 7298,
      "àª": 7299,
      "Ġmuseum": 7300,
      "Ġchose": 7301,
      "Ġ37": 7302,
      "Ġmanaging": 7303,
      "ĠLtd": 7304,
      "inte": 7305,
      "Ġwet": 7306,
      "ira": 7307,
      "Ġentit": 7308,
      "EST": 7309,
      "ĠPrice": 7310,
      "Ġordered": 7311,
      "Ġafraid": 7312,
      "Ġclimb": 7313,
      "obs": 7314,
      "Ġrequests": 7315,
      "Ġimplementation": 7316,
      "Ġrele": 7317,
      "Ġtransp": 7318,
      "Ġ1998": 7319,
      "American": 7320,
      "Ġdur": 7321,
      "Ġstuck": 7322,
      "ĠFar": 7323,
      "ĠLow": 7324,
      "Ġentr": 7325,
      "Ġbridge": 7326,
      "Ġstrike": 7327,
      "Ġdreams": 7328,
      "Ġpleased": 7329,
      "asant": 7330,
      "Ġrear": 7331,
      "Ġslot": 7332,
      "Ġweekly": 7333,
      "amental": 7334,
      "Ġoutstanding": 7335,
      "Ġbreast": 7336,
      "then": 7337,
      "erate": 7338,
      "Ġpit": 7339,
      "ĠKim": 7340,
      "des": 7341,
      "Ġnoise": 7342,
      "Ġevol": 7343,
      "Ġfaces": 7344,
      "ĠAgain": 7345,
      "Ġscholars": 7346,
      "EP": 7347,
      "Ġevaluation": 7348,
      ")|": 7349,
      "Ġproof": 7350,
      "ĠJr": 7351,
      "Ġmainly": 7352,
      "ĠApplic": 7353,
      "Ġvulner": 7354,
      "pir": 7355,
      "Ġfishing": 7356,
      "Ġalive": 7357,
      "Ġfoundation": 7358,
      "Ġdefault": 7359,
      "Ġcouncil": 7360,
      "cipal": 7361,
      "ĠAssist": 7362,
      "MP": 7363,
      "Ġmand": 7364,
      "Ġsending": 7365,
      "Ġdesired": 7366,
      "Ġlargely": 7367,
      "uous": 7368,
      "stra": 7369,
      "iments": 7370,
      "ĠEU": 7371,
      "issions": 7372,
      "Ġattached": 7373,
      "Ġskill": 7374,
      "ĠZeal": 7375,
      "Ġconstant": 7376,
      "Ġcomponent": 7377,
      "Ġreputation": 7378,
      "roke": 7379,
      "ĠHa": 7380,
      "ĠHim": 7381,
      "acc": 7382,
      "Ġcelebrate": 7383,
      "including": 7384,
      "Ġwins": 7385,
      "anwhile": 7386,
      "level": 7387,
      "olit": 7388,
      "Ġperforming": 7389,
      "urb": 7390,
      "Ġflash": 7391,
      "Ġsignal": 7392,
      "ĠSpanish": 7393,
      "Ġmagic": 7394,
      "worth": 7395,
      "Ġpace": 7396,
      "ĠSanta": 7397,
      "Ġ65": 7398,
      "lessly": 7399,
      "Ġthousand": 7400,
      "Ġthread": 7401,
      "ĠRyan": 7402,
      "Ġconscious": 7403,
      "ikes": 7404,
      "ĠTrust": 7405,
      "ĠBrazil": 7406,
      "owers": 7407,
      "Ġunus": 7408,
      "Ġweren": 7409,
      "Ġcrucial": 7410,
      "Ġprecise": 7411,
      "Check": 7412,
      "celer": 7413,
      "ĠHospital": 7414,
      "ĠChair": 7415,
      "iana": 7416,
      "2013": 7417,
      "ĠUsing": 7418,
      "Ġrental": 7419,
      "Ġapartment": 7420,
      "gs": 7421,
      "this": 7422,
      "800": 7423,
      "rition": 7424,
      "Ġbomb": 7425,
      "redit": 7426,
      "ĠThus": 7427,
      "Ġinstruct": 7428,
      "enger": 7429,
      "star": 7430,
      "Ġspin": 7431,
      "Ġprofessor": 7432,
      "Ġlimits": 7433,
      "ĠDisney": 7434,
      "ĠNote": 7435,
      "Ġliterature": 7436,
      "Ġintelligence": 7437,
      "ystem": 7438,
      "Ġdust": 7439,
      "ĠBox": 7440,
      "Ġcolumn": 7441,
      "ĠBal": 7442,
      "Ġpermission": 7443,
      "Who": 7444,
      "ĠTech": 7445,
      "Ġpotentially": 7446,
      "onym": 7447,
      "ĠSouthern": 7448,
      "ĠSometimes": 7449,
      "ĠBell": 7450,
      "Ġdiam": 7451,
      "anned": 7452,
      "Ġcontrols": 7453,
      "ĠSupreme": 7454,
      "EG": 7455,
      "John": 7456,
      "Ġluck": 7457,
      "Ġgear": 7458,
      "ura": 7459,
      "ership": 7460,
      "Ġrig": 7461,
      "ĠJac": 7462,
      "Ġje": 7463,
      "ureau": 7464,
      "iano": 7465,
      "ĠInstagram": 7466,
      "ĠArizona": 7467,
      "Pr": 7468,
      "Ġpink": 7469,
      "Ġtreatments": 7470,
      "Ġduty": 7471,
      "Free": 7472,
      "oir": 7473,
      "inter": 7474,
      "Ġpod": 7475,
      "Ġhidden": 7476,
      "Ġillness": 7477,
      "ĠRoman": 7478,
      "Ġclothing": 7479,
      "neys": 7480,
      "weet": 7481,
      "Ġbottle": 7482,
      "Ġhopes": 7483,
      "Bec": 7484,
      "Look": 7485,
      "ĠTurn": 7486,
      "Ġforum": 7487,
      "Ġkm": 7488,
      "acle": 7489,
      "Ġvisited": 7490,
      "Ġbroke": 7491,
      "Bu": 7492,
      "making": 7493,
      "ĠBon": 7494,
      "Ġ150": 7495,
      "Ġsoil": 7496,
      "Ġsaving": 7497,
      "ĠThree": 7498,
      "Ġengaged": 7499,
      "Sm": 7500,
      "lers": 7501,
      "ĠSS": 7502,
      "stein": 7503,
      "sen": 7504,
      "Ġgifts": 7505,
      "ĠDaily": 7506,
      "ogether": 7507,
      "Ġtech": 7508,
      "ĠAdministration": 7509,
      "ĠFox": 7510,
      "Ġcapture": 7511,
      "Note": 7512,
      "Ġfalse": 7513,
      "Ġeast": 7514,
      "iger": 7515,
      "ologist": 7516,
      "ĠZealand": 7517,
      "Ġweapons": 7518,
      "isdom": 7519,
      "ĠAC": 7520,
      "igure": 7521,
      "adium": 7522,
      "Ġstake": 7523,
      "Ġgender": 7524,
      "Ġinstrument": 7525,
      "lled": 7526,
      "ĠDog": 7527,
      "inding": 7528,
      "Ġflexible": 7529,
      "Ġstyles": 7530,
      "58": 7531,
      "jo": 7532,
      "Ġtab": 7533,
      "Ġbab": 7534,
      "Ġdiscipl": 7535,
      "Ġcoal": 7536,
      "Ġcontinuing": 7537,
      "Ġeggs": 7538,
      "inent": 7539,
      "roph": 7540,
      "ĠSher": 7541,
      "Ġdivision": 7542,
      "bar": 7543,
      "Ġfing": 7544,
      "Ġinner": 7545,
      "ĠSat": 7546,
      "Ġoverwhel": 7547,
      "ĠFoot": 7548,
      "umm": 7549,
      "Ġamounts": 7550,
      "%.": 7551,
      "59": 7552,
      "run": 7553,
      "Ġease": 7554,
      "ĠRo": 7555,
      "plate": 7556,
      "Ġclar": 7557,
      "tocol": 7558,
      "Ġelected": 7559,
      "Ġexistence": 7560,
      "Ġstrategic": 7561,
      "tes": 7562,
      "ĠViet": 7563,
      "ints": 7564,
      "Ġeligible": 7565,
      "pack": 7566,
      "Ġreaction": 7567,
      "Ġinvited": 7568,
      "Ġsubjects": 7569,
      "Ġdesigner": 7570,
      "Ġsupplement": 7571,
      "Ġhistoric": 7572,
      "Ġmoist": 7573,
      "adel": 7574,
      "Ġprohib": 7575,
      "ĠLED": 7576,
      "Ġoutcome": 7577,
      "Ġagents": 7578,
      "Ġaggress": 7579,
      "Ġrecy": 7580,
      "Ġexpenses": 7581,
      "Ġachieved": 7582,
      "Ġqualified": 7583,
      "ĠTer": 7584,
      "Ġsheet": 7585,
      "Ġdriven": 7586,
      "roduction": 7587,
      "BI": 7588,
      "Ġ34": 7589,
      "itionally": 7590,
      "Ġcausing": 7591,
      "holders": 7592,
      "Jan": 7593,
      "Ġhole": 7594,
      "Ġlies": 7595,
      "Ġplot": 7596,
      "Ġregions": 7597,
      "Ġdevelopers": 7598,
      "Ġtrends": 7599,
      "ĠBritain": 7600,
      "Ġbirds": 7601,
      "cific": 7602,
      "enth": 7603,
      "Ġwithd": 7604,
      "ĠBru": 7605,
      "ĠNorm": 7606,
      "Ġzone": 7607,
      "Ġexception": 7608,
      "ellectual": 7609,
      "UP": 7610,
      "rency": 7611,
      "300": 7612,
      "ters": 7613,
      "ĠCOVID": 7614,
      "Ġexplan": 7615,
      "Ġplatforms": 7616,
      "Ġbathroom": 7617,
      "ĠTru": 7618,
      "Ġgenerate": 7619,
      "Ġcuts": 7620,
      "Ġintroduction": 7621,
      "ĠIreland": 7622,
      "isa": 7623,
      "ilst": 7624,
      "ocracy": 7625,
      "ĠTax": 7626,
      "ĠKar": 7627,
      "Ġrelative": 7628,
      "tense": 7629,
      "Ġcreates": 7630,
      "Ġfavourite": 7631,
      "ĠSn": 7632,
      "Ġultimate": 7633,
      "ĠSystems": 7634,
      "ele": 7635,
      "Ġtournament": 7636,
      "oken": 7637,
      "Ġprimarily": 7638,
      "].": 7639,
      "Ġawards": 7640,
      "ĠDub": 7641,
      "Ġoffices": 7642,
      "rated": 7643,
      "adow": 7644,
      "iform": 7645,
      "ĠRoyal": 7646,
      "Ġspokes": 7647,
      "Ġfounded": 7648,
      "cover": 7649,
      "Ġrepeated": 7650,
      "ĠTable": 7651,
      "ĠKent": 7652,
      "Ġheaded": 7653,
      "Ġvacation": 7654,
      "Ġtransportation": 7655,
      "ĠPersonal": 7656,
      "Ġtox": 7657,
      "Ġexperiment": 7658,
      "iki": 7659,
      "letter": 7660,
      "Ġpreferred": 7661,
      "bre": 7662,
      "iot": 7663,
      "nic": 7664,
      "Ġbags": 7665,
      "Ġstood": 7666,
      "ĠKenn": 7667,
      "Ġindex": 7668,
      "Ġinvolves": 7669,
      "Ġbedroom": 7670,
      "ĠJersey": 7671,
      "Ġsavings": 7672,
      "Ġpra": 7673,
      "Ġchoosing": 7674,
      "Ġwidely": 7675,
      "Ġattended": 7676,
      "Ġmood": 7677,
      "Ġdebut": 7678,
      "Ġreplaced": 7679,
      "Ġluxury": 7680,
      "Ġtip": 7681,
      "ĠAwards": 7682,
      "Ġseasons": 7683,
      "Ġanymore": 7684,
      "anny": 7685,
      "ĠHenry": 7686,
      "quest": 7687,
      "allas": 7688,
      "ĠQuest": 7689,
      "Ġbatt": 7690,
      "Ġhire": 7691,
      "ĠFred": 7692,
      "Ġcute": 7693,
      "Ġsuffered": 7694,
      "Ġspaces": 7695,
      "ĠClin": 7696,
      "ĠPhys": 7697,
      "Ġwrites": 7698,
      "Ġdrawn": 7699,
      "Ġdrawing": 7700,
      "ĠCorporation": 7701,
      "Ġlip": 7702,
      "Ġjew": 7703,
      "Ġreader": 7704,
      "ĠStudents": 7705,
      "Ġloans": 7706,
      "page": 7707,
      "was": 7708,
      "cking": 7709,
      "ĠLeg": 7710,
      "Ġcookies": 7711,
      "Ġbaseball": 7712,
      "ĠMarketing": 7713,
      "ĠProfessor": 7714,
      "kl": 7715,
      "Ġtie": 7716,
      "Ġproven": 7717,
      "Ġ2022": 7718,
      "Ġshouldn": 7719,
      "Ġcalendar": 7720,
      "Ġgenuine": 7721,
      "Ġfitness": 7722,
      "ĠDownload": 7723,
      "Ġempty": 7724,
      "ĠNever": 7725,
      "inking": 7726,
      "ĠConnect": 7727,
      "ĠSafety": 7728,
      "Ġnom": 7729,
      "abeth": 7730,
      "Ġclock": 7731,
      "ĠStan": 7732,
      "Ġevolution": 7733,
      "Ġmanagers": 7734,
      "Ġprinted": 7735,
      "Ġopposite": 7736,
      "Ġindu": 7737,
      "rently": 7738,
      "ĠPak": 7739,
      "Ġanxiety": 7740,
      "Ġcompat": 7741,
      "ocated": 7742,
      "Ġroot": 7743,
      "ĠWhich": 7744,
      "Ġcommonly": 7745,
      "Ġmatches": 7746,
      "Ġcrypt": 7747,
      "Fi": 7748,
      "onto": 7749,
      "ington": 7750,
      "Ġdecent": 7751,
      "Ġblocks": 7752,
      "Ġneighb": 7753,
      "ĠPriv": 7754,
      "Ġaccomplish": 7755,
      "oured": 7756,
      "Ġarmy": 7757,
      "Ġroles": 7758,
      "Ġmarks": 7759,
      "Ġprogramme": 7760,
      "Ġincredibly": 7761,
      "bell": 7762,
      "Ġlatter": 7763,
      "Ġexec": 7764,
      "Ġinteract": 7765,
      "ĠPerform": 7766,
      "Ġinjured": 7767,
      "Ġstructures": 7768,
      "Ġmile": 7769,
      "ĠJenn": 7770,
      "athan": 7771,
      "ĠConf": 7772,
      "Ġinvolving": 7773,
      "Ġdepression": 7774,
      "Pre": 7775,
      "uing": 7776,
      "ðŁ": 7777,
      "ĠCab": 7778,
      "atell": 7779,
      "ĠRun": 7780,
      "ĠCountry": 7781,
      "Ġflavor": 7782,
      "52": 7783,
      "57": 7784,
      "sts": 7785,
      "Ġseed": 7786,
      "Ġaccord": 7787,
      "Ġindicate": 7788,
      "Ġthinks": 7789,
      "Ġattra": 7790,
      "rieved": 7791,
      "ĠSmall": 7792,
      "ĠStudies": 7793,
      "Ġcarrying": 7794,
      "Ġarrested": 7795,
      "boy": 7796,
      "Ġmold": 7797,
      "ĠStore": 7798,
      "Ġunderstood": 7799,
      "Ġsubmitted": 7800,
      "Ġformal": 7801,
      "Ġ1996": 7802,
      "Ġfunctional": 7803,
      "leep": 7804,
      "ĠPract": 7805,
      "Ġmanual": 7806,
      "ĠVideo": 7807,
      "ĠIII": 7808,
      "Ġmm": 7809,
      "ĠEnt": 7810,
      "Ġextension": 7811,
      "Ġclaimed": 7812,
      "Ġconsideration": 7813,
      "Ġ)": 7814,
      "Ġpin": 7815,
      "Ġnewly": 7816,
      "Ġeverywhere": 7817,
      "Ġlighting": 7818,
      "Ġscenes": 7819,
      "EA": 7820,
      "ĠRod": 7821,
      "Ġhandling": 7822,
      "liament": 7823,
      "Ġplane": 7824,
      "Ġphotography": 7825,
      "Ġdeeply": 7826,
      "Ġenterprise": 7827,
      "Car": 7828,
      "Tube": 7829,
      "Ġbull": 7830,
      "urities": 7831,
      "ĠGi": 7832,
      "Ġunw": 7833,
      "amps": 7834,
      "ĠWorks": 7835,
      "Ġeleg": 7836,
      "Before": 7837,
      "Ġfifth": 7838,
      "Ġdynamic": 7839,
      "92": 7840,
      "Ġwra": 7841,
      "icious": 7842,
      "Ġsees": 7843,
      "Ġdeposit": 7844,
      "Ġphen": 7845,
      "Ġintense": 7846,
      "Ġwhenever": 7847,
      "Ġending": 7848,
      "ounter": 7849,
      "Ġstronger": 7850,
      "Ġtor": 7851,
      "Ġfestival": 7852,
      "ĠCru": 7853,
      "ushed": 7854,
      "Ġbutt": 7855,
      "icted": 7856,
      "Ġassume": 7857,
      "Ġgenerated": 7858,
      "Ġdefensive": 7859,
      "Ġsolve": 7860,
      "Ġfalling": 7861,
      "days": 7862,
      "Ġlens": 7863,
      "idays": 7864,
      "ĠPop": 7865,
      "ĠFact": 7866,
      "Ġusage": 7867,
      "ĠThough": 7868,
      "ĠFinancial": 7869,
      "bury": 7870,
      "wart": 7871,
      "ĠSus": 7872,
      "cia": 7873,
      "aret": 7874,
      "Ġconsists": 7875,
      "ĠSpace": 7876,
      "ĠBroad": 7877,
      "Ġgentle": 7878,
      "epend": 7879,
      "Ġstunning": 7880,
      "Ġwash": 7881,
      "Ġvessel": 7882,
      "iece": 7883,
      "Ġads": 7884,
      "inson": 7885,
      "ĠResp": 7886,
      "Ġlaid": 7887,
      "His": 7888,
      "yes": 7889,
      "Ġstead": 7890,
      "ĠMobile": 7891,
      "ĠFord": 7892,
      "Thank": 7893,
      "ĠSea": 7894,
      "Ġobst": 7895,
      "Ġarrive": 7896,
      "Ġvoters": 7897,
      "Ġconvin": 7898,
      "Ġdoctors": 7899,
      "Ġ400": 7900,
      "Ġmedication": 7901,
      "iversary": 7902,
      "Ġpublication": 7903,
      "Ġcapabilities": 7904,
      "Ġpowder": 7905,
      "bro": 7906,
      "Ġbunch": 7907,
      "Ġnaturally": 7908,
      "thew": 7909,
      "being": 7910,
      "ĠOrig": 7911,
      "ATE": 7912,
      "ĠDavis": 7913,
      "Ġliterally": 7914,
      "ĠâĨ": 7915,
      "Ġtact": 7916,
      "Ġdad": 7917,
      "stery": 7918,
      "ĠHou": 7919,
      "ushing": 7920,
      "Ġmemories": 7921,
      "Ġputs": 7922,
      "annels": 7923,
      "Ġequival": 7924,
      "ller": 7925,
      "ĠTaylor": 7926,
      "Ġproducing": 7927,
      "Ġfaced": 7928,
      "Ġhosting": 7929,
      "FA": 7930,
      "ĠSH": 7931,
      "ĠRoll": 7932,
      "Ġremoval": 7933,
      "ĠPolicy": 7934,
      "BM": 7935,
      "iti": 7936,
      "2012": 7937,
      "Ġbreaking": 7938,
      "iami": 7939,
      "ĠJoseph": 7940,
      "Ġillegal": 7941,
      "Ġhung": 7942,
      "usal": 7943,
      "Ġgotten": 7944,
      "Ġalongside": 7945,
      "ĠRadio": 7946,
      "Jo": 7947,
      "ĠMah": 7948,
      "ĠGreek": 7949,
      "ĠArm": 7950,
      "Reg": 7951,
      "Ġsplit": 7952,
      "orous": 7953,
      "Ġbars": 7954,
      "Ġrecover": 7955,
      "Ġrecognition": 7956,
      "bits": 7957,
      "Ġpill": 7958,
      "ĠCR": 7959,
      "ceived": 7960,
      "ĠFre": 7961,
      "aine": 7962,
      "Ġchances": 7963,
      "Ġrecon": 7964,
      "ĠForce": 7965,
      "cm": 7966,
      "rite": 7967,
      "ĠAge": 7968,
      "Ġlau": 7969,
      "Ġnic": 7970,
      "ĠPDF": 7971,
      "Ġfundamental": 7972,
      "Ġpriority": 7973,
      "Ġguidelines": 7974,
      "Ġinfection": 7975,
      "Ã³": 7976,
      "Ġcam": 7977,
      "ĠSav": 7978,
      "ĠMill": 7979,
      "ĠUlt": 7980,
      "Ġeverybody": 7981,
      "Ġundert": 7982,
      "bridge": 7983,
      "ĠSummer": 7984,
      "Because": 7985,
      "fits": 7986,
      "igen": 7987,
      "Ġhel": 7988,
      "Ġshops": 7989,
      "Ġcontained": 7990,
      "icking": 7991,
      "Ġlogo": 7992,
      "ĠAccount": 7993,
      "ĠDiego": 7994,
      "ĠWi": 7995,
      "Ġvice": 7996,
      "Ġcommunicate": 7997,
      "Ġoppon": 7998,
      "Ġdepends": 7999,
      "Ġsuspect": 8000,
      "remony": 8001,
      "vit": 8002,
      "Ġpul": 8003,
      "ĠMA": 8004,
      "anted": 8005,
      "Ġavailability": 8006,
      "Ġpassword": 8007,
      "ĠBrad": 8008,
      "Ġinitiative": 8009,
      "Ġsamples": 8010,
      "da": 8011,
      "Ġlists": 8012,
      "cker": 8013,
      "pense": 8014,
      "Ġlawyer": 8015,
      "Ġmoral": 8016,
      "Ġregardless": 8017,
      "________": 8018,
      "season": 8019,
      "imer": 8020,
      "ĠDark": 8021,
      "Ġgreatly": 8022,
      "Ġexpansion": 8023,
      "Ġlegit": 8024,
      "Ġaddresses": 8025,
      "Ġconcerning": 8026,
      "Ġtitles": 8027,
      "Ġcolleagues": 8028,
      "Ġforgot": 8029,
      "VER": 8030,
      "bow": 8031,
      "gov": 8032,
      "tics": 8033,
      "imize": 8034,
      "isted": 8035,
      "ervations": 8036,
      "Ġblank": 8037,
      "Ġdemands": 8038,
      "ĠSupp": 8039,
      "Book": 8040,
      "fall": 8041,
      "Ġyield": 8042,
      "PC": 8043,
      "Ġtum": 8044,
      "ĠSuch": 8045,
      "Ġrising": 8046,
      "Ġmeals": 8047,
      "Ġquote": 8048,
      "Ġstayed": 8049,
      "Ġconsequences": 8050,
      "Ġcontrovers": 8051,
      "Two": 8052,
      "Ġpowers": 8053,
      "Ġmanufacturer": 8054,
      "RI": 8055,
      "Rep": 8056,
      "Ġbact": 8057,
      "irts": 8058,
      "Ġcareful": 8059,
      "Ġcrash": 8060,
      "Ġpubl": 8061,
      "Ġlaptop": 8062,
      "Like": 8063,
      "cor": 8064,
      "Ġreact": 8065,
      "ĠHoly": 8066,
      "Ġoccurs": 8067,
      "Ġsought": 8068,
      "Ġfirms": 8069,
      "alty": 8070,
      "Ġgene": 8071,
      "Ġasks": 8072,
      "Ġtone": 8073,
      "aters": 8074,
      "ĠMedicine": 8075,
      "ĠBuilding": 8076,
      "Ġstruck": 8077,
      "burgh": 8078,
      "Ġescape": 8079,
      "Ġattractive": 8080,
      "Ġbench": 8081,
      "ĠAvenue": 8082,
      "ruption": 8083,
      "Ġreturning": 8084,
      "Ġwarning": 8085,
      "haust": 8086,
      "Ġloving": 8087,
      "Ġchest": 8088,
      "Ġsuffer": 8089,
      "ĠDemocratic": 8090,
      "Follow": 8091,
      "hemat": 8092,
      "Ġma": 8093,
      "coin": 8094,
      "ĠTraining": 8095,
      "omach": 8096,
      "ĠHart": 8097,
      "Ġposting": 8098,
      "oked": 8099,
      "ĠOrder": 8100,
      "Ġequally": 8101,
      "ipt": 8102,
      "ritten": 8103,
      "alysis": 8104,
      "ĠAsh": 8105,
      "Ġvisible": 8106,
      "Ġzero": 8107,
      "Ġarchitecture": 8108,
      "Ġunex": 8109,
      "Ġpreparation": 8110,
      "bration": 8111,
      "ĠTreat": 8112,
      "ĠCO": 8113,
      "ĠCond": 8114,
      "Ġharder": 8115,
      "Ġairport": 8116,
      "Ġparticipation": 8117,
      "Ġrequested": 8118,
      "Ġadopted": 8119,
      "Ġgaming": 8120,
      "ĠEmer": 8121,
      "Ġimper": 8122,
      "aping": 8123,
      "Ġfindings": 8124,
      "Ġassault": 8125,
      "Ġreduction": 8126,
      "ĠArticle": 8127,
      "Ġske": 8128,
      "Ġgod": 8129,
      "ĠWH": 8130,
      "una": 8131,
      "ĠGro": 8132,
      "izabeth": 8133,
      "Ġrecommendations": 8134,
      "Ġgranted": 8135,
      "car": 8136,
      "ati": 8137,
      "Ġboss": 8138,
      "etry": 8139,
      "ĠBrian": 8140,
      "Ġhadn": 8141,
      "Ġcenters": 8142,
      "ĠSilver": 8143,
      "SE": 8144,
      "ped": 8145,
      "Ġham": 8146,
      "kel": 8147,
      "Ġcharm": 8148,
      "Ġdispos": 8149,
      "Ġfinance": 8150,
      "Ġdiseases": 8151,
      "swered": 8152,
      "ĠLy": 8153,
      "iking": 8154,
      "Ġfib": 8155,
      "Ġenforcement": 8156,
      "Ġ44": 8157,
      "Ġshoulder": 8158,
      "ĠAnth": 8159,
      "Ġtransaction": 8160,
      "Ġmistake": 8161,
      "Ġhospit": 8162,
      "Ġisol": 8163,
      "Ġalt": 8164,
      "Ġoffensive": 8165,
      "friendly": 8166,
      "ĠDemocrats": 8167,
      "ĠJewish": 8168,
      "Ġmerely": 8169,
      "anes": 8170,
      "ĠMiller": 8171,
      "Ġcontrolled": 8172,
      "Ġhyper": 8173,
      "Ġsuddenly": 8174,
      "Ġ;": 8175,
      "Ġmac": 8176,
      "Ġ($": 8177,
      "Ġengagement": 8178,
      "Ġcasual": 8179,
      "Ġcomparison": 8180,
      "Ġentitled": 8181,
      "Gu": 8182,
      "Ġtired": 8183,
      "ĠDar": 8184,
      "through": 8185,
      "ĠNon": 8186,
      "Ġplain": 8187,
      "ĠClinton": 8188,
      "Ġreducing": 8189,
      "68": 8190,
      "ĠHun": 8191,
      "Ġracing": 8192,
      "ĠUnfortunately": 8193,
      "Ġbehalf": 8194,
      "ashes": 8195,
      "Ġloud": 8196,
      "etary": 8197,
      "ĠMach": 8198,
      "ĠNFL": 8199,
      "aka": 8200,
      "Ġinstant": 8201,
      "Ġencouraged": 8202,
      "ĠAction": 8203,
      "ifer": 8204,
      "Ġsynt": 8205,
      "Ġraising": 8206,
      "Ġparam": 8207,
      "Have": 8208,
      "Ð°": 8209,
      "Ġwake": 8210,
      "ĠDNA": 8211,
      "ĠFREE": 8212,
      "ĠRa": 8213,
      "Ġspark": 8214,
      "Ġconnections": 8215,
      "chester": 8216,
      "Ġsuggestions": 8217,
      "CD": 8218,
      "Ġflying": 8219,
      "Ġgiant": 8220,
      "ĠEric": 8221,
      "ials": 8222,
      "Ġdisplayed": 8223,
      "HS": 8224,
      "heast": 8225,
      "Ġstrict": 8226,
      "ĠBudd": 8227,
      "Ġattitude": 8228,
      "Ġcovering": 8229,
      "Ġclosing": 8230,
      "onna": 8231,
      "oric": 8232,
      "Ġinch": 8233,
      "Ġdestination": 8234,
      "ĠEngineering": 8235,
      "Ġoven": 8236,
      "Ġbills": 8237,
      "Ġlung": 8238,
      "ĠCult": 8239,
      "Ġspots": 8240,
      "upid": 8241,
      "Ġtracking": 8242,
      "Ġsentence": 8243,
      "ĠRepublicans": 8244,
      "64": 8245,
      "cut": 8246,
      "ĠBa": 8247,
      "Ġdose": 8248,
      "Ġraw": 8249,
      "ĠSenior": 8250,
      "ambling": 8251,
      "Ġbell": 8252,
      "ĠCN": 8253,
      "ilty": 8254,
      "ĠPS": 8255,
      "ĠDaniel": 8256,
      "Ġ1980": 8257,
      "Ġassistant": 8258,
      "adelph": 8259,
      "dis": 8260,
      "Ġmob": 8261,
      "erving": 8262,
      "Ġexplos": 8263,
      "ĠKingdom": 8264,
      "Ġawarded": 8265,
      "Ã¼": 8266,
      "inity": 8267,
      "erty": 8268,
      "Ġperformances": 8269,
      "Ġcomputers": 8270,
      "nesota": 8271,
      "Ġsoldiers": 8272,
      "Ġconcrete": 8273,
      "93": 8274,
      "wan": 8275,
      "Ġouts": 8276,
      "ĠMembers": 8277,
      "Ġmanufacturers": 8278,
      "hour": 8279,
      "rer": 8280,
      "Ġborrow": 8281,
      "Ġsections": 8282,
      "Ġru": 8283,
      "ĠStill": 8284,
      "ĠType": 8285,
      "ĠPen": 8286,
      "Ġchannels": 8287,
      "Ġresidential": 8288,
      "Ġdiabetes": 8289,
      "Ġcomplicated": 8290,
      "Ġopposition": 8291,
      "Ġattempts": 8292,
      "Ġstored": 8293,
      "ĠYouTube": 8294,
      "Ġratio": 8295,
      "GA": 8296,
      "words": 8297,
      "ĠâĢĻ": 8298,
      "Ġanswered": 8299,
      "ĠGarden": 8300,
      "Ġkilling": 8301,
      "Ġ1997": 8302,
      "ESS": 8303,
      "iscal": 8304,
      "67": 8305,
      "alo": 8306,
      "ĠRen": 8307,
      "Ġstrongly": 8308,
      "Ġsuperior": 8309,
      "Ġtraveling": 8310,
      "anguages": 8311,
      "Co": 8312,
      "GE": 8313,
      "Ġtape": 8314,
      "ĠUk": 8315,
      "Ġinsight": 8316,
      "ĠShould": 8317,
      "Ġpointed": 8318,
      "Ġnights": 8319,
      "Ġretirement": 8320,
      "Ġnations": 8321,
      "ĠFall": 8322,
      "acher": 8323,
      "Ġcompare": 8324,
      "Ġcontaining": 8325,
      "Ġframework": 8326,
      "Ġrarely": 8327,
      "pany": 8328,
      "Ġbone": 8329,
      "ĠNO": 8330,
      "Ġjur": 8331,
      "iah": 8332,
      "âĢ¦.": 8333,
      "Ġ1995": 8334,
      "roller": 8335,
      "ĠTravel": 8336,
      "ji": 8337,
      "ĠMir": 8338,
      "Ġrice": 8339,
      "izza": 8340,
      "Ġque": 8341,
      "Ġrefund": 8342,
      "Ġindustries": 8343,
      "Ġscheme": 8344,
      "Ġfraud": 8345,
      "Ġ?": 8346,
      "ĠBase": 8347,
      "Ġlegend": 8348,
      "orgeous": 8349,
      "missions": 8350,
      "Ġvolunteers": 8351,
      "ĠQueen": 8352,
      "ĠIrish": 8353,
      "ĠGM": 8354,
      "Ġmeets": 8355,
      "ĠHell": 8356,
      "ĠAfghan": 8357,
      "ĠForest": 8358,
      "step": 8359,
      "Ġvent": 8360,
      "Ġjoining": 8361,
      "Ġportfol": 8362,
      "Ġsubsid": 8363,
      "Will": 8364,
      "iac": 8365,
      "ĠLocal": 8366,
      "Ġentering": 8367,
      "Ġpresents": 8368,
      "Ġpersonnel": 8369,
      "Ġforecast": 8370,
      "ĠAgency": 8371,
      "Ġrapidly": 8372,
      "Ġstaying": 8373,
      "ĠReading": 8374,
      "Ġcertified": 8375,
      "Ġrecipes": 8376,
      "'.": 8377,
      "54": 8378,
      "makers": 8379,
      "organ": 8380,
      "Ġreject": 8381,
      "ulpt": 8382,
      "Ġseats": 8383,
      "ĠNatural": 8384,
      "Ġsharp": 8385,
      "Ġtrave": 8386,
      "Ġacceler": 8387,
      "Ġfilter": 8388,
      "Ġfrustr": 8389,
      "Back": 8390,
      "Ġwave": 8391,
      "Ġol": 8392,
      "icide": 8393,
      "ĠTry": 8394,
      "eling": 8395,
      "Ġleather": 8396,
      "Ġcontributions": 8397,
      "Ġconcert": 8398,
      "Ġmerch": 8399,
      "rat": 8400,
      "ĠFather": 8401,
      "bered": 8402,
      "Ġrespectively": 8403,
      "Ġupgrade": 8404,
      "Ġmixture": 8405,
      "ĠTool": 8406,
      "Ġaband": 8407,
      "ensus": 8408,
      "Ġexposed": 8409,
      "ĠAdam": 8410,
      "à¤": 8411,
      "eness": 8412,
      "Ġpand": 8413,
      "ali": 8414,
      "ĠPerhaps": 8415,
      "Ġunusual": 8416,
      "zed": 8417,
      "Ġdiversity": 8418,
      "Ġuncom": 8419,
      "ĠAllen": 8420,
      "ĠÂ©": 8421,
      "Ġcharacteristics": 8422,
      "Ġorange": 8423,
      "ĠLatin": 8424,
      "Ġriding": 8425,
      "ĠNorthern": 8426,
      "ĠET": 8427,
      "Ġprize": 8428,
      "Ġelectrical": 8429,
      "high": 8430,
      "nce": 8431,
      "anth": 8432,
      "Ġrural": 8433,
      "Ġmortgage": 8434,
      "ĠWilson": 8435,
      "Ġyard": 8436,
      "Ġworried": 8437,
      "Ġdispl": 8438,
      "Ġformula": 8439,
      "month": 8440,
      "uct": 8441,
      "Ġocean": 8442,
      "Ġreaching": 8443,
      "Ġgained": 8444,
      "oding": 8445,
      "ĠVill": 8446,
      "Ġsmoke": 8447,
      "Ġassigned": 8448,
      "Ġboxes": 8449,
      "Ġbasketball": 8450,
      "%,": 8451,
      "och": 8452,
      "pled": 8453,
      "pending": 8454,
      "Ġlesson": 8455,
      "Ġinitially": 8456,
      "Ġwireless": 8457,
      "mal": 8458,
      "Ġsed": 8459,
      "Ġcul": 8460,
      "ĠSales": 8461,
      "Ġheaven": 8462,
      "ĠDam": 8463,
      "ĠName": 8464,
      "izer": 8465,
      "Ġcoat": 8466,
      "Ġrequirement": 8467,
      "Ġpurchasing": 8468,
      "inois": 8469,
      "Ġdamaged": 8470,
      "Ġopens": 8471,
      "Ġtill": 8472,
      "Ġlisting": 8473,
      "Ġhosted": 8474,
      "400": 8475,
      "ouri": 8476,
      "ĠCamer": 8477,
      "ador": 8478,
      "ĠLew": 8479,
      "ĠSeattle": 8480,
      "Ġaccessories": 8481,
      "Ġdrama": 8482,
      "Ġensuring": 8483,
      "Ġpreparing": 8484,
      "ĠLearn": 8485,
      "Each": 8486,
      "Lear": 8487,
      "Ġsorry": 8488,
      "Ġcm": 8489,
      "Ġfru": 8490,
      "Ġtomat": 8491,
      "cend": 8492,
      "ĠMit": 8493,
      "ĠPo": 8494,
      "ĠDallas": 8495,
      "ĠLLC": 8496,
      "Ġshirt": 8497,
      "Ġchart": 8498,
      "agan": 8499,
      "Ġcomprom": 8500,
      "Ġpersonality": 8501,
      "Ġsouthern": 8502,
      "ĠEastern": 8503,
      "Ġnewspaper": 8504,
      "Ġpushed": 8505,
      "ĠDrive": 8506,
      "ĠColumbia": 8507,
      "ught": 8508,
      "Ġbaking": 8509,
      "ĠIde": 8510,
      "ĠMiami": 8511,
      "Ġassociation": 8512,
      "ĠBrook": 8513,
      "ĠMagazine": 8514,
      "Ġupload": 8515,
      "Ġcoc": 8516,
      "ĠCase": 8517,
      "ateful": 8518,
      "ourse": 8519,
      "bsite": 8520,
      "ĠiPad": 8521,
      "ĠHouston": 8522,
      "UM": 8523,
      "Ã¶": 8524,
      "stal": 8525,
      "ĠDO": 8526,
      "ĠFun": 8527,
      "Ġapplicable": 8528,
      "who": 8529,
      "Ġbrilliant": 8530,
      "Ġtied": 8531,
      "Ġdental": 8532,
      "char": 8533,
      "ĠBern": 8534,
      "ĠPsych": 8535,
      "Ġexhaust": 8536,
      "Ġlets": 8537,
      "Ġadmit": 8538,
      "Ġadmitted": 8539,
      "Ġactor": 8540,
      "Ġfewer": 8541,
      "Ġopinions": 8542,
      "Ġenemy": 8543,
      "dri": 8544,
      "Ġpipe": 8545,
      "Ġstable": 8546,
      "ĠMD": 8547,
      "abil": 8548,
      "Ġunknown": 8549,
      "Ġinteraction": 8550,
      "Ġfalls": 8551,
      "Ġcriteria": 8552,
      "Ġmaintaining": 8553,
      "Ġvolunteer": 8554,
      "ĠMember": 8555,
      "gel": 8556,
      "Ġdeeper": 8557,
      "ĠEth": 8558,
      "Ġshower": 8559,
      "Ġclassroom": 8560,
      "Ġspeaker": 8561,
      "ĠStudent": 8562,
      "ĠBuy": 8563,
      "ĠExperience": 8564,
      "ĠScotland": 8565,
      "adelphia": 8566,
      "ĠTal": 8567,
      "ĠHas": 8568,
      "Ġuniverse": 8569,
      "Ġsingles": 8570,
      "AND": 8571,
      "after": 8572,
      "cular": 8573,
      "site": 8574,
      "Ġunion": 8575,
      "Ġscores": 8576,
      "Ġphones": 8577,
      "Ġcolon": 8578,
      "Ġprogramming": 8579,
      "rolog": 8580,
      "Ġdollar": 8581,
      "Ġsubstantial": 8582,
      "Ġerrors": 8583,
      "Good": 8584,
      "aron": 8585,
      "ĠIC": 8586,
      "Ġarray": 8587,
      "Ġminister": 8588,
      "Ġchildhood": 8589,
      "Ġceremony": 8590,
      "Ġdecline": 8591,
      "ĠFilm": 8592,
      "53": 8593,
      "post": 8594,
      "owed": 8595,
      "irus": 8596,
      "ĠHaving": 8597,
      "ĠCarl": 8598,
      "Ġessentially": 8599,
      "Ġjuice": 8600,
      "Wor": 8601,
      "inos": 8602,
      "ĠCON": 8603,
      "riers": 8604,
      "erman": 8605,
      "ILL": 8606,
      "94": 8607,
      "uana": 8608,
      "Ã¢": 8609,
      "inating": 8610,
      "Ġbold": 8611,
      "Ġhip": 8612,
      "Ġweird": 8613,
      "ĠDom": 8614,
      "ĠLA": 8615,
      "acon": 8616,
      "Ġpocket": 8617,
      "phones": 8618,
      "Ġkeys": 8619,
      "aza": 8620,
      "ounce": 8621,
      "Ġapproaches": 8622,
      "Ġexhibition": 8623,
      "Oct": 8624,
      "Ġconventional": 8625,
      "ĠHold": 8626,
      "Ġunem": 8627,
      "omething": 8628,
      "ugs": 8629,
      "Ġpossess": 8630,
      "Ġheading": 8631,
      "Ġrepresented": 8632,
      "Ġ~": 8633,
      "Ġlady": 8634,
      "Ġloyal": 8635,
      "imp": 8636,
      "ĠPur": 8637,
      "iffe": 8638,
      "Ġconclusion": 8639,
      "andy": 8640,
      "Ġpacked": 8641,
      "Ġdowntown": 8642,
      "Ġstages": 8643,
      "ĠDun": 8644,
      "ĠKat": 8645,
      "Ġpepper": 8646,
      "Ġtemporary": 8647,
      "Ġopposed": 8648,
      "Ġspeakers": 8649,
      "ĠSoftware": 8650,
      "mates": 8651,
      "erk": 8652,
      "ĠStory": 8653,
      "ĠChampionship": 8654,
      "Ġflower": 8655,
      "ĠPrin": 8656,
      "Sec": 8657,
      "Ġtap": 8658,
      "Ġmg": 8659,
      "ĠCivil": 8660,
      "ĠMinnesota": 8661,
      "Ġdanger": 8662,
      "Ġequivalent": 8663,
      "omer": 8664,
      "ĠCapt": 8665,
      "ĠProm": 8666,
      "intage": 8667,
      "ĠLeon": 8668,
      "ĠGuard": 8669,
      "Ġlosses": 8670,
      "Find": 8671,
      "ds": 8672,
      "hire": 8673,
      "Ġsomebody": 8674,
      "Ġsinger": 8675,
      "ĠPrime": 8676,
      "Ġcertificate": 8677,
      "ĠProduct": 8678,
      "ĠLearning": 8679,
      "EX": 8680,
      "ĠBang": 8681,
      "Ġmyth": 8682,
      "eping": 8683,
      "liers": 8684,
      "Ġminds": 8685,
      "Ġcompliance": 8686,
      "Ġchronic": 8687,
      "ĠChall": 8688,
      "Ġintellectual": 8689,
      "Ġobjective": 8690,
      "Ġconservative": 8691,
      "Whe": 8692,
      "Ġtoler": 8693,
      "ĠHT": 8694,
      "ĠExam": 8695,
      "Ġtroops": 8696,
      "63": 8697,
      "dney": 8698,
      "Ġrely": 8699,
      "verty": 8700,
      "ilton": 8701,
      "olt": 8702,
      "ĠPA": 8703,
      "Ġgovernments": 8704,
      "Ġenjoying": 8705,
      "Ġresponses": 8706,
      "DP": 8707,
      "Ġlin": 8708,
      "Ġhaz": 8709,
      "ĠDream": 8710,
      "Ġblow": 8711,
      "Ġindicated": 8712,
      "ilipp": 8713,
      "ĠIce": 8714,
      "ifting": 8715,
      "ĠKansas": 8716,
      "Ġofficially": 8717,
      "ĠSwed": 8718,
      "looking": 8719,
      "91": 8720,
      "Tra": 8721,
      "ĠBit": 8722,
      "ĠNick": 8723,
      "angers": 8724,
      "Inst": 8725,
      "pson": 8726,
      "ylvan": 8727,
      "Ġdescribes": 8728,
      "pers": 8729,
      "edge": 8730,
      "Ġvibr": 8731,
      "onder": 8732,
      "Ġbooking": 8733,
      "ĠSpain": 8734,
      "clusive": 8735,
      "Ġblend": 8736,
      "Ġwisdom": 8737,
      "Ġokay": 8738,
      "eties": 8739,
      "Ġadequ": 8740,
      "Ġwanting": 8741,
      "ĠSection": 8742,
      "Ġsetup": 8743,
      "Ġstring": 8744,
      "ĠEdition": 8745,
      "Ġdeclared": 8746,
      "Ġgraphics": 8747,
      "Ġdivided": 8748,
      "Ġbuff": 8749,
      "Ġextract": 8750,
      "Ġcircle": 8751,
      "Ġdeaths": 8752,
      "ĠDespite": 8753,
      "Ġconcepts": 8754,
      "vas": 8755,
      "ĠBand": 8756,
      "ĠOx": 8757,
      "Ġscoring": 8758,
      "Ġnegoti": 8759,
      "DR": 8760,
      "Ġexists": 8761,
      "ĠNic": 8762,
      "Ġchampion": 8763,
      "ERE": 8764,
      "Ġcombat": 8765,
      "df": 8766,
      "war": 8767,
      "Ġsegment": 8768,
      "Ġchecking": 8769,
      "ĠKevin": 8770,
      "Ġphilosophy": 8771,
      "intend": 8772,
      "iders": 8773,
      "sex": 8774,
      "uma": 8775,
      "Ġenables": 8776,
      "Ġsomehow": 8777,
      "cludes": 8778,
      "Ġsmoking": 8779,
      "ronics": 8780,
      "ĠStandard": 8781,
      "Ġsacr": 8782,
      "People": 8783,
      ",âĢĻ": 8784,
      "87": 8785,
      "Ġbass": 8786,
      "Ġhes": 8787,
      "ĠUr": 8788,
      "Ġoffense": 8789,
      "Ġactors": 8790,
      "ĠElizabeth": 8791,
      "Ġownership": 8792,
      "ĠMichel": 8793,
      "Ġrestrictions": 8794,
      "Ġmad": 8795,
      "omed": 8796,
      "Ġloose": 8797,
      "olid": 8798,
      "quis": 8799,
      "Ġrecre": 8800,
      "Ġpoker": 8801,
      "Ġpoverty": 8802,
      "Ġtransactions": 8803,
      "OK": 8804,
      "produ": 8805,
      "inst": 8806,
      "Ġgig": 8807,
      "ĠPut": 8808,
      "Ġrum": 8809,
      "ĠSelect": 8810,
      "ĠProcess": 8811,
      "ART": 8812,
      "Ġcalm": 8813,
      "ĠServer": 8814,
      "IGH": 8815,
      "Ġoral": 8816,
      "ĠNAS": 8817,
      "Ġminimal": 8818,
      "Ġacquis": 8819,
      "ĠRomney": 8820,
      "Day": 8821,
      "Part": 8822,
      "othe": 8823,
      "Ġstir": 8824,
      "ĠBuff": 8825,
      "ĠWas": 8826,
      "ardens": 8827,
      "ĠVery": 8828,
      "Ġequipped": 8829,
      "Ġtrem": 8830,
      "Ġvegetables": 8831,
      "Ġcompensation": 8832,
      "Ġtutorial": 8833,
      "Pub": 8834,
      "aud": 8835,
      "low": 8836,
      "lections": 8837,
      "Ġstations": 8838,
      "ĠBat": 8839,
      "ĠDave": 8840,
      "ĠEst": 8841,
      "ĠProper": 8842,
      "Ġsurve": 8843,
      "ĠBeing": 8844,
      "Ġswimming": 8845,
      "aa": 8846,
      "don": 8847,
      "Ġpig": 8848,
      "Ġdual": 8849,
      "ĠTerm": 8850,
      "ĠSem": 8851,
      "Ġstomach": 8852,
      "irk": 8853,
      "Ġsevent": 8854,
      "unate": 8855,
      "umer": 8856,
      "Ġinvention": 8857,
      "Ġgrace": 8858,
      "Ġuncertain": 8859,
      "Ġcontracts": 8860,
      "Ġheavily": 8861,
      "dog": 8862,
      "Ġgap": 8863,
      "ĠBh": 8864,
      "abama": 8865,
      "Ġproved": 8866,
      "Ġvisits": 8867,
      "ĠSmart": 8868,
      "ĠProfessional": 8869,
      "ĠHawai": 8870,
      "Ġsynd": 8871,
      "Ġremem": 8872,
      "Ġstudied": 8873,
      "cribed": 8874,
      "ĠInsurance": 8875,
      "http": 8876,
      "etts": 8877,
      "ĠBul": 8878,
      "iley": 8879,
      "Ġscan": 8880,
      "Ġroads": 8881,
      "ĠRetrieved": 8882,
      "esy": 8883,
      "utter": 8884,
      "Ġcomedy": 8885,
      "Ġintention": 8886,
      "ĠSteel": 8887,
      "Ġrepresentative": 8888,
      "Ġcontribution": 8889,
      "Ġfarmers": 8890,
      "Ġreveal": 8891,
      "ijuana": 8892,
      "ylvania": 8893,
      "gor": 8894,
      "rets": 8895,
      "ĠPitt": 8896,
      "ĠCommon": 8897,
      "Ġemployer": 8898,
      "ĠÂ»": 8899,
      "Ġprinting": 8900,
      "hop": 8901,
      "apse": 8902,
      "clude": 8903,
      "Ġguilty": 8904,
      "2011": 8905,
      "Ġcourts": 8906,
      "Ġtargeted": 8907,
      "Ġhide": 8908,
      "lee": 8909,
      "Ġgorgeous": 8910,
      "igate": 8911,
      "olis": 8912,
      "olar": 8913,
      "ĠPu": 8914,
      "ĠEss": 8915,
      "ĠAsk": 8916,
      "Ġwinners": 8917,
      "Ġlifetime": 8918,
      "Ġelectricity": 8919,
      "ĠCapital": 8920,
      "ĠAtlanta": 8921,
      "Ġenthusi": 8922,
      "gener": 8923,
      "iary": 8924,
      "Ġinhib": 8925,
      "ĠSir": 8926,
      "Ġstatistics": 8927,
      "Ġbrothers": 8928,
      "ĠKorea": 8929,
      "AV": 8930,
      "Take": 8931,
      "athered": 8932,
      "eters": 8933,
      "ĠPain": 8934,
      "ĠLat": 8935,
      "ĠJosh": 8936,
      "ĠHeart": 8937,
      "ĠAsian": 8938,
      "ĠJudge": 8939,
      "ĠMs": 8940,
      "Ġorient": 8941,
      "Ġoutcomes": 8942,
      "Ġuniform": 8943,
      "Ġhearts": 8944,
      "Ġsatisfaction": 8945,
      "ĠIslam": 8946,
      "ĠGreg": 8947,
      "ĠOak": 8948,
      "Ġinstruction": 8949,
      "Ġadvent": 8950,
      "ĠWithout": 8951,
      "Ġprivile": 8952,
      "world": 8953,
      "Ġhighlights": 8954,
      "Aug": 8955,
      "bd": 8956,
      "Ġpermit": 8957,
      "Ġ42": 8958,
      "Ġemerging": 8959,
      "Best": 8960,
      "acular": 8961,
      "orses": 8962,
      "Ġtrim": 8963,
      "Ġinsert": 8964,
      "regon": 8965,
      "Ġunexpected": 8966,
      "LS": 8967,
      "ja": 8968,
      "rus": 8969,
      "ĠMoon": 8970,
      "Ġintroduce": 8971,
      "Ġapplying": 8972,
      "Ġstruggling": 8973,
      "ĠIllinois": 8974,
      "Ġphotographs": 8975,
      "Ġstimul": 8976,
      "Under": 8977,
      "power": 8978,
      "sis": 8979,
      "ĠOK": 8980,
      "achus": 8981,
      "ressed": 8982,
      "Ġ1970": 8983,
      "Ġinstitution": 8984,
      "Ġwondering": 8985,
      "Ġacquired": 8986,
      "viously": 8987,
      "wich": 8988,
      "ĠTalk": 8989,
      "ĠRef": 8990,
      "Ġmaintained": 8991,
      "Ġ1994": 8992,
      "Ġfocusing": 8993,
      "Ġterrible": 8994,
      "ĠIslamic": 8995,
      "Ġlicensed": 8996,
      "Sim": 8997,
      "nders": 8998,
      "ĠSC": 8999,
      "Ġproport": 9000,
      "ordan": 9001,
      "Ġemployed": 9002,
      "ĠComputer": 9003,
      "ĠStock": 9004,
      "51": 9005,
      "mod": 9006,
      "ĠÎ": 9007,
      "Ġhunt": 9008,
      "Ġgym": 9009,
      "ĠIM": 9010,
      "ĠBad": 9011,
      "Ġ49": 9012,
      "ĠTenn": 9013,
      "ila": 9014,
      "tery": 9015,
      "Ġdeploy": 9016,
      "Ġengaging": 9017,
      "Ġconstit": 9018,
      "ĠBridge": 9019,
      "Ġperiods": 9020,
      "Ġcameras": 9021,
      "esides": 9022,
      "ĠEvent": 9023,
      "Ġresort": 9024,
      "Ġspir": 9025,
      "irlines": 9026,
      "Ġfocuses": 9027,
      "screen": 9028,
      "Ġtargets": 9029,
      "Ġprincipal": 9030,
      "iscons": 9031,
      "Ġjewel": 9032,
      "Ġpandemic": 9033,
      "Ġangle": 9034,
      "ĠRog": 9035,
      "Ġabroad": 9036,
      "Ġdisaster": 9037,
      "ĠChapter": 9038,
      "ocks": 9039,
      "ĠAnton": 9040,
      "isconsin": 9041,
      "Ġinfect": 9042,
      "Ġstupid": 9043,
      "Ġrelation": 9044,
      "ĠExpress": 9045,
      "cest": 9046,
      "Ġtub": 9047,
      "Ġbid": 9048,
      "Ġly": 9049,
      "Ġlift": 9050,
      "child": 9051,
      "raine": 9052,
      "Ġprime": 9053,
      "Ġcompletion": 9054,
      "Ġfactory": 9055,
      "Ġaircraft": 9056,
      "Ġdifficulty": 9057,
      "ĠBarb": 9058,
      "Ġintegration": 9059,
      "Donald": 9060,
      "ĠToronto": 9061,
      "Ġcopies": 9062,
      "ĠLinda": 9063,
      "RL": 9064,
      "fers": 9065,
      "ĠJay": 9066,
      "avor": 9067,
      "Ġpeak": 9068,
      "Stud": 9069,
      "Ġemotions": 9070,
      "73": 9071,
      "Aut": 9072,
      "Ġdeck": 9073,
      "Ġneut": 9074,
      "ormal": 9075,
      "rowse": 9076,
      "Ġkeyboard": 9077,
      "Ġworkshop": 9078,
      "Ġfingers": 9079,
      "AF": 9080,
      "Comm": 9081,
      "ĠMade": 9082,
      "udes": 9083,
      "ĠVice": 9084,
      "Ġbuyers": 9085,
      "Ġcups": 9086,
      "Ġpublishing": 9087,
      "rary": 9088,
      "vard": 9089,
      "vals": 9090,
      "Ġnose": 9091,
      "Ġhealing": 9092,
      "Ġkit": 9093,
      "Ġski": 9094,
      "Ġtrips": 9095,
      "Ġbreaks": 9096,
      "Ġinterviews": 9097,
      "Ġflexibility": 9098,
      "Med": 9099,
      "Rem": 9100,
      "Ġscreens": 9101,
      "Ġplayoff": 9102,
      "Ġinteractive": 9103,
      "ĠUSB": 9104,
      "ĠTrade": 9105,
      "ĠPolit": 9106,
      "Ġaccuracy": 9107,
      "Ġdramatic": 9108,
      "GR": 9109,
      "opt": 9110,
      "ĠJane": 9111,
      "ultane": 9112,
      "Ġpursue": 9113,
      "ffective": 9114,
      "Ġhotels": 9115,
      "omatic": 9116,
      "style": 9117,
      "Ġalter": 9118,
      "Ġ43": 9119,
      "Ġemissions": 9120,
      "Ġburning": 9121,
      "game": 9122,
      "wear": 9123,
      "onic": 9124,
      "Ġventure": 9125,
      "ĠThink": 9126,
      "icket": 9127,
      "Ġconsent": 9128,
      "Ġspecialist": 9129,
      "Ġaddressed": 9130,
      "Ġacknowled": 9131,
      "69": 9132,
      "HD": 9133,
      "sylvania": 9134,
      "Ġfo": 9135,
      "ĠCS": 9136,
      "ĠCooper": 9137,
      "ĠMajor": 9138,
      "Ġattach": 9139,
      "Ġchecked": 9140,
      "ĠFinally": 9141,
      "Ġtemperatures": 9142,
      "ĠGolden": 9143,
      "hyth": 9144,
      "Ġladies": 9145,
      "MI": 9146,
      "Ġterr": 9147,
      "itis": 9148,
      "ĠTony": 9149,
      "Ġwhilst": 9150,
      "ckets": 9151,
      "Ġabund": 9152,
      "agraph": 9153,
      "Ġadj": 9154,
      "Ġscope": 9155,
      "Ġmuscles": 9156,
      "Ġimplemented": 9157,
      "ĠIndiana": 9158,
      "Ġguaranteed": 9159,
      "ĠPhiladelphia": 9160,
      "Ġwise": 9161,
      "ori": 9162,
      "ĠCredit": 9163,
      "Ġkil": 9164,
      "ibl": 9165,
      "Ġviewing": 9166,
      "Ġmeasured": 9167,
      "Ġimprovements": 9168,
      "vol": 9169,
      "Ġfilling": 9170,
      "Ġnorthern": 9171,
      "ĠCL": 9172,
      "ĠCut": 9173,
      "ĠMother": 9174,
      "ustration": 9175,
      "Ġmanif": 9176,
      "Ġdismiss": 9177,
      "Ġsolo": 9178,
      "ĠBrother": 9179,
      "Ġjudgment": 9180,
      "Ġregulatory": 9181,
      "Ġpilot": 9182,
      "vision": 9183,
      "Ġfest": 9184,
      "Ġdil": 9185,
      "roit": 9186,
      "charge": 9187,
      "ĠLiving": 9188,
      "Ġspa": 9189,
      "Ġ41": 9190,
      "theless": 9191,
      "Ġfranch": 9192,
      "Ġgolden": 9193,
      "xx": 9194,
      "Ġtherap": 9195,
      "etch": 9196,
      "Ġtradem": 9197,
      "Ġdrinks": 9198,
      "Ġaccordance": 9199,
      "ĠCome": 9200,
      "urg": 9201,
      "Ġdisorder": 9202,
      "ĠChamber": 9203,
      "Ġdefine": 9204,
      "Ġarrival": 9205,
      "Ġvoted": 9206,
      "ĠReviews": 9207,
      "Craig": 9208,
      "arly": 9209,
      "sole": 9210,
      "ĠRegist": 9211,
      "Ġattending": 9212,
      "Ġutility": 9213,
      "Ġcelebration": 9214,
      "Ġconsultation": 9215,
      "Ġsurvival": 9216,
      "Ġportfolio": 9217,
      "Ġfiction": 9218,
      "Ġdies": 9219,
      "Ġhitting": 9220,
      "âĢ³": 9221,
      "ĠLas": 9222,
      "ĠOs": 9223,
      "mann": 9224,
      "Ġappointed": 9225,
      "achusetts": 9226,
      "Ġalert": 9227,
      "izon": 9228,
      "FOR": 9229,
      "Â©": 9230,
      "rogen": 9231,
      "ĠKh": 9232,
      "Ġdesper": 9233,
      "Ġexplo": 9234,
      "ĠNeed": 9235,
      "Ġinnoc": 9236,
      "Ġdivide": 9237,
      "ĠVietnam": 9238,
      "RC": 9239,
      "break": 9240,
      "ulum": 9241,
      "Ġdozen": 9242,
      "Ġinvestments": 9243,
      "Ġmovements": 9244,
      "Ġconsistently": 9245,
      "Ġmirror": 9246,
      "IO": 9247,
      "Ġcotton": 9248,
      "Ġbite": 9249,
      "Ġseeds": 9250,
      "Ġjail": 9251,
      "ĠChange": 9252,
      "Ġpreced": 9253,
      "ĠDead": 9254,
      "brid": 9255,
      "Ġdiscussions": 9256,
      "ĠSydney": 9257,
      "Ġdistributed": 9258,
      "Ġsurvive": 9259,
      "Ġranked": 9260,
      "Ġphenomen": 9261,
      "Feb": 9262,
      "KE": 9263,
      "Press": 9264,
      "function": 9265,
      "ĠSize": 9266,
      "Ġexport": 9267,
      "ĠEasy": 9268,
      "Ġkiss": 9269,
      "week": 9270,
      "ĠAdvis": 9271,
      "Ġpossession": 9272,
      "Ġpushing": 9273,
      "ĠStephen": 9274,
      "==": 9275,
      "Copyright": 9276,
      "MC": 9277,
      "aire": 9278,
      "Ġfur": 9279,
      "Ġmask": 9280,
      "Ġstability": 9281,
      "Ġorganis": 9282,
      "Ġroughly": 9283,
      "Ġ120": 9284,
      "osc": 9285,
      "ĠStone": 9286,
      "Ġtelephone": 9287,
      "Ġgrocer": 9288,
      "iour": 9289,
      "Ġtoile": 9290,
      "Ġlanguages": 9291,
      "ĠSep": 9292,
      "Ġprotocol": 9293,
      "Ġpride": 9294,
      "ĠBeaut": 9295,
      "Ġsinging": 9296,
      "Ġexceptional": 9297,
      "Ġcorrectly": 9298,
      "ĠSarah": 9299,
      "CL": 9300,
      "mble": 9301,
      "Ġfed": 9302,
      "ĠAh": 9303,
      "Ġconj": 9304,
      "ĠEX": 9305,
      "ockey": 9306,
      "Ġresulted": 9307,
      "ĠIndepend": 9308,
      "arring": 9309,
      "Ġcombine": 9310,
      "Ġimmune": 9311,
      "Ġpregnant": 9312,
      "Ġhanging": 9313,
      "Ġlibr": 9314,
      "ĠAB": 9315,
      "Ġ(âĢľ": 9316,
      "Ġ64": 9317,
      "Ġ800": 9318,
      "ĠAdvent": 9319,
      "Ġgrounds": 9320,
      "Ġlayers": 9321,
      "Step": 9322,
      "onymous": 9323,
      "zes": 9324,
      "Ġ!": 9325,
      "Ġwestern": 9326,
      "ĠMun": 9327,
      "ĠRub": 9328,
      "ouses": 9329,
      "Ġperm": 9330,
      "Ġbless": 9331,
[...]
