{
  "version": "1.0",
  "truncation": null,
  "padding": null,
  "added_tokens": [],
  "normalizer": null,
  "pre_tokenizer": {
    "type": "ByteLevel",
    "add_prefix_space": false,
    "trim_offsets": true,
    "use_regex": true
  },
  "post_processor": null,
  "decoder": null,
  "model": {
    "type": "BPE",
    "dropout": null,
    "unk_token": null,
    "continuing_subword_prefix": null,
    "end_of_word_suffix": null,
    "fuse_unk": false,
    "byte_fallback": false,
    "ignore_merges": false,
    "vocab": {
      "!": 0,
      "\"": 1,
      "#": 2,
      "$": 3,
      "%": 4,
      "&": 5,
      "'": 6,
      "(": 7,
      ")": 8,
      "*": 9,
      "+": 10,
      ",": 11,
      "-": 12,
      ".": 13,
      "/": 14,
      "0": 15,
      "1": 16,
      "2": 17,
      "3": 18,
      "4": 19,
      "5": 20,
      "6": 21,
      "7": 22,
      "8": 23,
      "9": 24,
      ":": 25,
      ";": 26,
      "<": 27,
      "=": 28,
      ">": 29,
      "?": 30,
      "@": 31,
      "A": 32,
      "B": 33,
      "C": 34,
      "D": 35,
      "E": 36,
      "F": 37,
      "G": 38,
      "H": 39,
      "I": 40,
      "J": 41,
      "K": 42,
      "L": 43,
      "M": 44,
      "N": 45,
      "O": 46,
      "P": 47,
      "Q": 48,
      "R": 49,
      "S": 50,
      "T": 51,
      "U": 52,
      "V": 53,
      "W": 54,
      "X": 55,
      "Y": 56,
      "Z": 57,
      "[": 58,
      "\\": 59,
      "]": 60,
      "^": 61,
      "_": 62,
      "`": 63,
      "a": 64,
      "b": 65,
      "c": 66,
      "d": 67,
      "e": 68,
      "f": 69,
      "g": 70,
      "h": 71,
      "i": 72,
      "j": 73,
      "k": 74,
      "l": 75,
      "m": 76,
      "n": 77,
      "o": 78,
      "p": 79,
      "q": 80,
      "r": 81,
      "s": 82,
      "t": 83,
      "u": 84,
      "v": 85,
      "w": 86,
      "x": 87,
      "y": 88,
      "z": 89,
      "|": 90,
      "}": 91,
      "~": 92,
      "¡": 93,
      "¢": 94,
      "£": 95,
      "¤": 96,
      "¥": 97,
      "¦": 98,
      "§": 99,
      "¨": 100,
      "©": 101,
      "ª": 102,
      "«": 103,
      "¬": 104,
      "®": 105,
      "¯": 106,
      "°": 107,
      "±": 108,
      "²": 109,
      "³": 110,
      "´": 111,
      "µ": 112,
      "¶": 113,
      "·": 114,
      "¸": 115,
      "¹": 116,
      "º": 117,
      "»": 118,
      "¼": 119,
      "½": 120,
      "¾": 121,
      "¿": 122,
      "Â": 123,
      "Ã": 124,
      "Ä": 125,
      "Å": 126,
      "Æ": 127,
      "Ç": 128,
      "È": 129,
      "É": 130,
      "Ê": 131,
      "Ë": 132,
      "Ì": 133,
      "Í": 134,
      "Î": 135,
      "Ï": 136,
      "Ð": 137,
      "Ñ": 138,
      "Ò": 139,
      "Ó": 140,
      "Ô": 141,
      "Õ": 142,
      "Ö": 143,
      "×": 144,
      "Ø": 145,
      "Ù": 146,
      "Ú": 147,
      "Û": 148,
      "à": 149,
      "á": 150,
      "â": 151,
      "ã": 152,
      "ä": 153,
      "å": 154,
      "æ": 155,
      "ç": 156,
      "è": 157,
      "é": 158,
      "ê": 159,
      "ë": 160,
      "ì": 161,
      "í": 162,
      "ï": 163,
      "ð": 164,
      "Ċ": 165,
      "Ġ": 166,
      "Ģ": 167,
      "ģ": 168,
      "Ĥ": 169,
      "ĥ": 170,
      "Ħ": 171,
      "ħ": 172,
      "Ĩ": 173,
      "ĩ": 174,
      "Ī": 175,
      "ī": 176,
      "Ĭ": 177,
      "ĭ": 178,
      "Į": 179,
      "į": 180,
      "İ": 181,
      "ı": 182,
      "Ĳ": 183,
      "ĳ": 184,
      "Ĵ": 185,
      "ĵ": 186,
      "Ķ": 187,
      "ķ": 188,
      "ĸ": 189,
      "Ĺ": 190,
      "ĺ": 191,
      "Ļ": 192,
      "ļ": 193,
      "Ľ": 194,
      "ľ": 195,
      "Ŀ": 196,
      "ŀ": 197,
      "Ł": 198,
      "ł": 199,
      "Ń": 200,
      "Ġt": 201,
      "Ġa": 202,
      "in": 203,
      "he": 204,
      "re": 205,
      "on": 206,
      "Ġthe": 207,
      "er": 208,
      "Ġs": 209,
      "Ġw": 210,
      "at": 211,
      "Ġo": 212,
      "nd": 213,
      "Ġc": 214,
      "it": 215,
      "or": 216,
      "es": 217,
      "is": 218,
      "en": 219,
      "ou": 220,
      "Ġf": 221,
      "Ġb": 222,
      "ing": 223,
      "Ġp": 224,
      "ed": 225,
      "an": 226,
      "al": 227,
      "Ġto": 228,
      "Ġm": 229,
      "ar": 230,
      "Ġand": 231,
      "Ġof": 232,
      "Ġin": 233,
      "Ġd": 234,
      "ic": 235,
      "Ġh": 236,
      "le": 237,
      "as": 238,
      "om": 239,
      "ion": 240,
      "Ġth": 241,
      "ll": 242,
      "âĢ": 243,
      "ent": 244,
      "Ġl": 245,
      "ve": 246,
      "st": 247,
      "Ġe": 248,
      "Ġre": 249,
      "Ġn": 250,
      "ro": 251,
      "Ġy": 252,
      "Ġg": 253,
      "ly": 254,
      "ĠI": 255,
      "ct": 256,
      "Ġbe": 257,
      "ĠT": 258,
      "ut": 259,
      "et": 260,
      "ot": 261,
      "ĠS": 262,
      "Ġis": 263,
      "id": 264,
      "Ġyou": 265,
      "ay": 266,
      "Ġon": 267,
      "Ġfor": 268,
      "ow": 269,
      "ĠA": 270,
      "ĠC": 271,
      "ur": 272,
      "se": 273,
      "im": 274,
      "ig": 275,
      "ad": 276,
      "ce": 277,
      "am": 278,
      "ver": 279,
      "Ġthat": 280,
      "Ġu": 281,
      "ch": 282,
      "il": 283,
      "ith": 284,
      "ation": 285,
      "Ġst": 286,
      "ol": 287,
      "ir": 288,
      "Ġwith": 289,
      "âĢĻ": 290,
      "ĠM": 291,
      "Ġit": 292,
      "Ġhe": 293,
      "Ġwe": 294,
      "ra": 295,
      "ĠB": 296,
      "Ġwh": 297,
      "Ġas": 298,
      "Ġan": 299,
      "ĠP": 300,
      "ill": 301,
      "ers": 302,
      "if": 303,
      "ke": 304,
      "Ġpro": 305,
      "ter": 306,
      "Ġha": 307,
      "Ġare": 308,
      "ge": 309,
      "ĠW": 310,
      "Ġcon": 311,
      "ld": 312,
      "oo": 313,
      "her": 314,
      "ul": 315,
      "Ġor": 316,
      "ate": 317,
      "ĠH": 318,
      "ĠD": 319,
      "ess": 320,
      "ck": 321,
      "pp": 322,
      "Ġat": 323,
      "Ġse": 324,
      "Ġcom": 325,
      "ore": 326,
      "ri": 327,
      "ment": 328,
      "Ġde": 329,
      "ĠThe": 330,
      "est": 331,
      "Ġ1": 332,
      "us": 333,
      "ĠF": 334,
      "ĠR": 335,
      "igh": 336,
      "th": 337,
      "ab": 338,
      "Ġwas": 339,
      "Ġ(": 340,
      "Ġ2": 341,
      "ist": 342,
      "rom": 343,
      "Ġne": 344,
      "pe": 345,
      "un": 346,
      "Ġex": 347,
      "res": 348,
      "ĠL": 349,
      "ant": 350,
      "qu": 351,
      "ity": 352,
      "Ġsu": 353,
      "ive": 354,
      "Ġv": 355,
      "Ġr": 356,
      "op": 357,
      "em": 358,
      "ĠâĢ": 359,
      "Ġhave": 360,
      "ort": 361,
      "ĠG": 362,
      "ĠN": 363,
      "ain": 364,
      "art": 365,
      "ĠE": 366,
      "Ġthis": 367,
      "Ġnot": 368,
      "ust": 369,
      "nt": 370,
      "Ġfrom": 371,
      "Ġsh": 372,
      "um": 373,
      "Ġyour": 374,
      "os": 375,
      "Ġby": 376,
      "and": 377,
      "el": 378,
      "ies": 379,
      "ight": 380,
      "Ġal": 381,
      "Ġch": 382,
      "Ġcan": 383,
      "all": 384,
      "ome": 385,
      "ie": 386,
      "Ġle": 387,
      "ard": 388,
      "ĠO": 389,
      "out": 390,
      "ould": 391,
      "Ġwill": 392,
      "red": 393,
      "our": 394,
      "ud": 395,
      "Ġab": 396,
      "Ġdo": 397,
      "gh": 398,
      "iv": 399,
      "ost": 400,
      "Ġwor": 401,
      "te": 402,
      "ally": 403,
      "00": 404,
      "'s": 405,
      "Ġpl": 406,
      "od": 407,
      "Ġall": 408,
      "ĠJ": 409,
      "rou": 410,
      "ast": 411,
      "ci": 412,
      "ear": 413,
      "Ġj": 414,
      "ak": 415,
      "ide": 416,
      "The": 417,
      "Ġk": 418,
      "ine": 419,
      "ag": 420,
      "ure": 421,
      "fe": 422,
      "Ġhas": 423,
      "pt": 424,
      "per": 425,
      "Ġso": 426,
      "Ġme": 427,
      "Ġbut": 428,
      "Ġwhe": 429,
      "ack": 430,
      "âĢĿ": 431,
      "ice": 432,
      "Ġus": 433,
      "ction": 434,
      "age": 435,
      "ich": 436,
      "ther": 437,
      "ac": 438,
      "Ġout": 439,
      "Ġad": 440,
      "pl": 441,
      "Ġup": 442,
      "ĠU": 443,
      "ake": 444,
      "Ġthey": 445,
      "one": 446,
      "ook": 447,
      "ind": 448,
      "ry": 449,
      "so": 450,
      "og": 451,
      "Ġtheir": 452,
      "are": 453,
      "ong": 454,
      "Ġmore": 455,
      "Ġcomp": 456,
      "Ġen": 457,
      "Ġhis": 458,
      "very": 459,
      "ime": 460,
      "ated": 461,
      "able": 462,
      "Ġmy": 463,
      "ood": 464,
      "ous": 465,
      "Ġte": 466,
      "cc": 467,
      "Ġone": 468,
      "ame": 469,
      "Ġcl": 470,
      "ans": 471,
      "ite": 472,
      "iz": 473,
      "ike": 474,
      "Ġsa": 475,
      "ip": 476,
      "Ġwho": 477,
      "orm": 478,
      "Ġabout": 479,
      "ĠTh": 480,
      "Ġim": 481,
      "ĠâĢľ": 482,
      "ĠIn": 483,
      "ib": 484,
      "Ġcont": 485,
      "Ġour": 486,
      "ru": 487,
      "Ġgo": 488,
      "ions": 489,
      "Ġman": 490,
      "ne": 491,
      "ance": 492,
      "Ġwhich": 493,
      "cl": 494,
      "du": 495,
      "Ġfe": 496,
      "ĠK": 497,
      "act": 498,
      "Ġ20": 499,
      "to": 500,
      "ia": 501,
      "ber": 502,
      "ase": 503,
      "ire": 504,
      "Ġres": 505,
      "ail": 506,
      "ff": 507,
      "ree": 508,
      "reat": 509,
      "ign": 510,
      "Ġwork": 511,
      "oc": 512,
      "ĠY": 513,
      "ays": 514,
      "ach": 515,
      "Ġper": 516,
      "ary": 517,
      "Ġapp": 518,
      "ap": 519,
      "..": 520,
      "ace": 521,
      "ult": 522,
      "Ġother": 523,
      "ations": 524,
      "ven": 525,
      "ick": 526,
      "ep": 527,
      "ass": 528,
      "au": 529,
      "ĠSt": 530,
      "ub": 531,
      "Ġoff": 532,
      "Ġyear": 533,
      "Ġtime": 534,
      "Ġsome": 535,
      "ical": 536,
      "Ġqu": 537,
      "ue": 538,
      "Ġlike": 539,
      "ile": 540,
      "Ġalso": 541,
      "Ġany": 542,
      "ount": 543,
      "Ġdis": 544,
      "Ġ\"": 545,
      "Ġhad": 546,
      "now": 547,
      "ark": 548,
      "ence": 549,
      "vel": 550,
      "ress": 551,
      "Ġget": 552,
      "Ġun": 553,
      "ord": 554,
      "form": 555,
      "ĠIt": 556,
      "Ġwere": 557,
      "Ġthem": 558,
      "Ġbeen": 559,
      "ings": 560,
      "Ġnew": 561,
      "erv": 562,
      "ĠV": 563,
      "Ġpart": 564,
      "Ġ3": 565,
      "Ġsp": 566,
      "ĠCh": 567,
      "Ġag": 568,
      "ond": 569,
      "Ġthere": 570,
      "ose": 571,
      "ove": 572,
      "Ġover": 573,
      "av": 574,
      "Ġpe": 575,
      "Ġwhen": 576,
      "Ġ-": 577,
      "Ġher": 578,
      "Ġwould": 579,
      "ough": 580,
      "ition": 581,
      "Ġwhat": 582,
      "Ġar": 583,
      "ial": 584,
      "Ġif": 585,
      "ink": 586,
      "ents": 587,
      "ors": 588,
      "ens": 589,
      "Ġthan": 590,
      "Ġtr": 591,
      "Ġjust": 592,
      "ound": 593,
      "Ġ201": 594,
      "Ġro": 595,
      "irst": 596,
      "Ġspe": 597,
      "ish": 598,
      "Ġpre": 599,
      "mer": 600,
      "port": 601,
      "ob": 602,
      "int": 603,
      "Ġbec": 604,
      "Ġknow": 605,
      "Ġrec": 606,
      "wn": 607,
      "ild": 608,
      "Ġinto": 609,
      "ople": 610,
      "Ġsaid": 611,
      "ĠWe": 612,
      "ren": 613,
      "ory": 614,
      "fter": 615,
      "nder": 616,
      "own": 617,
      "ov": 618,
      "ĠHe": 619,
      "Ġneed": 620,
      "Ġam": 621,
      "oy": 622,
      "itt": 623,
      "Ġsc": 624,
      "rough": 625,
      "ater": 626,
      "Ġhow": 627,
      "ade": 628,
      "Ġco": 629,
      "Ġtw": 630,
      "Ġacc": 631,
      "Ġits": 632,
      "ang": 633,
      "old": 634,
      "Ġno": 635,
      "vers": 636,
      "Ġpeople": 637,
      "lic": 638,
      "ning": 639,
      "Ġbl": 640,
      "Ġdes": 641,
      "Ġfirst": 642,
      "ons": 643,
      "Ġmay": 644,
      "we": 645,
      "Ġshe": 646,
      "ĠâĢĵ": 647,
      "clud": 648,
      "ces": 649,
      "ual": 650,
      "hed": 651,
      "cial": 652,
      "ian": 653,
      "Ġcomm": 654,
      "ause": 655,
      "amp": 656,
      "ates": 657,
      "'t": 658,
      "Ġonly": 659,
      "ft": 660,
      "ull": 661,
      "Ġ19": 662,
      "lp": 663,
      "Ġtra": 664,
      "Ġ4": 665,
      "Ġmake": 666,
      "day": 667,
      "ric": 668,
      "Ġbet": 669,
      "Ġback": 670,
      "ments": 671,
      "Ġmost": 672,
      "Ġadd": 673,
      "end": 674,
      "Ġpo": 675,
      "rent": 676,
      "tern": 677,
      "Ġlook": 678,
      "Ġem": 679,
      "Ġprov": 680,
      "round": 681,
      "Ġhelp": 682,
      "ĠRe": 683,
      "Ġevery": 684,
      "ĠThis": 685,
      "Ġind": 686,
      "ily": 687,
      "Ġfl": 688,
      "Ġ5": 689,
      "ating": 690,
      "Ġwant": 691,
      "Ġthrough": 692,
      "hing": 693,
      "iew": 694,
      "Ġcons": 695,
      "ious": 696,
      "Ġtwo": 697,
      "Ġinclud": 698,
      "les": 699,
      ").": 700,
      "Ġsee": 701,
      "gr": 702,
      "ise": 703,
      "cts": 704,
      "Ġuse": 705,
      "Ġwell": 706,
      "Ġprodu": 707,
      "Ġthese": 708,
      "Ġafter": 709,
      "Ġunder": 710,
      "ks": 711,
      "Ġbu": 712,
      "ph": 713,
      "iss": 714,
      "sel": 715,
      "Ġcould": 716,
      "oll": 717,
      "ew": 718,
      "ities": 719,
      "Ġact": 720,
      "xt": 721,
      "je": 722,
      "ced": 723,
      "ife": 724,
      "fore": 725,
      "Ġph": 726,
      "ert": 727,
      "urn": 728,
      "Th": 729,
      "Ġserv": 730,
      "aw": 731,
      "ific": 732,
      "pport": 733,
      "hen": 734,
      "Ġhim": 735,
      "Ġdif": 736,
      "row": 737,
      "Ġplay": 738,
      "uch": 739,
      "Ġvery": 740,
      "Ġrel": 741,
      "Ġyears": 742,
      "Ġsy": 743,
      "ting": 744,
      "Ġinc": 745,
      "Ġway": 746,
      "Ġeven": 747,
      "Ġreg": 748,
      "Ġgood": 749,
      "ont": 750,
      "erson": 751,
      "rit": 752,
      "Ġra": 753,
      "ange": 754,
      "Ġpr": 755,
      "Ġinv": 756,
      "ational": 757,
      "Ġnow": 758,
      "Ġmany": 759,
      "Ġrem": 760,
      "ock": 761,
      "Ġimp": 762,
      "Ġke": 763,
      "iness": 764,
      "lect": 765,
      "Ġev": 766,
      "oss": 767,
      "Ġthen": 768,
      "als": 769,
      "Ġcol": 770,
      "aking": 771,
      "Ġstud": 772,
      "ful": 773,
      "Ġ200": 774,
      "Ġwhere": 775,
      "cess": 776,
      "Ġdid": 777,
      "Ġsm": 778,
      "olog": 779,
      "com": 780,
      "Ġshould": 781,
      "oth": 782,
      "Ġright": 783,
      "ased": 784,
      "||": 785,
      "ĠYou": 786,
      "ffe": 787,
      "ible": 788,
      "ility": 789,
      "ident": 790,
      "ool": 791,
      "any": 792,
      "ts": 793,
      "Ġbecause": 794,
      "ĠUn": 795,
      "ath": 796,
      "ward": 797,
      "bs": 798,
      ".âĢĿ": 799,
      "Ġsec": 800,
      "ular": 801,
      "Ġstart": 802,
      "ures": 803,
      "),": 804,
      "ble": 805,
      "Ġdon": 806,
      "Ġown": 807,
      "ower": 808,
      "ĠWh": 809,
      "ied": 810,
      "ĠSe": 811,
      "get": 812,
      "erm": 813,
      "uring": 814,
      "Ġexper": 815,
      "Ġgreat": 816,
      "Ġac": 817,
      "ĠAs": 818,
      "Ġdown": 819,
      "Ġbus": 820,
      "Ġtoo": 821,
      "Ġgu": 822,
      "hip": 823,
      "ys": 824,
      "Ġfin": 825,
      "ty": 826,
      "Ġmuch": 827,
      "Ġsuch": 828,
      "Ġthink": 829,
      "Ġatt": 830,
      "ices": 831,
      "Ġent": 832,
      "ell": 833,
      "hes": 834,
      "ĠAnd": 835,
      "other": 836,
      "formation": 837,
      "Ġ$": 838,
      "stem": 839,
      "Ġagain": 840,
      "ative": 841,
      "up": 842,
      "Ġday": 843,
      "pect": 844,
      "ited": 845,
      "ĠCom": 846,
      "Ġlong": 847,
      "gan": 848,
      "its": 849,
      "ork": 850,
      "Ġ6": 851,
      "arch": 852,
      "Ġtake": 853,
      "Ġhigh": 854,
      "In": 855,
      "velop": 856,
      "ict": 857,
      "air": 858,
      "ics": 859,
      "Ġset": 860,
      "omet": 861,
      "alth": 862,
      "Ġinst": 863,
      "Ġdec": 864,
      "ener": 865,
      "Ġcall": 866,
      "Ġfind": 867,
      "Ġthose": 868,
      "rib": 869,
      "Ġbefore": 870,
      "Ġhere": 871,
      "Ġpres": 872,
      "Ġinte": 873,
      "Ġwee": 874,
      "Ġdoes": 875,
      "Ġend": 876,
      "Ġbel": 877,
      "und": 878,
      "Ġmade": 879,
      "Ġshow": 880,
      "Ġmon": 881,
      "Ġbeing": 882,
      "Ġ&": 883,
      "ner": 884,
      "ason": 885,
      "Ġread": 886,
      "Ġins": 887,
      "ĠAn": 888,
      "cy": 889,
      "ĠPro": 890,
      "Ġdiffe": 891,
      "ract": 892,
      "Ġbest": 893,
      "ĠDe": 894,
      "Ġperson": 895,
      "ix": 896,
      "Ġrequ": 897,
      "ollow": 898,
      "Ġworld": 899,
      "Ġass": 900,
      "Ġcar": 901,
      "ues": 902,
      "Ġmin": 903,
      "rest": 904,
      "alk": 905,
      "ually": 906,
      "âĢľ": 907,
      "Ġlast": 908,
      "ax": 909,
      "way": 910,
      "Ġloc": 911,
      "io": 912,
      "Ġsur": 913,
      "Ġhome": 914,
      "ĠIf": 915,
      "Ġfam": 916,
      "Ġbr": 917,
      "Ġsim": 918,
      "ng": 919,
      "chool": 920,
      "ank": 921,
      "20": 922,
      "Ġbusiness": 923,
      "Ġ10": 924,
      "ĠNew": 925,
      "ject": 926,
      "gram": 927,
      "Ġhand": 928,
      "Ġlife": 929,
      "Ġinformation": 930,
      "Ġ7": 931,
      "Ġche": 932,
      "Ġpol": 933,
      "Ġav": 934,
      "line": 935,
      "self": 936,
      "...": 937,
      "ving": 938,
      "ave": 939,
      "Ġear": 940,
      "We": 941,
      "ins": 942,
      "ublic": 943,
      "led": 944,
      "pen": 945,
      "Ġsystem": 946,
      "ince": 947,
      "ĠBut": 948,
      "Ġmark": 949,
      "Ġwhile": 950,
      "Ġdevelop": 951,
      "Ġtrans": 952,
      "Ġmed": 953,
      "Ġlead": 954,
      "atch": 955,
      "Ġcount": 956,
      "Ġmem": 957,
      "Ġused": 958,
      "Ġinter": 959,
      "ouse": 960,
      ".\"": 961,
      "li": 962,
      "ros": 963,
      "chn": 964,
      "land": 965,
      "ather": 966,
      "az": 967,
      "pr": 968,
      "Ġ8": 969,
      "Ġeach": 970,
      "ives": 971,
      "arm": 972,
      "Ġmod": 973,
      "Ġcre": 974,
      "Ġreally": 975,
      "Ġthough": 976,
      "ness": 977,
      "ple": 978,
      "Ġret": 979,
      "Ġsub": 980,
      "Ġnum": 981,
      "Ġgoing": 982,
      "view": 983,
      "Ġart": 984,
      "akes": 985,
      "Ġaround": 986,
      "Ġform": 987,
      "cept": 988,
      "imes": 989,
      "Ġdet": 990,
      "Ġfollow": 991,
      "ines": 992,
      "ĠAl": 993,
      "Ġdisc": 994,
      "Ġsomet": 995,
      "Ġcour": 996,
      "meric": 997,
      "ween": 998,
      "read": 999,
      ",âĢĿ": 1000,
      "Ġsupport": 1001,
      "ale": 1002,
      "Ġvis": 1003,
      "ience": 1004,
      "gg": 1005,
      "Ġdesign": 1006,
      "Ġstill": 1007,
      "ution": 1008,
      "ene": 1009,
      "Ġser": 1010,
      "oun": 1011,
      "ĠSh": 1012,
      "ctions": 1013,
      "ever": 1014,
      "roup": 1015,
      "Ġsay": 1016,
      "riend": 1017,
      "ality": 1018,
      "irect": 1019,
      "lease": 1020,
      "ved": 1021,
      "ets": 1022,
      "ize": 1023,
      "ash": 1024,
      "Ġcur": 1025,
      "Ġcomple": 1026,
      "Ġbook": 1027,
      "Ġteam": 1028,
      "Ġsame": 1029,
      "Ġsl": 1030,
      "Ġcare": 1031,
      "der": 1032,
      "Ġstr": 1033,
      "Ġadv": 1034,
      "Ġed": 1035,
      "Ġprovid": 1036,
      "ĠSo": 1037,
      "Ġpoint": 1038,
      "Ġgr": 1039,
      "ata": 1040,
      "Ġsk": 1041,
      "Ġbetween": 1042,
      "Ġdifferent": 1043,
      "Ġrun": 1044,
      "Ġsign": 1045,
      "ivers": 1046,
      "ĠAr": 1047,
      "Ġchar": 1048,
      "ah": 1049,
      "ages": 1050,
      "ĠFor": 1051,
      "This": 1052,
      "Ġaut": 1053,
      "the": 1054,
      "man": 1055,
      "Ġthree": 1056,
      "Ġchild": 1057,
      "Ġfeel": 1058,
      "ĠThey": 1059,
      "ars": 1060,
      "ittle": 1061,
      "Ġfound": 1062,
      "ute": 1063,
      "Ġcommun": 1064,
      "Ġplace": 1065,
      "Ġboth": 1066,
      "Wh": 1067,
      "ĠCl": 1068,
      "Ġ9": 1069,
      "It": 1070,
      "ĠBe": 1071,
      "Ġcle": 1072,
      "Ġprogram": 1073,
      "Ġstate": 1074,
      "Ġgl": 1075,
      "ex": 1076,
      "ustom": 1077,
      "Ġfew": 1078,
      "Ġexp": 1079,
      "ĠAmeric": 1080,
      "000": 1081,
      "Ġeas": 1082,
      "Ġbo": 1083,
      "less": 1084,
      "ways": 1085,
      "ional": 1086,
      "Ġlot": 1087,
      "Ġpost": 1088,
      "Ġrep": 1089,
      "Ġpur": 1090,
      "Ġhapp": 1091,
      "ody": 1092,
      "ists": 1093,
      "ĠLe": 1094,
      "be": 1095,
      "ired": 1096,
      "Ġfree": 1097,
      "ten": 1098,
      "ton": 1099,
      "ized": 1100,
      "Ġmet": 1101,
      "Ġfun": 1102,
      "ves": 1103,
      "ety": 1104,
      "orn": 1105,
      "Ġthings": 1106,
      "ames": 1107,
      "Ġext": 1108,
      "Ġlove": 1109,
      "ient": 1110,
      "vern": 1111,
      "ology": 1112,
      "Ġfull": 1113,
      "ĠAd": 1114,
      "Ġlar": 1115,
      "thing": 1116,
      "Ġimport": 1117,
      "ffect": 1118,
      "Ġprocess": 1119,
      "Ġtop": 1120,
      "Ġgener": 1121,
      "Ġprof": 1122,
      "Ġmonth": 1123,
      "uc": 1124,
      "oh": 1125,
      "Ġlittle": 1126,
      "Ġhealth": 1127,
      "Ġreal": 1128,
      "ants": 1129,
      "Ġreport": 1130,
      "Ġlist": 1131,
      "Ġfact": 1132,
      "ature": 1133,
      "Ġtechn": 1134,
      "cent": 1135,
      "ailable": 1136,
      "Ġduring": 1137,
      "ital": 1138,
      "ross": 1139,
      "Ġplan": 1140,
      "ished": 1141,
      "bers": 1142,
      "cer": 1143,
      "Ġkeep": 1144,
      "ield": 1145,
      ",\"": 1146,
      "ug": 1147,
      "Ġdef": 1148,
      "Ġcome": 1149,
      "con": 1150,
      "arn": 1151,
      "Ġopen": 1152,
      "Ġref": 1153,
      "Ġob": 1154,
      "Ġfil": 1155,
      "ering": 1156,
      "Ġappro": 1157,
      "Ġposs": 1158,
      "att": 1159,
      "Ġcent": 1160,
      "tt": 1161,
      "Ġfr": 1162,
      "rand": 1163,
      "Ġint": 1164,
      "Ġsomething": 1165,
      "Ġusing": 1166,
      "ically": 1167,
      "Ġpartic": 1168,
      "Ġinterest": 1169,
      "Ġrest": 1170,
      "Ġiss": 1171,
      "ms": 1172,
      "Ġcontin": 1173,
      "10": 1174,
      "ared": 1175,
      "oad": 1176,
      "Ġgot": 1177,
      "iving": 1178,
      "gy": 1179,
      "ention": 1180,
      "ined": 1181,
      "atur": 1182,
      "oot": 1183,
      "Ġresp": 1184,
      "ĠBl": 1185,
      "Ġwithout": 1186,
      "Ġbig": 1187,
      "Ġmight": 1188,
      "ining": 1189,
      "Ġresult": 1190,
      "Ġcor": 1191,
      "Ġcustom": 1192,
      "Ġput": 1193,
      "Ġmust": 1194,
      "Ġbetter": 1195,
      "Ġallow": 1196,
      "Ġnext": 1197,
      "ĠThere": 1198,
      "Ġconf": 1199,
      "Ġfriend": 1200,
      "Ġty": 1201,
      "Ġpri": 1202,
      "Ġpat": 1203,
      "Ġcompany": 1204,
      "Ġanother": 1205,
      "Ġgame": 1206,
      "Ġgroup": 1207,
      "Ġpass": 1208,
      "Ġincluding": 1209,
      "Ġtry": 1210,
      "Ġvar": 1211,
      "ger": 1212,
      "Ġsmall": 1213,
      "Ġhead": 1214,
      "Ġschool": 1215,
      "Ġdist": 1216,
      "Ġavailable": 1217,
      "Ġalways": 1218,
      "Ġsol": 1219,
      "Ġstand": 1220,
      "Ġtri": 1221,
      "Ġweek": 1222,
      "Ġquest": 1223,
      "ĠShe": 1224,
      "Ġsecond": 1225,
      "Ġide": 1226,
      "ĠâĢĺ": 1227,
      "Ġorgan": 1228,
      "iqu": 1229,
      "âĢ¦": 1230,
      "Ġmain": 1231,
      "reen": 1232,
      "Ġsince": 1233,
      "ik": 1234,
      "Ġdata": 1235,
      "Ġdri": 1236,
      "uss": 1237,
      "ploy": 1238,
      "Ġnever": 1239,
      "ĠHow": 1240,
      "Ġfamily": 1241,
      "stand": 1242,
      "Ġmus": 1243,
      "Ġval": 1244,
      "Ġwr": 1245,
      "Ġmov": 1246,
      "Ġwater": 1247,
      "Ġmarket": 1248,
      "Ġopt": 1249,
      "ier": 1250,
      "Ġhard": 1251,
      "rol": 1252,
      "ample": 1253,
      "Ġbuild": 1254,
      "ertain": 1255,
      "Ġnumber": 1256,
      "ately": 1257,
      "ĠAll": 1258,
      "ware": 1259,
      "Ġrece": 1260,
      "Ġcr": 1261,
      "Ġincre": 1262,
      "aj": 1263,
      "ĠFr": 1264,
      "ĠEx": 1265,
      "ism": 1266,
      "Ġold": 1267,
      "ling": 1268,
      "Ġask": 1269,
      "illion": 1270,
      "Ġproble": 1271,
      "Ġpower": 1272,
      "Ġpublic": 1273,
      "Ġpay": 1274,
      "ision": 1275,
      "Ġperform": 1276,
      "Ġexpl": 1277,
      "ĠOn": 1278,
      "ĠInd": 1279,
      "Ġbro": 1280,
      "ps": 1281,
      "ral": 1282,
      "ĠâĢĶ": 1283,
      "19": 1284,
      "Ġclass": 1285,
      "Ġdays": 1286,
      "ted": 1287,
      "ĠPl": 1288,
      "Ġwom": 1289,
      "Ġimportant": 1290,
      "els": 1291,
      "Ġsure": 1292,
      "rence": 1293,
      "me": 1294,
      "âĢĶ": 1295,
      "ĠIs": 1296,
      "Ġlevel": 1297,
      "Ġdirect": 1298,
      "Ġinf": 1299,
      "iversity": 1300,
      "Ġagainst": 1301,
      "Ġspec": 1302,
      "ense": 1303,
      "rist": 1304,
      "ĠQ": 1305,
      "Ġexperience": 1306,
      "Ġel": 1307,
      "Ġlaw": 1308,
      "oney": 1309,
      "ER": 1310,
      "ior": 1311,
      "If": 1312,
      "ccess": 1313,
      "Ġve": 1314,
      "Ġwin": 1315,
      "Ġservice": 1316,
      "ird": 1317,
      "Ġgive": 1318,
      "Ġseem": 1319,
      "Ġi": 1320,
      "ok": 1321,
      "Ġcost": 1322,
      "Ġhum": 1323,
      "work": 1324,
      "Ġca": 1325,
      "co": 1326,
      "pend": 1327,
      "inal": 1328,
      "Ġable": 1329,
      "uck": 1330,
      "Ġless": 1331,
      "Ġbelie": 1332,
      "Ġtest": 1333,
      "Ġ0": 1334,
      "Ġlight": 1335,
      "ote": 1336,
      "Ġlet": 1337,
      "Ġ18": 1338,
      "ards": 1339,
      "Ġinvest": 1340,
      "Ġfour": 1341,
      "raph": 1342,
      "Ġsays": 1343,
      "Ġbre": 1344,
      "Ġgrow": 1345,
      "Ġpos": 1346,
      "ases": 1347,
      "Ġ'": 1348,
      "ered": 1349,
      "Ġ12": 1350,
      "ours": 1351,
      "Ġunt": 1352,
      "here": 1353,
      "ĠZ": 1354,
      "ably": 1355,
      ".,": 1356,
      "ĠTe": 1357,
      "Ġrese": 1358,
      "ĠCon": 1359,
      "Ġonline": 1360,
      "Ġcurrent": 1361,
      "Ġmeet": 1362,
      "gin": 1363,
      "Ġwithin": 1364,
      "Ġleg": 1365,
      "ats": 1366,
      "ration": 1367,
      "Ġsit": 1368,
      "Ġdi": 1369,
      "ivid": 1370,
      "Ġprovide": 1371,
      "Ġgovern": 1372,
      "He": 1373,
      "Ġorder": 1374,
      "ĠPh": 1375,
      "Ġpop": 1376,
      "ĠCol": 1377,
      "ope": 1378,
      "cing": 1379,
      "pos": 1380,
      "ator": 1381,
      "pped": 1382,
      "Ġ.": 1383,
      "outh": 1384,
      "ien": 1385,
      "Ġturn": 1386,
      "ron": 1387,
      "50": 1388,
      "Ġoper": 1389,
      "ffic": 1390,
      "ann": 1391,
      "ret": 1392,
      "ently": 1393,
      "Ġann": 1394,
      "Ġproper": 1395,
      "Ġtoday": 1396,
      "Ġaway": 1397,
      "pping": 1398,
      "med": 1399,
      "ains": 1400,
      "ĠThat": 1401,
      "Ġhist": 1402,
      "Ġbeh": 1403,
      "ients": 1404,
      "Ġest": 1405,
      "aut": 1406,
      "ission": 1407,
      "ember": 1408,
      "ott": 1409,
      "Ġsing": 1410,
      "ww": 1411,
      "ider": 1412,
      "ury": 1413,
      "ised": 1414,
      "ec": 1415,
      "Ġfood": 1416,
      "Ġprote": 1417,
      "Ġdem": 1418,
      "Ġprev": 1419,
      "ney": 1420,
      "Ġnight": 1421,
      "Ġsupp": 1422,
      "Ġjob": 1423,
      "Ġview": 1424,
      "hor": 1425,
      "ĠUS": 1426,
      "Ġworking": 1427,
      "ged": 1428,
      "oint": 1429,
      "Ġaccess": 1430,
      "ium": 1431,
      "ruct": 1432,
      "Ġmaking": 1433,
      "ording": 1434,
      "min": 1435,
      "You": 1436,
      "ream": 1437,
      "lish": 1438,
      "Ġpresent": 1439,
      "atter": 1440,
      "Ġarea": 1441,
      "As": 1442,
      "iron": 1443,
      "Ġprom": 1444,
      "ley": 1445,
      "Ġeng": 1446,
      "Ġaddition": 1447,
      "por": 1448,
      "ured": 1449,
      "Ġcourse": 1450,
      "Ġservices": 1451,
      "tend": 1452,
      "Ġtru": 1453,
      "Ġchange": 1454,
      "ified": 1455,
      "ĠOr": 1456,
      "Ġchang": 1457,
      "Ġcase": 1458,
      "Ġuntil": 1459,
      "aring": 1460,
      "30": 1461,
      "Ġspecial": 1462,
      "Ġequ": 1463,
      "ĠTo": 1464,
      "ĠComm": 1465,
      "fect": 1466,
      "ead": 1467,
      "Ġthing": 1468,
      "orth": 1469,
      "ids": 1470,
      "of": 1471,
      "Ġcap": 1472,
      "ĠSp": 1473,
      "Ġsal": 1474,
      "Ġpast": 1475,
      "Ġlocal": 1476,
      "ĠSc": 1477,
      "ina": 1478,
      "soci": 1479,
      "'re": 1480,
      "irl": 1481,
      "IN": 1482,
      "Ġdev": 1483,
      "ĠRes": 1484,
      "ories": 1485,
      "Ġ[": 1486,
      "Ġchildren": 1487,
      "Ġstudents": 1488,
      "ĠTr": 1489,
      "Ġword": 1490,
      "Ġwhy": 1491,
      "by": 1492,
      "ability": 1493,
      "ify": 1494,
      "Ġleft": 1495,
      "ĠMan": 1496,
      "Ġphot": 1497,
      "cu": 1498,
      "eng": 1499,
      "omm": 1500,
      "Ġkind": 1501,
      "Ġfac": 1502,
      "sh": 1503,
      "Ġeffect": 1504,
      "ump": 1505,
      "Ġconst": 1506,
      "Ġpract": 1507,
      "ĠNo": 1508,
      "Ġlooking": 1509,
      "lection": 1510,
      "Ġseason": 1511,
      "conom": 1512,
      "augh": 1513,
      "Ġintern": 1514,
      "Ġterm": 1515,
      "iting": 1516,
      "Ġlarge": 1517,
      "Ġwebs": 1518,
      "joy": 1519,
      "ries": 1520,
      "icle": 1521,
      "12": 1522,
      "ĠCent": 1523,
      "Ġbas": 1524,
      "Ġ15": 1525,
      "Ġunderstand": 1526,
      "Ġmoney": 1527,
      "Ġtalk": 1528,
      "Ġdr": 1529,
      "Ġemploy": 1530,
      "itions": 1531,
      "Ġevent": 1532,
      "ohn": 1533,
      "let": 1534,
      "Ġprofess": 1535,
      "Ġtimes": 1536,
      "bo": 1537,
      "Ġroom": 1538,
      "Ġname": 1539,
      "arent": 1540,
      "ization": 1541,
      "ising": 1542,
      "ĠMar": 1543,
      "Ġoften": 1544,
      "Ġsuccess": 1545,
      "ĠCan": 1546,
      "Ġenough": 1547,
      "Ġalong": 1548,
      "Ġtell": 1549,
      "Ġmove": 1550,
      "Ġwrit": 1551,
      "Ġactiv": 1552,
      "Ġvide": 1553,
      "Ġapplic": 1554,
      "Ġnear": 1555,
      "Ġhaving": 1556,
      "Ġdra": 1557,
      "Ġcond": 1558,
      "Ġsite": 1559,
      "ajor": 1560,
      "agement": 1561,
      "Ġdidn": 1562,
      "part": 1563,
      "gether": 1564,
      "Ġtogether": 1565,
      "Ġimpro": 1566,
      "ĠChrist": 1567,
      "ready": 1568,
      "Ġcomplete": 1569,
      "ived": 1570,
      "Ġtreat": 1571,
      "ode": 1572,
      "ĠWhen": 1573,
      "ination": 1574,
      "utes": 1575,
      "Ġes": 1576,
      "11": 1577,
      "alf": 1578,
      "aster": 1579,
      "Ġever": 1580,
      "ential": 1581,
      "Ġindust": 1582,
      "ocus": 1583,
      "Ġrecord": 1584,
      "Ġsw": 1585,
      "Ġcheck": 1586,
      "Ġcountry": 1587,
      "ills": 1588,
      "ane": 1589,
      "veral": 1590,
      "urs": 1591,
      "ĠEng": 1592,
      "une": 1593,
      "iven": 1594,
      "Ġproduct": 1595,
      "Ġcreat": 1596,
      "Ġcommunity": 1597,
      "aim": 1598,
      "Ġhouse": 1599,
      "enn": 1600,
      "Ġlearn": 1601,
      "Ġshort": 1602,
      "Ġpain": 1603,
      "Ġcalled": 1604,
      "ĠUniversity": 1605,
      "Ġproducts": 1606,
      "ee": 1607,
      "Ġexpect": 1608,
      "ĠWhat": 1609,
      "Ġbecome": 1610,
      "aterial": 1611,
      "itive": 1612,
      "Ġair": 1613,
      "Ġfar": 1614,
      "ĠMay": 1615,
      "ĠCo": 1616,
      "Ġ199": 1617,
      "Ġbody": 1618,
      "Ġmen": 1619,
      "Ġcame": 1620,
      "ĠAt": 1621,
      "Ġbit": 1622,
      "Ġside": 1623,
      "Ġdone": 1624,
      "Ġline": 1625,
      "ern": 1626,
      "br": 1627,
      "What": 1628,
      "ividual": 1629,
      "Ġ30": 1630,
      "Ġstory": 1631,
      "ĠWith": 1632,
      "Ġconne": 1633,
      "Ġalready": 1634,
      "Ġbene": 1635,
      "ush": 1636,
      "Ġfollowing": 1637,
      "ows": 1638,
      "Ġoffic": 1639,
      "Ġinclude": 1640,
      "'m": 1641,
      "side": 1642,
      "Ġmembers": 1643,
      "Ġcontrol": 1644,
      "ĠGod": 1645,
      "Ġoffer": 1646,
      "ots": 1647,
      "Ġmar": 1648,
      "viron": 1649,
      "Ġbuy": 1650,
      "ained": 1651,
      "Ġocc": 1652,
      "ency": 1653,
      "Ġfeat": 1654,
      "son": 1655,
      "ored": 1656,
      "Ġwent": 1657,
      "Ġ11": 1658,
      "ery": 1659,
      "Ġcertain": 1660,
      "For": 1661,
      "Ġ|": 1662,
      "Ġaccount": 1663,
      "Ġenjoy": 1664,
      "Ġtrad": 1665,
      "Ġothers": 1666,
      "Ġpossible": 1667,
      "Ġsocial": 1668,
      "Ġmil": 1669,
      "ON": 1670,
      "Ġpersonal": 1671,
      "Ġseveral": 1672,
      "Ġfore": 1673,
      "Ġresearch": 1674,
      "Ġpa": 1675,
      "Ġreview": 1676,
      "ĠAmerican": 1677,
      "Ġmean": 1678,
      "Ġreturn": 1679,
      "Ġgetting": 1680,
      "ĠCar": 1681,
      "rop": 1682,
      "Ġgovernment": 1683,
      "St": 1684,
      "Ġnews": 1685,
      "ither": 1686,
      "rap": 1687,
      "fer": 1688,
      "ands": 1689,
      "ĠFl": 1690,
      "Ġmeans": 1691,
      "Ġlive": 1692,
      "pportun": 1693,
      "Ġtre": 1694,
      "Ġmakes": 1695,
      "Ġneeds": 1696,
      "Ġleast": 1697,
      "Ġtook": 1698,
      "Ġhold": 1699,
      "Ġmusic": 1700,
      "Ġbased": 1701,
      "uture": 1702,
      "ances": 1703,
      "Ġmajor": 1704,
      "Ġmillion": 1705,
      "ails": 1706,
      "Ġdoing": 1707,
      "Ġindividual": 1708,
      "oice": 1709,
      "Ġeasy": 1710,
      "Ġcou": 1711,
      "Ġlim": 1712,
      "Ġmind": 1713,
      "Ġpot": 1714,
      "'ve": 1715,
      "fort": 1716,
      "Ġfocus": 1717,
      "ES": 1718,
      "Ġla": 1719,
      "Ġcamp": 1720,
      "osed": 1721,
      "Ġfav": 1722,
      "ique": 1723,
      "Ġyoung": 1724,
      "ĠJohn": 1725,
      "uff": 1726,
      "wh": 1727,
      "Ġeduc": 1728,
      "eral": 1729,
      "ones": 1730,
      "Ġquality": 1731,
      "Ġdoesn": 1732,
      "ians": 1733,
      "Ġthought": 1734,
      "Ġbenef": 1735,
      "atic": 1736,
      "Ġproject": 1737,
      "err": 1738,
      "idd": 1739,
      "mber": 1740,
      "Ġnon": 1741,
      "ript": 1742,
      "orts": 1743,
      "ĠMy": 1744,
      "lement": 1745,
      "AR": 1746,
      "Ġvisit": 1747,
      "not": 1748,
      "Ġwebsite": 1749,
      "AT": 1750,
      "Ġwon": 1751,
      "Ġpercent": 1752,
      "Ġactually": 1753,
      "wards": 1754,
      "app": 1755,
      "Ġopportun": 1756,
      "Ġwomen": 1757,
      "most": 1758,
      "ched": 1759,
      "aps": 1760,
      "ides": 1761,
      "rodu": 1762,
      "Ġclear": 1763,
      "cially": 1764,
      "vironment": 1765,
      "Ġcomes": 1766,
      "Ġorig": 1767,
      "for": 1768,
      "aff": 1769,
      "oor": 1770,
      "ches": 1771,
      "AN": 1772,
      "Ġacross": 1773,
      "Ġmom": 1774,
      "ully": 1775,
      "over": 1776,
      "Ġparticular": 1777,
      "Ġcreate": 1778,
      "crib": 1779,
      "Ġeconom": 1780,
      "Ġfund": 1781,
      "eb": 1782,
      "ĠApp": 1783,
      "ĠSu": 1784,
      "Ġnet": 1785,
      "uro": 1786,
      "ĠSte": 1787,
      "Ġelect": 1788,
      "Ġstarted": 1789,
      "ĠAm": 1790,
      "Ġreason": 1791,
      "Ġlow": 1792,
      "ama": 1793,
      "There": 1794,
      "Ġhuman": 1795,
      "Ġcharact": 1796,
      "Ġmaterial": 1797,
      "Ġdeal": 1798,
      "Ġey": 1799,
      "Ġanal": 1800,
      "aken": 1801,
      "lished": 1802,
      "Ġdevelopment": 1803,
      "Ġyet": 1804,
      "urther": 1805,
      "Ġquick": 1806,
      "arr": 1807,
      "Ġonce": 1808,
      "--": 1809,
      "Ġtold": 1810,
      "Ġhappen": 1811,
      "yle": 1812,
      "Ġinvol": 1813,
      "Ġtax": 1814,
      "ference": 1815,
      "ai": 1816,
      "ctor": 1817,
      "Ġlink": 1818,
      "ony": 1819,
      "Ġcontact": 1820,
      "ĠÂ": 1821,
      "Ġce": 1822,
      "lf": 1823,
      "Ġfuture": 1824,
      "ĠRep": 1825,
      "Ġhours": 1826,
      "Ġmult": 1827,
      "Ġkey": 1828,
      "Ġsoft": 1829,
      "Ġexample": 1830,
      "che": 1831,
      "Ġpar": 1832,
      "Ġvers": 1833,
      "Ġearly": 1834,
      "Ġlater": 1835,
      "Ġ16": 1836,
      "Ġpolit": 1837,
      "Ġcity": 1838,
      "OR": 1839,
      "And": 1840,
      "ister": 1841,
      "Ġcut": 1842,
      "Ġfriends": 1843,
      "ĠUnited": 1844,
      "âĢĵ": 1845,
      "ĠX": 1846,
      "ateg": 1847,
      "Ġstrong": 1848,
      "ĠMed": 1849,
      "ĠBr": 1850,
      "ograph": 1851,
      "Ġfive": 1852,
      "Ġ--": 1853,
      "Ġbring": 1854,
      "Ġbeaut": 1855,
      "ift": 1856,
      "Ġmonths": 1857,
      "!!": 1858,
      "mm": 1859,
      "verage": 1860,
      "cle": 1861,
      "An": 1862,
      "Ġfield": 1863,
      "Ġredu": 1864,
      "ges": 1865,
      "ips": 1866,
      "ulation": 1867,
      "Ġris": 1868,
      "ource": 1869,
      "Ġident": 1870,
      "ape": 1871,
      "'ll": 1872,
      "Ġshare": 1873,
      "Ġemail": 1874,
      "Ġperfect": 1875,
      "Ġspecific": 1876,
      "book": 1877,
      "ĠIntern": 1878,
      "Ġknown": 1879,
      "Ġrequire": 1880,
      "ĠThese": 1881,
      "Ġstudy": 1882,
      "Ġtyp": 1883,
      "Ġ14": 1884,
      "de": 1885,
      "room": 1886,
      "Ġauthor": 1887,
      "use": 1888,
      "Ġbelow": 1889,
      "Ġheart": 1890,
      "Ġwa": 1891,
      "iday": 1892,
      "Ġhot": 1893,
      "Ġhig": 1894,
      "illed": 1895,
      "Ġbegin": 1896,
      "ĠState": 1897,
      "Ġvideo": 1898,
      "Ġtem": 1899,
      "Ġitem": 1900,
      "Ġappear": 1901,
      "Ġpress": 1902,
      "Ġdiscuss": 1903,
      "Ġclose": 1904,
      "resent": 1905,
      "But": 1906,
      "light": 1907,
      "oon": 1908,
      "ĠWor": 1909,
      "Ġprob": 1910,
      "Ġproblem": 1911,
      "Ġet": 1912,
      "ourn": 1913,
      "Ġhistory": 1914,
      "ober": 1915,
      "par": 1916,
      "lling": 1917,
      "acy": 1918,
      "Ġpriv": 1919,
      "utions": 1920,
      "Ġcult": 1921,
      "jects": 1922,
      "icy": 1923,
      "Ġstep": 1924,
      "reet": 1925,
      "lev": 1926,
      "ĠOne": 1927,
      "Ġcomb": 1928,
      "ĠCont": 1929,
      "Ġface": 1930,
      "15": 1931,
      "ster": 1932,
      "Ġ2012": 1933,
      "iod": 1934,
      "Ġpack": 1935,
      "itor": 1936,
      "sw": 1937,
      "ĠNe": 1938,
      "unch": 1939,
      "Ġsound": 1940,
      "Ġcompet": 1941,
      "Ġamong": 1942,
      "Ġpick": 1943,
      "Ġwalk": 1944,
      "ĠSy": 1945,
      "ners": 1946,
      "ensive": 1947,
      "play": 1948,
      "oose": 1949,
      "ĠEn": 1950,
      "anies": 1951,
      "urity": 1952,
      "ources": 1953,
      "Ġaddress": 1954,
      "//": 1955,
      "Ġeverything": 1956,
      "Ġvari": 1957,
      "Ġpage": 1958,
      "Ġmor": 1959,
      "Ġhalf": 1960,
      "osp": 1961,
      "Ġindustry": 1962,
      "Ġwhole": 1963,
      "Ġchall": 1964,
      "ball": 1965,
      "Ġsingle": 1966,
      "ler": 1967,
      "Ġrespons": 1968,
      "go": 1969,
      "ĠPr": 1970,
      "How": 1971,
      "Ġtaking": 1972,
      "Ġpurch": 1973,
      "new": 1974,
      "Ġener": 1975,
      "atural": 1976,
      "ison": 1977,
      "Ġstay": 1978,
      "ued": 1979,
      "ural": 1980,
      "imate": 1981,
      "Ġseen": 1982,
      "Ġago": 1983,
      "Ġminutes": 1984,
      "lege": 1985,
      "idence": 1986,
      "load": 1987,
      "ĠDo": 1988,
      "When": 1989,
      "ino": 1990,
      "Ġrelations": 1991,
      "Ġsomeone": 1992,
      "ned": 1993,
      "Ġwind": 1994,
      "though": 1995,
      "ĠCal": 1996,
      "Ġant": 1997,
      "Ġens": 1998,
      "ilar": 1999,
      "ĠInst": 2000,
      "Ġbelieve": 2001,
      "Ġenc": 2002,
      "ilities": 2003,
      "On": 2004,
      "Ġwhether": 2005,
      "Ġquestion": 2006,
      "hod": 2007,
      "ĠHowever": 2008,
      "Ġgames": 2009,
      "So": 2010,
      "16": 2011,
      "Ġspace": 2012,
      "fic": 2013,
      "Ġpie": 2014,
      "ĠComp": 2015,
      "Ġgirl": 2016,
      "ging": 2017,
      "Ġbreak": 2018,
      "aces": 2019,
      "Ġsci": 2020,
      "pecially": 2021,
      "ilt": 2022,
      "ille": 2023,
      "Ġ17": 2024,
      "cted": 2025,
      "rain": 2026,
      "selves": 2027,
      "ĠNot": 2028,
      "abor": 2029,
      "ided": 2030,
      "Ġtot": 2031,
      "ĠYork": 2032,
      "rew": 2033,
      "Ġhope": 2034,
      "pro": 2035,
      "Ġclaim": 2036,
      "Ġenvironment": 2037,
      "irm": 2038,
      "ply": 2039,
      "ĠCount": 2040,
      "mb": 2041,
      "Ġpub": 2042,
      "Ġmedia": 2043,
      "Ġste": 2044,
      "ĠMc": 2045,
      "Ġage": 2046,
      "ung": 2047,
      "hers": 2048,
      "Ġsuper": 2049,
      "ibility": 2050,
      "Ġanything": 2051,
      "Ġgiven": 2052,
      "ledge": 2053,
      "org": 2054,
      "Ġ100": 2055,
      "Ġ13": 2056,
      "Ġissues": 2057,
      "tain": 2058,
      "Ġcomput": 2059,
      "ental": 2060,
      "rict": 2061,
      "iver": 2062,
      "fully": 2063,
      "Ġfront": 2064,
      "Ġfre": 2065,
      "rown": 2066,
      "Ġstore": 2067,
      "af": 2068,
      "ggest": 2069,
      "Ġbad": 2070,
      "18": 2071,
      "Ġphys": 2072,
      "Ġmanag": 2073,
      "iously": 2074,
      "ogn": 2075,
      "irt": 2076,
      "Ġamount": 2077,
      "Ġess": 2078,
      "Ch": 2079,
      "Ġfall": 2080,
      "Ġabove": 2081,
      "Ġcommon": 2082,
      "ĠMe": 2083,
      "Ġmess": 2084,
      "Ġmeas": 2085,
      "://": 2086,
      "Ġprice": 2087,
      "Ġplease": 2088,
      "ĠCity": 2089,
      "Ġdeli": 2090,
      "13": 2091,
      "ĠServ": 2092,
      "Ġclean": 2093,
      "Ġjo": 2094,
      "Ġdue": 2095,
      "ĠGu": 2096,
      "Ġresults": 2097,
      "urch": 2098,
      "ĠStates": 2099,
      "Re": 2100,
      "Ġcontent": 2101,
      "Ġ25": 2102,
      "Ġeff": 2103,
      "dd": 2104,
      "Ġrecomm": 2105,
      "Ġwatch": 2106,
      "Ġidea": 2107,
      "Ġsearch": 2108,
      "come": 2109,
      "Ġcra": 2110,
      "Ġ24": 2111,
      "Ġmot": 2112,
      "Ġperiod": 2113,
      "itted": 2114,
      "ators": 2115,
      "Ġrecommend": 2116,
      "vent": 2117,
      "asing": 2118,
      "Ġz": 2119,
      "ĠNational": 2120,
      "AS": 2121,
      "Ġtool": 2122,
      "Ġcred": 2123,
      "Ġconsider": 2124,
      "Ġseries": 2125,
      "ĠEuro": 2126,
      "ĠMin": 2127,
      "Ġquestions": 2128,
      "Ġalmost": 2129,
      "Ġsix": 2130,
      "Ġcompanies": 2131,
      "Ġfurther": 2132,
      "Ġwond": 2133,
      "Ġ/": 2134,
      "Ġ#": 2135,
      "ox": 2136,
      "IS": 2137,
      "Ġrange": 2138,
      "ĠPres": 2139,
      "Ġtechnology": 2140,
      "back": 2141,
      "uation": 2142,
      "Ġvol": 2143,
      "14": 2144,
      "Ġsuggest": 2145,
      "Ġdeb": 2146,
      "ams": 2147,
      "Ġeither": 2148,
      "ED": 2149,
      "Ġnecess": 2150,
      "Ġtaken": 2151,
      "Ġcell": 2152,
      "used": 2153,
      "Ġenergy": 2154,
      "Ġaud": 2155,
      "Ġthird": 2156,
      "EN": 2157,
      "Ġconcer": 2158,
      "ried": 2159,
      "ancial": 2160,
      "Ġcal": 2161,
      "Ġport": 2162,
      "Ġblog": 2163,
      "Ġbar": 2164,
      "ĠChe": 2165,
      "Ġaff": 2166,
      "Ġdou": 2167,
      "Ġbuilding": 2168,
      "anks": 2169,
      "Ġtravel": 2170,
      "Ġblack": 2171,
      "Ġself": 2172,
      "Ġpoints": 2173,
      "opy": 2174,
      "Ġtrying": 2175,
      "ops": 2176,
      "Ġeveryone": 2177,
      "Ġworks": 2178,
      "Ġtrack": 2179,
      "Ġbrand": 2180,
      "Ġentire": 2181,
      "Ġfavor": 2182,
      "Ġcir": 2183,
      "ask": 2184,
      "Ġrepl": 2185,
      "ĠYour": 2186,
      "elt": 2187,
      "200": 2188,
      "Ġlikely": 2189,
      "Ġfeatures": 2190,
      "Ġfilm": 2191,
      "ively": 2192,
      "cript": 2193,
      "Ġwar": 2194,
      "gle": 2195,
      "ficult": 2196,
      "cell": 2197,
      "Ġ:": 2198,
      "AL": 2199,
      "obal": 2200,
      ".)": 2201,
      "ples": 2202,
      "yl": 2203,
      "Ġcrit": 2204,
      "ĠGo": 2205,
      "Ġmag": 2206,
      "ĠOur": 2207,
      "Ġ2013": 2208,
      "Ġpict": 2209,
      "Ġsent": 2210,
      "Ġareas": 2211,
      "ĠJan": 2212,
      "time": 2213,
      "__": 2214,
      "gress": 2215,
      "Ġdocu": 2216,
      "Ġpret": 2217,
      "year": 2218,
      "ĠMr": 2219,
      "Ġwanted": 2220,
      "Ġmanagement": 2221,
      "rie": 2222,
      "Ġtraining": 2223,
      "Ġespecially": 2224,
      "gest": 2225,
      "itting": 2226,
      "vert": 2227,
      "rug": 2228,
      "Ġcustomers": 2229,
      "Ġsex": 2230,
      "Ġsimple": 2231,
      "ĠTw": 2232,
      "Ġtype": 2233,
      "ication": 2234,
      "Ġ50": 2235,
      "lex": 2236,
      "ites": 2237,
      "Ġhost": 2238,
      "Ġland": 2239,
      "Ġmiss": 2240,
      "Ġcompl": 2241,
      "Ġquite": 2242,
      "ires": 2243,
      "Ġrelationship": 2244,
      "Ġexc": 2245,
      "my": 2246,
      "ĠEd": 2247,
      "25": 2248,
      "ĠAfter": 2249,
      "Ġinstall": 2250,
      "resh": 2251,
      "Ġsignific": 2252,
      "aur": 2253,
      "Ġhowever": 2254,
      "oid": 2255,
      "Ġweb": 2256,
      "IT": 2257,
      "ili": 2258,
      "Ġvalue": 2259,
      "Ġcoming": 2260,
      "Ġprobably": 2261,
      "Ġvarious": 2262,
      "Ġoffice": 2263,
      "Ġdam": 2264,
      "Ġneeded": 2265,
      "umb": 2266,
      "omes": 2267,
      "ĠEurope": 2268,
      "Ġdeath": 2269,
      "minist": 2270,
      "ially": 2271,
      "Ġdifficult": 2272,
      "IC": 2273,
      "ights": 2274,
      "Ġtext": 2275,
      "Ġrather": 2276,
      "ĠWorld": 2277,
      "ification": 2278,
      "Ġrequired": 2279,
      "To": 2280,
      "Ġelse": 2281,
      "itch": 2282,
      "Ġasked": 2283,
      "oved": 2284,
      "Ġred": 2285,
      "Ġissue": 2286,
      "iful": 2287,
      "ĠPe": 2288,
      "Ġimprove": 2289,
      "ĠGe": 2290,
      "Ġparent": 2291,
      "Ġaccording": 2292,
      "Ġdig": 2293,
      "Ġabs": 2294,
      "Ġpretty": 2295,
      "ĠSec": 2296,
      "Ġparticip": 2297,
      "Ġbehind": 2298,
      "Ġconsum": 2299,
      "Ġwhite": 2300,
      "ibr": 2301,
      "Ġevents": 2302,
      "chie": 2303,
      "yn": 2304,
      "Ġliving": 2305,
      "Ġperformance": 2306,
      "where": 2307,
      "empt": 2308,
      "ĠAust": 2309,
      "itten": 2310,
      "ĠNorth": 2311,
      "Ġoffers": 2312,
      "nding": 2313,
      "Ġposition": 2314,
      "Ġprovides": 2315,
      "Ġsong": 2316,
      "ĠGl": 2317,
      "Ġexist": 2318,
      "ĠWill": 2319,
      "ĠPart": 2320,
      "olution": 2321,
      "fact": 2322,
      "Ġproblems": 2323,
      "17": 2324,
      "icated": 2325,
      "Ġfoot": 2326,
      "oe": 2327,
      "angu": 2328,
      "Ġsimply": 2329,
      "Ġsoon": 2330,
      "iol": 2331,
      "Ġisn": 2332,
      "ĠDep": 2333,
      "Ġassist": 2334,
      "Ġoil": 2335,
      "ĠSchool": 2336,
      "roll": 2337,
      "Ġnothing": 2338,
      "Ġmethod": 2339,
      "Ġswe": 2340,
      "Ġansw": 2341,
      "Ġways": 2342,
      "val": 2343,
      "apt": 2344,
      "Ġwords": 2345,
      "Ġinit": 2346,
      "nes": 2347,
      "Ġupon": 2348,
      "Ġadded": 2349,
      "Ġgra": 2350,
      "ruction": 2351,
      "Ġrisk": 2352,
      "ĠQu": 2353,
      "Ġdeterm": 2354,
      "reme": 2355,
      "Ġinfl": 2356,
      "Ġ2011": 2357,
      "ĠHis": 2358,
      "Ġhy": 2359,
      "Ġcharacter": 2360,
      "Ġexperien": 2361,
      "Ġcontinue": 2362,
      "Ġprofessional": 2363,
      "eth": 2364,
      "aching": 2365,
      "ĠMark": 2366,
      "ĠBar": 2367,
      "icro": 2368,
      "Ġpopular": 2369,
      "âĢ¢": 2370,
      "ief": 2371,
      "ĠGr": 2372,
      "pril": 2373,
      "Ġprovided": 2374,
      "ables": 2375,
      "Ġrepresent": 2376,
      "ĠSouth": 2377,
      "Ã©": 2378,
      "itional": 2379,
      "Ġaccept": 2380,
      "Ġmatter": 2381,
      "ze": 2382,
      "ĠPark": 2383,
      "Ġfire": 2384,
      "ĠAf": 2385,
      "Ġsize": 2386,
      "head": 2387,
      "Ġproperty": 2388,
      "Ġcard": 2389,
      "Ġinn": 2390,
      "Ġsimilar": 2391,
      "Ġweeks": 2392,
      "Ġtou": 2393,
      "US": 2394,
      "amer": 2395,
      "Ġaction": 2396,
      "Ġfail": 2397,
      "Ġannoun": 2398,
      "Ġstaff": 2399,
      "anc": 2400,
      "Ġupd": 2401,
      "Ġhtt": 2402,
      "Ġground": 2403,
      "ĠCenter": 2404,
      "Ġrequest": 2405,
      "Ġstat": 2406,
      "Ġprep": 2407,
      "ring": 2408,
      "Ġtakes": 2409,
      "Ġlog": 2410,
      "ĠSm": 2411,
      "ĠAmerica": 2412,
      "Ġwriting": 2413,
      "Ġparty": 2414,
      "....": 2415,
      "Al": 2416,
      "ole": 2417,
      "Ġphone": 2418,
      "urance": 2419,
      "Ġheld": 2420,
      "ees": 2421,
      "Ġroad": 2422,
      "ĠOct": 2423,
      "Ġextra": 2424,
      "Ġrad": 2425,
      "ĠDr": 2426,
      "Ġsignificant": 2427,
      "ules": 2428,
      "ades": 2429,
      "Ġhon": 2430,
      "Ġknowledge": 2431,
      "Ġnatural": 2432,
      "uge": 2433,
      "reg": 2434,
      "Ġrole": 2435,
      "Ġtrue": 2436,
      "ĠDes": 2437,
      "na": 2438,
      "ĠDis": 2439,
      "Ġimpact": 2440,
      "ĠTra": 2441,
      "Ġseems": 2442,
      "ĠPer": 2443,
      "RE": 2444,
      "Ġgeneral": 2445,
      "clus": 2446,
      "obile": 2447,
      "Ġincludes": 2448,
      "aily": 2449,
      "Ġskin": 2450,
      "Ġforward": 2451,
      "ises": 2452,
      "ume": 2453,
      "Ġdel": 2454,
      "Ġfinal": 2455,
      "Ġassoci": 2456,
      "ĠJu": 2457,
      "22": 2458,
      "pper": 2459,
      "Ġbed": 2460,
      "Ġrecent": 2461,
      "AC": 2462,
      "ada": 2463,
      "medi": 2464,
      "ĠCor": 2465,
      "Ġestab": 2466,
      "Ġchanges": 2467,
      "ival": 2468,
      "Ġattack": 2469,
      "face": 2470,
      "Ġcook": 2471,
      "overed": 2472,
      "leased": 2473,
      "Ġshows": 2474,
      "Ġcoll": 2475,
      "Ġrecogn": 2476,
      "Ġincrease": 2477,
      "ĠCounty": 2478,
      "ĠMarch": 2479,
      "Ġcannot": 2480,
      "Ġoutside": 2481,
      "put": 2482,
      "Ġeducation": 2483,
      "Ġdate": 2484,
      "lt": 2485,
      "Ġregard": 2486,
      "ĠAct": 2487,
      "Ġcover": 2488,
      "Ġhit": 2489,
      "ĠKe": 2490,
      "ĠJust": 2491,
      "Ġinde": 2492,
      "Ġkids": 2493,
      "ID": 2494,
      "Ġanim": 2495,
      "Ġsaw": 2496,
      "Ġmodel": 2497,
      "Ġstop": 2498,
      "aving": 2499,
      "Ġtreatment": 2500,
      "ĠAb": 2501,
      "ĠAug": 2502,
      "Ġnational": 2503,
      "Ġfunction": 2504,
      "Ġcourt": 2505,
      "right": 2506,
      "Ġball": 2507,
      "Ġyourself": 2508,
      "Ġunique": 2509,
      "arget": 2510,
      "Ġfig": 2511,
      "ĠSome": 2512,
      "ĠJune": 2513,
      "Ġwide": 2514,
      "Ġselect": 2515,
      "Ġengine": 2516,
      "eter": 2517,
      "Ġtable": 2518,
      "Ġ2010": 2519,
      "Ġinj": 2520,
      "hib": 2521,
      "Ġcreated": 2522,
      "Ġmoment": 2523,
      "Ġop": 2524,
      "ude": 2525,
      "ĠPresident": 2526,
      "ĠDav": 2527,
      "Ġrunning": 2528,
      "Ġprint": 2529,
      "Ġgen": 2530,
      "irit": 2531,
      "uary": 2532,
      "amed": 2533,
      "astic": 2534,
      "Ġmember": 2535,
      "Ġfinancial": 2536,
      "arter": 2537,
      "Ġleave": 2538,
      "anced": 2539,
      "Ġarticle": 2540,
      "Ġnetwork": 2541,
      "Ġdom": 2542,
      "60": 2543,
      "Ġpark": 2544,
      "Ġloss": 2545,
      "Ġsum": 2546,
      "Ġlonger": 2547,
      "Ġofficial": 2548,
      "Ġdefin": 2549,
      "ĠTH": 2550,
      "iter": 2551,
      "oring": 2552,
      "Ġoriginal": 2553,
      "Ġlay": 2554,
      "ufact": 2555,
      "Ġsle": 2556,
      "idge": 2557,
      "Ġstri": 2558,
      "Ġopp": 2559,
      "Ġbase": 2560,
      "Ġlat": 2561,
      "Ġachie": 2562,
      "Ġtit": 2563,
      "oph": 2564,
      "Ġdesigned": 2565,
      "Ġdescrib": 2566,
      "Ġcontrib": 2567,
      "80": 2568,
      "iff": 2569,
      "earch": 2570,
      "Ġsafe": 2571,
      "gu": 2572,
      "ĠPol": 2573,
      "ederal": 2574,
      "Ġopportunity": 2575,
      "Ġsecurity": 2576,
      "iet": 2577,
      "Ġcouple": 2578,
      "Ġcomputer": 2579,
      "Ġbooks": 2580,
      "Ġfa": 2581,
      "atory": 2582,
      "Ġthroughout": 2583,
      "ales": 2584,
      "Ġblood": 2585,
      "Ġspeak": 2586,
      "Ġbeautiful": 2587,
      "erc": 2588,
      "Ġagree": 2589,
      "Ġrate": 2590,
      "based": 2591,
      "ĠOb": 2592,
      "Ġexam": 2593,
      "Ġsystems": 2594,
      "aced": 2595,
      "Ġlate": 2596,
      "ciety": 2597,
      "Ġtown": 2598,
      "Ġcause": 2599,
      "ĠIm": 2600,
      "Ġdog": 2601,
      "oura": 2602,
      "Ġnorm": 2603,
      "Ġhigher": 2604,
      "Ġworth": 2605,
      "Ġusually": 2606,
      "iddle": 2607,
      "Ġplayers": 2608,
      "Ġrespect": 2609,
      "Ġleaders": 2610,
      "Ġpolitical": 2611,
      "Ġemb": 2612,
      "rem": 2613,
      "Ġsoftware": 2614,
      "Ġetc": 2615,
      "Ġlost": 2616,
      "Ġready": 2617,
      "Ġapplication": 2618,
      "Ġoptions": 2619,
      "Ġmorning": 2620,
      "Ġcoun": 2621,
      "ĠAg": 2622,
      "ĠReg": 2623,
      "Ġreceive": 2624,
      "ĠBo": 2625,
      "Ġversion": 2626,
      "izing": 2627,
      "Ġusers": 2628,
      "Ġill": 2629,
      "ĠInc": 2630,
      "ceed": 2631,
      "Ġsales": 2632,
      "oud": 2633,
      "ĠApril": 2634,
      "Ġmedical": 2635,
      "Ġsense": 2636,
      "Ġexpress": 2637,
      "cil": 2638,
      "Ġthemselves": 2639,
      "Ġreceived": 2640,
      "Ġsens": 2641,
      "ĠStud": 2642,
      "Ġdest": 2643,
      "Ġrecently": 2644,
      "ysis": 2645,
      "Ġdetails": 2646,
      "aining": 2647,
      "Ġanyone": 2648,
      "Ġbott": 2649,
      "ana": 2650,
      "Ġfast": 2651,
      "Ġensure": 2652,
      "AM": 2653,
      "Ġbox": 2654,
      "ĠBy": 2655,
      "Ġinside": 2656,
      "mit": 2657,
      "Ġrights": 2658,
      "ffects": 2659,
      "sy": 2660,
      "Ġx": 2661,
      "Ġfit": 2662,
      "edd": 2663,
      "Ġreading": 2664,
      "Ġcollect": 2665,
      "off": 2666,
      "Ġnice": 2667,
      "ĠSpe": 2668,
      "Ġregular": 2669,
      "aturday": 2670,
      "Ġblock": 2671,
      "uth": 2672,
      "Ġmach": 2673,
      "Ġ,": 2674,
      "Ġprior": 2675,
      "Ġtotal": 2676,
      "40": 2677,
      "sc": 2678,
      "ĠWest": 2679,
      "Ġpotential": 2680,
      "ha": 2681,
      "arning": 2682,
      "Ġhands": 2683,
      "Ġgrowth": 2684,
      "ĠHigh": 2685,
      "ague": 2686,
      "Ġmeeting": 2687,
      "ournal": 2688,
      "ĠHar": 2689,
      "ashing": 2690,
      "Ġformer": 2691,
      "Ġcolor": 2692,
      "aign": 2693,
      "Ġri": 2694,
      "Ġdeep": 2695,
      "Ġpolicy": 2696,
      "fl": 2697,
      "irth": 2698,
      "oogle": 2699,
      "oes": 2700,
      "ological": 2701,
      "ĠNow": 2702,
      "Ġlives": 2703,
      "Ġchoose": 2704,
      "ĠDay": 2705,
      "ett": 2706,
      "Ġcareer": 2707,
      "Ġwonder": 2708,
      "ached": 2709,
      "Ġprivate": 2710,
      "ĠHouse": 2711,
      "like": 2712,
      "Ġprograms": 2713,
      "ĠSept": 2714,
      "Ġcurrently": 2715,
      "cast": 2716,
      "oke": 2717,
      "Ġele": 2718,
      "Ġshall": 2719,
      "pri": 2720,
      "Ġbal": 2721,
      "Ġneg": 2722,
      "artment": 2723,
      "ĠEl": 2724,
      "Ġclick": 2725,
      "aging": 2726,
      "Ġpractice": 2727,
      "Ġdepend": 2728,
      "Ġitself": 2729,
      "Ġhappy": 2730,
      "ession": 2731,
      "lier": 2732,
      "nds": 2733,
      "Ġstra": 2734,
      "Ġobs": 2735,
      "ĠPa": 2736,
      "hel": 2737,
      "ĠDon": 2738,
      "Ġbegan": 2739,
      "Ġcomfort": 2740,
      "Ġterms": 2741,
      "Ġvia": 2742,
      "Ġmass": 2743,
      "Ġpaper": 2744,
      "Ġpers": 2745,
      "Ġitems": 2746,
      "icles": 2747,
      "Ġpric": 2748,
      "Ġattend": 2749,
      "Ġteac": 2750,
      "ek": 2751,
      "Ġdeg": 2752,
      "istic": 2753,
      "Ġdrive": 2754,
      "With": 2755,
      "Ġ2014": 2756,
      "rought": 2757,
      "Ġadditional": 2758,
      "Ġintrodu": 2759,
      "ĠMich": 2760,
      "action": 2761,
      "Ġgoal": 2762,
      "Ġdefe": 2763,
      "Ġut": 2764,
      "ĠFeb": 2765,
      "Ġchance": 2766,
      "Ġwasn": 2767,
      "Ġ...": 2768,
      "Ġcountries": 2769,
      "My": 2770,
      "Ġexact": 2771,
      "ences": 2772,
      "Ġstruct": 2773,
      "Ġpan": 2774,
      "ground": 2775,
      "Ġ21": 2776,
      "Ġep": 2777,
      "Ġworked": 2778,
      "ĠAssoci": 2779,
      "Ġur": 2780,
      "Ġdecision": 2781,
      "Ġfight": 2782,
      "Ġmatch": 2783,
      "Ġlo": 2784,
      "ese": 2785,
      "Ġcorre": 2786,
      "Ġdrug": 2787,
      "Ġplaying": 2788,
      "Ġsat": 2789,
      "Ġquickly": 2790,
      "ament": 2791,
      "attle": 2792,
      "Ġgoes": 2793,
      "All": 2794,
      "Ġarri": 2795,
      "haps": 2796,
      "anguage": 2797,
      "atives": 2798,
      "uses": 2799,
      "azing": 2800,
      "Ġboard": 2801,
      "24": 2802,
      "Ġround": 2803,
      "Ġcele": 2804,
      "ĠSan": 2805,
      "ux": 2806,
      "ĠChar": 2807,
      "Ġwall": 2808,
      "Ġviol": 2809,
      "Ġprim": 2810,
      "airs": 2811,
      "Ġhair": 2812,
      "Ġlevels": 2813,
      "Ġincluded": 2814,
      "unt": 2815,
      "Ġinsp": 2816,
      "bor": 2817,
      "ny": 2818,
      "Ġsqu": 2819,
      "ĠJuly": 2820,
      "ĠMore": 2821,
      "ĠEnglish": 2822,
      "imum": 2823,
      "Ġproduction": 2824,
      "ĠCalif": 2825,
      "Ġappe": 2826,
      "Ġcool": 2827,
      "Ġpresident": 2828,
      "adem": 2829,
      "Ġmother": 2830,
      "At": 2831,
      "ham": 2832,
      "inary": 2833,
      "Ġability": 2834,
      "Ġtarget": 2835,
      "ĠArt": 2836,
      "Ġclos": 2837,
      "21": 2838,
      "Ġveh": 2839,
      "Ġ40": 2840,
      "Ġnecessary": 2841,
      "Ġcases": 2842,
      "Ġsil": 2843,
      "ĠAustral": 2844,
      "Ġinvolved": 2845,
      "Ġmix": 2846,
      "ĠWar": 2847,
      "Ġrev": 2848,
      "Ġgave": 2849,
      "pose": 2850,
      "asons": 2851,
      "ĠPar": 2852,
      "atform": 2853,
      "Ġwritten": 2854,
      "Ġbecame": 2855,
      "ĠCour": 2856,
      "OS": 2857,
      "Our": 2858,
      "OT": 2859,
      "Ġcredit": 2860,
      "Ġuser": 2861,
      "Ġpatients": 2862,
      "Ġrelease": 2863,
      "Ġstock": 2864,
      "su": 2865,
      "ecut": 2866,
      "Ġlatest": 2867,
      "Ġdisplay": 2868,
      "ĠUs": 2869,
      "Ġimmedi": 2870,
      "Ġwoman": 2871,
      "erve": 2872,
      "onse": 2873,
      "Ġsubject": 2874,
      "ĠEm": 2875,
      "iam": 2876,
      "hood": 2877,
      "ĠBu": 2878,
      "reng": 2879,
      "Ġlegal": 2880,
      "Ġvict": 2881,
      "Ġ2009": 2882,
      "ming": 2883,
      "ĠSw": 2884,
      "Ġdise": 2885,
      "ĠWhile": 2886,
      "Ġinternational": 2887,
      "Ġlooks": 2888,
      "mon": 2889,
      "Ġcondu": 2890,
      "ĠOff": 2891,
      "Ġconditions": 2892,
      "ornia": 2893,
      "ris": 2894,
      "Ġimm": 2895,
      "ING": 2896,
      "Ġcustomer": 2897,
      "Ġmyself": 2898,
      "aby": 2899,
      "Ġactivities": 2900,
      "ĠPat": 2901,
      "ĠHealth": 2902,
      "ville": 2903,
      "Ġsus": 2904,
      "Ġstyle": 2905,
      "ications": 2906,
      "ĠTV": 2907,
      "ĠRed": 2908,
      "onday": 2909,
      "Ġremember": 2910,
      "Ġinvestig": 2911,
      "Ġbur": 2912,
      "Ġemer": 2913,
      "ĠBro": 2914,
      "Ġsett": 2915,
      "Ġlearning": 2916,
      "Ġjud": 2917,
      "unday": 2918,
      "Ġgrad": 2919,
      "Ġbuilt": 2920,
      "That": 2921,
      "ĠInt": 2922,
      "ĠMon": 2923,
      "bit": 2924,
      "Ġstudent": 2925,
      "Ġdecided": 2926,
      "Ġsurpr": 2927,
      "str": 2928,
      "Ġinstead": 2929,
      "Ġsummer": 2930,
      "Ġeasily": 2931,
      "OU": 2932,
      "ought": 2933,
      "Ġapproach": 2934,
      "Ġpropos": 2935,
      "itte": 2936,
      "Ġmanufact": 2937,
      "itc": 2938,
      "Ġgroups": 2939,
      "Sh": 2940,
      "ĠDepartment": 2941,
      "Ġcampaign": 2942,
      "ĠNews": 2943,
      "Ġhimself": 2944,
      "Ġfavorite": 2945,
      "just": 2946,
      "Ġfelt": 2947,
      "Ġsaf": 2948,
      "Ġstandard": 2949,
      "'d": 2950,
      "Ġmention": 2951,
      "Ġboy": 2952,
      "Ġautom": 2953,
      "ĠAfric": 2954,
      "wood": 2955,
      "Ġfile": 2956,
      "illing": 2957,
      "Ġones": 2958,
      "ĠVal": 2959,
      "itter": 2960,
      "Ġscreen": 2961,
      "Ph": 2962,
      "Ġ23": 2963,
      "Ġattempt": 2964,
      "Ġstru": 2965,
      "Ġprojects": 2966,
      "ky": 2967,
      "Ġmovie": 2968,
      "23": 2969,
      "Ġcy": 2970,
      "Ġbank": 2971,
      "Ġeyes": 2972,
      "press": 2973,
      "Ġcand": 2974,
      "itary": 2975,
      "aly": 2976,
      "Ġlab": 2977,
      "ĠBrit": 2978,
      "Ġsn": 2979,
      "ester": 2980,
      "Ġskills": 2981,
      "oul": 2982,
      "ule": 2983,
      "Ġglobal": 2984,
      "ovember": 2985,
      "ĠMus": 2986,
      "Ġtour": 2987,
      "Ġadminist": 2988,
      "ĠAugust": 2989,
      "Ġpred": 2990,
      "Ġrelated": 2991,
      "iction": 2992,
      "Ġdraw": 2993,
      "ening": 2994,
      "rote": 2995,
      "Ġdownload": 2996,
      "aught": 2997,
      "Ġlower": 2998,
      "Ġcosts": 2999,
      "ĠHere": 3000,
      "ĠSci": 3001,
      "Ġexcept": 3002,
      "ĠFriday": 3003,
      "Ġord": 3004,
      "Ġideas": 3005,
      "Be": 3006,
      "Ġleading": 3007,
      "Ġfresh": 3008,
      "Ġreported": 3009,
      "hern": 3010,
      "Ġpolice": 3011,
      "erous": 3012,
      "Ġsaying": 3013,
      "aves": 3014,
      "Ġaw": 3015,
      "Ġplans": 3016,
      "Ġbi": 3017,
      "ĠSer": 3018,
      "key": 3019,
      "idered": 3020,
      "Ġimage": 3021,
      "Ġtouch": 3022,
      "Ġpull": 3023,
      "Ġfair": 3024,
      "ĠOf": 3025,
      "Ġplayed": 3026,
      "Ġwrong": 3027,
      "ension": 3028,
      "Ġsun": 3029,
      "ĠFace": 3030,
      "Ġdecl": 3031,
      "Ġallows": 3032,
      "fficient": 3033,
      "Ġknew": 3034,
      "enty": 3035,
      "Ġ22": 3036,
      "ray": 3037,
      "Ġhuge": 3038,
      "ests": 3039,
      "ĠSen": 3040,
      "Ġsepar": 3041,
      "Ġheard": 3042,
      "Ġ2015": 3043,
      "ĠSaturday": 3044,
      "Ġattention": 3045,
      "Ġdead": 3046,
      "ishing": 3047,
      "Ġdocument": 3048,
      "Cl": 3049,
      "Ġapply": 3050,
      "ipment": 3051,
      "Ġsell": 3052,
      "Ġencoura": 3053,
      "ĠCalifornia": 3054,
      "oom": 3055,
      "cip": 3056,
      "Ġaffect": 3057,
      "Ġhor": 3058,
      "Ġhear": 3059,
      "Ġcomment": 3060,
      "ĠJanuary": 3061,
      "Ġeffective": 3062,
      "ivity": 3063,
      "hold": 3064,
      "usiness": 3065,
      "Ġrout": 3066,
      "70": 3067,
      "Ġcas": 3068,
      "Ġled": 3069,
      "aged": 3070,
      "ĠBlack": 3071,
      "Ġdrink": 3072,
      "ald": 3073,
      "Ġprotect": 3074,
      "ĠHer": 3075,
      "Ġdepart": 3076,
      "Ġparts": 3077,
      "Ġmodern": 3078,
      "One": 3079,
      "Ġstates": 3080,
      "Ġgets": 3081,
      "Ġintegr": 3082,
      "Ġinteresting": 3083,
      "Ġplatform": 3084,
      "Ġclients": 3085,
      "Ġchoice": 3086,
      "www": 3087,
      "Ġmid": 3088,
      "ĠFin": 3089,
      "Ġaverage": 3090,
      "Ġresources": 3091,
      "ĠInternational": 3092,
      "ns": 3093,
      "Ġdiv": 3094,
      "board": 3095,
      "amb": 3096,
      "Ġtal": 3097,
      "alt": 3098,
      "Ġvariety": 3099,
      "ĠJe": 3100,
      "Ġdevice": 3101,
      "Ġwrite": 3102,
      "Ġpath": 3103,
      "Ġbrought": 3104,
      "avy": 3105,
      "ma": 3106,
      "iple": 3107,
      "pre": 3108,
      "Ġthinking": 3109,
      "ĠThen": 3110,
      "Ġ2008": 3111,
      "pite": 3112,
      "Ġtrust": 3113,
      "Ġenter": 3114,
      "cious": 3115,
      "Ġ198": 3116,
      "Ġcenter": 3117,
      "Ġanswer": 3118,
      "Ġparents": 3119,
      "Ġsafety": 3120,
      "Ġcross": 3121,
      "itution": 3122,
      "Ġexpected": 3123,
      "Ġprevent": 3124,
      "Ġdaily": 3125,
      "cember": 3126,
      "verse": 3127,
      "ĠAdd": 3128,
      "Ġsave": 3129,
      "sec": 3130,
      "Ġweight": 3131,
      "ael": 3132,
      "Ġwood": 3133,
      "Ġstreng": 3134,
      "wise": 3135,
      "ĠOctober": 3136,
      "AP": 3137,
      "king": 3138,
      "Ġcompletely": 3139,
      "Ġsold": 3140,
      "aries": 3141,
      "Ġhol": 3142,
      "Ġbenefits": 3143,
      "Ġnature": 3144,
      "itation": 3145,
      "cription": 3146,
      "ĠGerm": 3147,
      "ĠFrom": 3148,
      "Ġdress": 3149,
      "Ġpurchase": 3150,
      "name": 3151,
      "Ġfell": 3152,
      "Ġconsidered": 3153,
      "Ġsource": 3154,
      "Ġeconomic": 3155,
      "Ġgreen": 3156,
      "iring": 3157,
      "aker": 3158,
      "Ġgives": 3159,
      "Ġprin": 3160,
      "Ġgiving": 3161,
      "Ġpublished": 3162,
      "enge": 3163,
      "Ġpiece": 3164,
      "iding": 3165,
      "99": 3166,
      "Ġexcell": 3167,
      "Ġsubs": 3168,
      "ĠNet": 3169,
      "ption": 3170,
      "ruary": 3171,
      "Ġarch": 3172,
      "rel": 3173,
      "LE": 3174,
      "ocr": 3175,
      "Ġinflu": 3176,
      "Ġlif": 3177,
      "isc": 3178,
      "Ġ2017": 3179,
      "After": 3180,
      "Ġ+": 3181,
      "Ġrock": 3182,
      "Ġstarting": 3183,
      "Ġtypes": 3184,
      "Ġorganization": 3185,
      "Ġ2016": 3186,
      "Ġmarketing": 3187,
      "Ġ28": 3188,
      "Ġamazing": 3189,
      "ĠRead": 3190,
      "Ġchalleng": 3191,
      "cies": 3192,
      "Ġcopy": 3193,
      "Ġoption": 3194,
      "Ġcontract": 3195,
      "Ġnation": 3196,
      "Ġbud": 3197,
      "aste": 3198,
      "Ġsection": 3199,
      "uel": 3200,
      "itute": 3201,
      "Ġqual": 3202,
      "orge": 3203,
      "ĠPost": 3204,
      "ondon": 3205,
      "Ġdetail": 3206,
      "\".": 3207,
      "Ġdoor": 3208,
      "ashington": 3209,
      "Ġdark": 3210,
      "OM": 3211,
      "Ġpositive": 3212,
      "yond": 3213,
      "rs": 3214,
      "ened": 3215,
      "ari": 3216,
      "vey": 3217,
      "Ġstuff": 3218,
      "Ġfeed": 3219,
      "Ġspeed": 3220,
      "Ġbroad": 3221,
      "ĠSeptember": 3222,
      "ĠGoogle": 3223,
      "erved": 3224,
      "ĠDem": 3225,
      "Ġbehav": 3226,
      "Ġslow": 3227,
      "Ġanalysis": 3228,
      "No": 3229,
      "ĠSch": 3230,
      "Ġcondition": 3231,
      "mission": 3232,
      "mercial": 3233,
      "Ġflow": 3234,
      "sp": 3235,
      "ilies": 3236,
      "Ġlooked": 3237,
      "Ġdirectly": 3238,
      "ĠAut": 3239,
      "Ġ26": 3240,
      "Ġvac": 3241,
      "kend": 3242,
      "Ġplayer": 3243,
      "unk": 3244,
      "isions": 3245,
      "ivil": 3246,
      "Ġeffects": 3247,
      "uesday": 3248,
      "Ġreleased": 3249,
      "idents": 3250,
      "Ġinsurance": 3251,
      "ĠSim": 3252,
      "gar": 3253,
      "ĠSunday": 3254,
      "Ġimplement": 3255,
      "ĠCommun": 3256,
      "Ġdro": 3257,
      "Ġsometimes": 3258,
      "bur": 3259,
      "Ġsend": 3260,
      "ĠGener": 3261,
      "ursday": 3262,
      "Ġpartners": 3263,
      "Ġhttp": 3264,
      "Ġprogress": 3265,
      "ĠAcc": 3266,
      "Ġlic": 3267,
      "Ġsituation": 3268,
      "Ġcat": 3269,
      "Ġinterview": 3270,
      "ara": 3271,
      "Ġfeature": 3272,
      "omen": 3273,
      "Ġmount": 3274,
      "Ġcollection": 3275,
      "Ġoffe": 3276,
      "ĠNovember": 3277,
      "Ġsites": 3278,
      "Ġvot": 3279,
      "ibly": 3280,
      "Ġhighly": 3281,
      "Ġconsist": 3282,
      "Ġtowards": 3283,
      "ĠDirect": 3284,
      "Ġproviding": 3285,
      "Ġsche": 3286,
      "ĠPlease": 3287,
      "Ġlocation": 3288,
      "error": 3289,
      "ĠFacebook": 3290,
      "Ġson": 3291,
      "ĠStreet": 3292,
      "Ġextreme": 3293,
      "iles": 3294,
      "ĠKing": 3295,
      "Ġhour": 3296,
      "apan": 3297,
      "Ġwarm": 3298,
      "Ġlocated": 3299,
      "Ġresponse": 3300,
      "They": 3301,
      "band": 3302,
      "zy": 3303,
      "ĠWind": 3304,
      "ĠâĢ¦": 3305,
      "Ġwrote": 3306,
      "Ġplant": 3307,
      "ength": 3308,
      "Ġphysical": 3309,
      "imately": 3310,
      "add": 3311,
      "ospital": 3312,
      "Ġconvers": 3313,
      "Ġfirm": 3314,
      "Ġmaterials": 3315,
      "Ġlanguage": 3316,
      "aches": 3317,
      "âĢĿ.": 3318,
      "Ġregist": 3319,
      "ĠUK": 3320,
      "raft": 3321,
      "ĠCons": 3322,
      "ednes": 3323,
      "ĠAc": 3324,
      "Ġbirth": 3325,
      "Ġdream": 3326,
      "Ġtried": 3327,
      "Ġcapt": 3328,
      "Ġaware": 3329,
      "ĠWeb": 3330,
      "Ġavoid": 3331,
      "Ġadvant": 3332,
      "urt": 3333,
      "Ġcelebr": 3334,
      "ram": 3335,
      "itely": 3336,
      "field": 3337,
      "ffee": 3338,
      "Ġnearly": 3339,
      "35": 3340,
      "rench": 3341,
      "Ġorganiz": 3342,
      "Ġmat": 3343,
      "Ġfine": 3344,
      "ipping": 3345,
      "ĠPre": 3346,
      "Ġfather": 3347,
      "ĠFirst": 3348,
      "more": 3349,
      "Ġsen": 3350,
      "Ġdigital": 3351,
      "Ġshot": 3352,
      "Ġspent": 3353,
      "ran": 3354,
      "Ġinnov": 3355,
      "arily": 3356,
      "ĠAir": 3357,
      "Ġregul": 3358,
      "ida": 3359,
      "Ġge": 3360,
      "Ġspirit": 3361,
      "Ġthreat": 3362,
      "Ġturned": 3363,
      "Ġlimited": 3364,
      "Ġcup": 3365,
      "Ġstories": 3366,
      "wor": 3367,
      "ĠAre": 3368,
      "ĠLa": 3369,
      "Ġrace": 3370,
      "ores": 3371,
      "uate": 3372,
      "uted": 3373,
      "ares": 3374,
      "Ġreach": 3375,
      "ittee": 3376,
      "Ġtrip": 3377,
      "Ġlack": 3378,
      "Ġplaces": 3379,
      "Ġadult": 3380,
      "Ġcertainly": 3381,
      "ĠRepublic": 3382,
      "Ġpen": 3383,
      "Ex": 3384,
      "Ġconcept": 3385,
      "):": 3386,
      "Ġeffort": 3387,
      "ica": 3388,
      "Ġ=": 3389,
      "agn": 3390,
      "Ġfarm": 3391,
      "ĠUp": 3392,
      "Ġthous": 3393,
      "Ġhelps": 3394,
      "EC": 3395,
      "ĠObama": 3396,
      "Ġkn": 3397,
      "ford": 3398,
      "Ġcode": 3399,
      "Ġcamer": 3400,
      "Ġfix": 3401,
      "Ġgold": 3402,
      "bl": 3403,
      "col": 3404,
      "Ġnote": 3405,
      "Ġmultiple": 3406,
      "ednesday": 3407,
      "Ġmessage": 3408,
      "Ġmobile": 3409,
      "Ġconv": 3410,
      "Ġ60": 3411,
      "Ġ27": 3412,
      "Ġindividuals": 3413,
      "Ġ*": 3414,
      "Ġneigh": 3415,
      "Ġclub": 3416,
      "ords": 3417,
      "antly": 3418,
      "ĠEast": 3419,
      "ĠDecember": 3420,
      "Ġemployees": 3421,
      "Ġreve": 3422,
      "Ġsort": 3423,
      "Ġcollege": 3424,
      "Ġrestaur": 3425,
      "Ġgrowing": 3426,
      "sequ": 3427,
      "Ġfinally": 3428,
      "Ġhistor": 3429,
      "ET": 3430,
      "Ġple": 3431,
      "itiz": 3432,
      "Ġeat": 3433,
      "vest": 3434,
      "Ġmis": 3435,
      "Ġculture": 3436,
      "opping": 3437,
      "ĠWashington": 3438,
      "Ġindepend": 3439,
      "Ġimag": 3440,
      "ĠIndia": 3441,
      "?âĢĿ": 3442,
      "Ġcarry": 3443,
      "ography": 3444,
      "ĠDavid": 3445,
      "Ġded": 3446,
      "PS": 3447,
      "ĠCoun": 3448,
      "ĠMonday": 3449,
      "rences": 3450,
      "Ġsubst": 3451,
      "aughter": 3452,
      "Ġband": 3453,
      "ĠII": 3454,
      "Ġexerc": 3455,
      "ĠChina": 3456,
      "Ġwants": 3457,
      "Ġdire": 3458,
      "ags": 3459,
      "uk": 3460,
      "olute": 3461,
      "Ġoccur": 3462,
      "ĠLondon": 3463,
      "Ġevidence": 3464,
      "ĠCourt": 3465,
      "mitted": 3466,
      "ĠWell": 3467,
      "Ġfeeling": 3468,
      "45": 3469,
      "ancy": 3470,
      "oming": 3471,
      "Ġinterested": 3472,
      "itchen": 3473,
      "pects": 3474,
      "Ġbusinesses": 3475,
      "iment": 3476,
      "ĠEvery": 3477,
      "Ġshoot": 3478,
      "Ġalone": 3479,
      "ĠWhite": 3480,
      "Ġparticularly": 3481,
      "Ġten": 3482,
      "cul": 3483,
      "Ġspot": 3484,
      "Ġdemand": 3485,
      "body": 3486,
      "Ġdistrib": 3487,
      "ibrary": 3488,
      "ĠMor": 3489,
      "Ġsolution": 3490,
      "ĠService": 3491,
      "Ġtools": 3492,
      "ying": 3493,
      "Ġbra": 3494,
      "arden": 3495,
      "bum": 3496,
      "Ġmaybe": 3497,
      "Ġbeginning": 3498,
      "Ġaltern": 3499,
      "zz": 3500,
      "oday": 3501,
      "Ġtraditional": 3502,
      "het": 3503,
      "izes": 3504,
      "Ġequipment": 3505,
      "Ġsleep": 3506,
      "estern": 3507,
      "Ġactivity": 3508,
      "Ġwhose": 3509,
      "Ġdeveloped": 3510,
      "atever": 3511,
      "Ġver": 3512,
      "ĠAN": 3513,
      "Ġdifference": 3514,
      "Ġassess": 3515,
      "Ġaccom": 3516,
      "sych": 3517,
      "arant": 3518,
      "IL": 3519,
      "Ġwish": 3520,
      "example": 3521,
      "ĠFree": 3522,
      "Ġpurpose": 3523,
      "Ġsuccessful": 3524,
      "ĠFebruary": 3525,
      "Ġobject": 3526,
      "omb": 3527,
      "itable": 3528,
      "Ġer": 3529,
      "Ġfully": 3530,
      "hest": 3531,
      "Ġrespond": 3532,
      "Ġcomplex": 3533,
      "ruit": 3534,
      "EO": 3535,
      "dom": 3536,
      "ĠPM": 3537,
      "Ġannounced": 3538,
      "Ġearlier": 3539,
      "ĠMost": 3540,
      "Ġfeet": 3541,
      "Ġmoving": 3542,
      "Ġregion": 3543,
      "Ġtalking": 3544,
      "Ġter": 3545,
      "ĠGroup": 3546,
      "Ġcert": 3547,
      "Ġstage": 3548,
      "ĠEar": 3549,
      "ĠOut": 3550,
      "Ġdisease": 3551,
      "Ġdoub": 3552,
      "wide": 3553,
      "Ġwife": 3554,
      "Ġrelig": 3555,
      "rows": 3556,
      "mark": 3557,
      "ager": 3558,
      "Ġexpert": 3559,
      "Ġhop": 3560,
      "Ġspend": 3561,
      "rast": 3562,
      "lim": 3563,
      "Ġult": 3564,
      "Ġfear": 3565,
      "undred": 3566,
      "Ġpaid": 3567,
      "Ġfloor": 3568,
      "Ġphotos": 3569,
      "Ġwait": 3570,
      "Ġexactly": 3571,
      "Ġfamilies": 3572,
      "venue": 3573,
      "Ġheat": 3574,
      "Ġimages": 3575,
      "Ġachieve": 3576,
      "olf": 3577,
      "Ġreports": 3578,
      "ault": 3579,
      "ĠLaw": 3580,
      "aint": 3581,
      "down": 3582,
      "rig": 3583,
      "ounds": 3584,
      "Ġopportunities": 3585,
      "set": 3586,
      "ĠCollege": 3587,
      "Ġprevious": 3588,
      "Ġdirector": 3589,
      "ani": 3590,
      "Ġpromot": 3591,
      "Ġprem": 3592,
      "Ġserious": 3593,
      "Ġnumbers": 3594,
      "reed": 3595,
      "vis": 3596,
      "Ġfederal": 3597,
      "Ġtrail": 3598,
      "Ġdemon": 3599,
      "Ġhous": 3600,
      "Ġconsult": 3601,
      "Ġpressure": 3602,
      "BC": 3603,
      "Ġchanged": 3604,
      "EL": 3605,
      "Ġvoice": 3606,
      "Ġproced": 3607,
      "Ġallowed": 3608,
      "Ġweekend": 3609,
      "ĠTechn": 3610,
      "inger": 3611,
      "chan": 3612,
      "Ġtick": 3613,
      "Ġseven": 3614,
      "Ġpicture": 3615,
      "mas": 3616,
      "Ġappropri": 3617,
      "ĠÂ£": 3618,
      "ĠEven": 3619,
      "Ġremain": 3620,
      "Ġgoals": 3621,
      "ĠIndian": 3622,
      "ĠJapan": 3623,
      "Ġimpress": 3624,
      "ĠAssociation": 3625,
      "ĠBusiness": 3626,
      "Ġcorpor": 3627,
      "Ġstrugg": 3628,
      "icate": 3629,
      "Ġeight": 3630,
      "Ġ2007": 3631,
      "Ġhealthy": 3632,
      "Ġstatement": 3633,
      "Ġextend": 3634,
      "Ġserve": 3635,
      "Ġscient": 3636,
      "Ġacqu": 3637,
      "Ġexcellent": 3638,
      "Ġmiles": 3639,
      "Ġdevices": 3640,
      "Ġ29": 3641,
      "Ġcreating": 3642,
      "Ġteams": 3643,
      "Ġrequirements": 3644,
      "Ġtur": 3645,
      "IG": 3646,
      "ION": 3647,
      "Ġprices": 3648,
      "Ġuses": 3649,
      "ronic": 3650,
      "AD": 3651,
      "inner": 3652,
      "Ġroll": 3653,
      "Ġblue": 3654,
      "ĠTHE": 3655,
      "Ġtitle": 3656,
      "Ġcouldn": 3657,
      "27": 3658,
      "imin": 3659,
      "Ġeye": 3660,
      "Ġcateg": 3661,
      "Ġinform": 3662,
      "duc": 3663,
      "Ġmeaning": 3664,
      "ĠAM": 3665,
      "que": 3666,
      "Ġtemper": 3667,
      "Ġdry": 3668,
      "Ġincreasing": 3669,
      "olic": 3670,
      "Ġinstru": 3671,
      "order": 3672,
      "Ġtrade": 3673,
      "ĠProf": 3674,
      "ĠGreen": 3675,
      "By": 3676,
      "oms": 3677,
      "Ġglass": 3678,
      "Here": 3679,
      "Ġwel": 3680,
      "ategy": 3681,
      "Ġappl": 3682,
      "Ġsolutions": 3683,
      "Ġunderstanding": 3684,
      "Is": 3685,
      "Ġstraight": 3686,
      "Ġcorrect": 3687,
      "aled": 3688,
      "amm": 3689,
      "Ġund": 3690,
      "oly": 3691,
      "Ġden": 3692,
      "Ġincreased": 3693,
      "iant": 3694,
      "Ġplanning": 3695,
      "Ġnormal": 3696,
      "Ġaim": 3697,
      "Ġquarter": 3698,
      "Ġgrand": 3699,
      "Ġforce": 3700,
      "ĠProgram": 3701,
      "Ġfat": 3702,
      "Ġbaby": 3703,
      "Ġstress": 3704,
      "Ġmaintain": 3705,
      "change": 3706,
      "Ġoverall": 3707,
      "ĠAlso": 3708,
      "Ġshown": 3709,
      "Ġbillion": 3710,
      "ously": 3711,
      "Ġemot": 3712,
      "Ġscience": 3713,
      "Ġimmediately": 3714,
      "Ġsmart": 3715,
      "ĠGreat": 3716,
      "erry": 3717,
      "Ġdeliver": 3718,
      "Ġopin": 3719,
      "ashion": 3720,
      "Ġaward": 3721,
      "aling": 3722,
      "ĠJes": 3723,
      "Ġanaly": 3724,
      "lin": 3725,
      "Ġfrequ": 3726,
      "She": 3727,
      "house": 3728,
      "Ġcomments": 3729,
      "nded": 3730,
      "Ġrent": 3731,
      "Ġcapital": 3732,
      "Ġfem": 3733,
      "Ġbenefit": 3734,
      "ĠGovern": 3735,
      "cause": 3736,
      "cks": 3737,
      "Ġmilitary": 3738,
      "isf": 3739,
      "ĠInternet": 3740,
      "Ġcharge": 3741,
      "Ġbeyond": 3742,
      "ĠJack": 3743,
      "ĠRock": 3744,
      "Ġstrateg": 3745,
      "Ġcold": 3746,
      "Ġmiddle": 3747,
      "leg": 3748,
      "Ġconnect": 3749,
      "Ġliter": 3750,
      "Ġ2018": 3751,
      "Ġalthough": 3752,
      "28": 3753,
      "Ġwild": 3754,
      "ancing": 3755,
      "Ġconc": 3756,
      "rial": 3757,
      "Ġprefer": 3758,
      "Ġpattern": 3759,
      "ĠPaul": 3760,
      "Ġdegree": 3761,
      "Ġgas": 3762,
      "Ġfans": 3763,
      "Ġload": 3764,
      "ĠCanada": 3765,
      "26": 3766,
      "New": 3767,
      "ĠIN": 3768,
      "Ġtrou": 3769,
      "place": 3770,
      "Ġreduce": 3771,
      "Ġsust": 3772,
      "ĠTrans": 3773,
      "ĠOther": 3774,
      "mp": 3775,
      "ĠTuesday": 3776,
      "Ġresponsible": 3777,
      "Ġdoll": 3778,
      "ban": 3779,
      "Ġchurch": 3780,
      "iance": 3781,
      "Ġdefinitely": 3782,
      "De": 3783,
      "lying": 3784,
      "Ġapplications": 3785,
      "Ġapart": 3786,
      "Ġpoor": 3787,
      "Ġlik": 3788,
      "Ġfra": 3789,
      "Ġdamage": 3790,
      "ecutive": 3791,
      "Ġinvestment": 3792,
      "Ġperhaps": 3793,
      "Ġoffered": 3794,
      "ago": 3795,
      "Ġrules": 3796,
      "Ġowners": 3797,
      "Ġhappened": 3798,
      "Ġmeasure": 3799,
      "bed": 3800,
      "pm": 3801,
      "Ġpet": 3802,
      "ĠTex": 3803,
      "edding": 3804,
      "Now": 3805,
      "Ġâ": 3806,
      "orage": 3807,
      "Ġbill": 3808,
      "well": 3809,
      "Ġwat": 3810,
      "ĠPal": 3811,
      "anch": 3812,
      "Pro": 3813,
      "arc": 3814,
      "Ġnamed": 3815,
      "Ġmachine": 3816,
      "Ġsociety": 3817,
      "ĠRom": 3818,
      "Ġgone": 3819,
      "Ġjobs": 3820,
      "ĠBoard": 3821,
      "Ġannual": 3822,
      "Ġhundred": 3823,
      "Ġproduce": 3824,
      "Ġalbum": 3825,
      "OL": 3826,
      "Ġcandid": 3827,
      "apter": 3828,
      "Ġschools": 3829,
      "Ġadvert": 3830,
      "Ġslight": 3831,
      "Ġreasons": 3832,
      "Ġcirc": 3833,
      "ĠHall": 3834,
      "Ġcommercial": 3835,
      "isl": 3836,
      "ĠLet": 3837,
      "Ġclin": 3838,
      "Ġ197": 3839,
      "Un": 3840,
      "ĠThursday": 3841,
      "Ġfollowed": 3842,
      "ST": 3843,
      "Ġguy": 3844,
      "Ġsurv": 3845,
      "see": 3846,
      "Ġenh": 3847,
      "Ġble": 3848,
      "rief": 3849,
      "Ġcru": 3850,
      "Ġrates": 3851,
      "Ġgreater": 3852,
      "reci": 3853,
      "ĠInter": 3854,
      "etic": 3855,
      "Ġgirls": 3856,
      "Ġactive": 3857,
      "100": 3858,
      "29": 3859,
      "Ġcancer": 3860,
      "Ġstudies": 3861,
      "Ġincome": 3862,
      "ĠMet": 3863,
      "ĠHome": 3864,
      "asc": 3865,
      "Ġassociated": 3866,
      "Ġabsolute": 3867,
      "While": 3868,
      "ĠSystem": 3869,
      "Ġwww": 3870,
      "Ġbrain": 3871,
      "Ġhelped": 3872,
      "ampions": 3873,
      "ĠReview": 3874,
      "ĠCong": 3875,
      "Ġdating": 3876,
      "Ġlargest": 3877,
      "amic": 3878,
      "Ġloved": 3879,
      "ĠBra": 3880,
      "ĠDel": 3881,
      "Ġdang": 3882,
      "iable": 3883,
      "bon": 3884,
      "Ġbreat": 3885,
      "ĠFe": 3886,
      "ĠDist": 3887,
      "iber": 3888,
      "ĠAss": 3889,
      "Ġcontain": 3890,
      "ĠRuss": 3891,
      "ĠResearch": 3892,
      "Ġcells": 3893,
      "Ġpow": 3894,
      "Ġsurround": 3895,
      "ĠRich": 3896,
      "istics": 3897,
      "Ġtruly": 3898,
      "ĠCle": 3899,
      "Ġmax": 3900,
      "Ġmoved": 3901,
      "Ġmovement": 3902,
      "iling": 3903,
      "ĠCouncil": 3904,
      "ĠMichael": 3905,
      "Ġdoctor": 3906,
      "Ġfinished": 3907,
      "Ġbrother": 3908,
      "ĠFrench": 3909,
      "Ġefforts": 3910,
      "Ġcry": 3911,
      "itude": 3912,
      "Ġborn": 3913,
      "Ġcoffee": 3914,
      "ĠServices": 3915,
      "Ġeconomy": 3916,
      "Ġbudget": 3917,
      "ero": 3918,
      "Ġcontinued": 3919,
      "force": 3920,
      "gen": 3921,
      "Ġletter": 3922,
      "ube": 3923,
      "Ġchallenge": 3924,
      "mat": 3925,
      "Ġsale": 3926,
      "ico": 3927,
      "Ġ2019": 3928,
      "ĠFlor": 3929,
      "Ġvehicle": 3930,
      "ĠMicro": 3931,
      "coming": 3932,
      "Ġpowerful": 3933,
      "Ġsurface": 3934,
      "orrow": 3935,
      "Ġnotice": 3936,
      "Ġtruth": 3937,
      "Ġing": 3938,
      "ado": 3939,
      "ĠAnt": 3940,
      "care": 3941,
      "ĠBook": 3942,
      "ĠGold": 3943,
      "ervation": 3944,
      "Ġspread": 3945,
      "Ġmer": 3946,
      "Ġorigin": 3947,
      "Ġpopulation": 3948,
      "Ġbasis": 3949,
      "Ġadvantage": 3950,
      "istry": 3951,
      "ĠJames": 3952,
      "soft": 3953,
      "Ġeval": 3954,
      "Ġahead": 3955,
      "ĠChristian": 3956,
      "Ġjoin": 3957,
      "Don": 3958,
      "Ġadvice": 3959,
      "Ġcompon": 3960,
      "Ġcompared": 3961,
      "Ġleader": 3962,
      "Ġstar": 3963,
      "ĠSuper": 3964,
      "asy": 3965,
      "ĠMod": 3966,
      "term": 3967,
      "Ġconstruction": 3968,
      "**": 3969,
      "rael": 3970,
      "osing": 3971,
      "rupt": 3972,
      "Ġpatient": 3973,
      "akers": 3974,
      "Ġtransfer": 3975,
      "Ġdouble": 3976,
      "ech": 3977,
      "ĠAny": 3978,
      "Com": 3979,
      "Ġhus": 3980,
      "Ġlots": 3981,
      "Ġlines": 3982,
      "Ġfinish": 3983,
      "Ġcentury": 3984,
      "useum": 3985,
      "ĠYear": 3986,
      "ĠEuropean": 3987,
      "IV": 3988,
      "Ġbeg": 3989,
      "Ġbottom": 3990,
      "90": 3991,
      "ĠBill": 3992,
      "Ġguide": 3993,
      "Ġprofession": 3994,
      "ooth": 3995,
      "ses": 3996,
      "ĠWednesday": 3997,
      "icks": 3998,
      "Ġcolle": 3999,
      "Ġbasic": 4000,
      "ĠMac": 4001,
      "Ġaren": 4002,
      "Ġ2006": 4003,
      "Ġdelivery": 4004,
      "Ġpages": 4005,
      "ulf": 4006,
      "ustr": 4007,
      "Ġserved": 4008,
      "pa": 4009,
      "ĠOffice": 4010,
      "Ġkept": 4011,
      "Ġoccas": 4012,
      "ĠPort": 4013,
      "Ġclient": 4014,
      "ĠPlay": 4015,
      "Ġguys": 4016,
      "Ġsweet": 4017,
      "Ġcitiz": 4018,
      "Ġnut": 4019,
      "Ġopening": 4020,
      "Ġchem": 4021,
      "Ġoffering": 4022,
      "ĠRec": 4023,
      "Ġcash": 4024,
      "Ġ2020": 4025,
      "IP": 4026,
      "icip": 4027,
      "ken": 4028,
      "Ġpartner": 4029,
      "ĠAustralia": 4030,
      "ĠIS": 4031,
      "ĠDevelop": 4032,
      "Ġstrategy": 4033,
      "ĠTexas": 4034,
      "ĠAv": 4035,
      "Ġeasier": 4036,
      "Ġfaith": 4037,
      "DA": 4038,
      "ston": 4039,
      "Se": 4040,
      "Ġreb": 4041,
      "ĠBel": 4042,
      "iny": 4043,
      "Ġpassed": 4044,
      "Ġessential": 4045,
      "la": 4046,
      "Ġadjust": 4047,
      "Ġwouldn": 4048,
      "Ġgar": 4049,
      "ij": 4050,
      "ĠOver": 4051,
      "ĠGet": 4052,
      "Ġcalls": 4053,
      "atively": 4054,
      "Ġpros": 4055,
      "ĠEv": 4056,
      "Ġregarding": 4057,
      "Ġwear": 4058,
      "Ġarr": 4059,
      "Ġexpand": 4060,
      "Ġstrength": 4061,
      "rey": 4062,
      "Please": 4063,
      "ĠTy": 4064,
      "anging": 4065,
      "igned": 4066,
      "ĠAnge": 4067,
      "ĠBritish": 4068,
      "Ġsuff": 4069,
      "ĠEduc": 4070,
      "Ġsetting": 4071,
      "Ġfigure": 4072,
      "ĠMany": 4073,
      "Ġweather": 4074,
      "Ġgun": 4075,
      "ĠMart": 4076,
      "Ġdisapp": 4077,
      "Ġruns": 4078,
      "Ġiniti": 4079,
      "ĠMiss": 4080,
      "hips": 4081,
      "ties": 4082,
      "Ġsports": 4083,
      "iced": 4084,
      "These": 4085,
      "Ġsteps": 4086,
      "ĠBen": 4087,
      "ĠWhy": 4088,
      "Ġobv": 4089,
      "ĠCompany": 4090,
      "men": 4091,
      "Ġappreci": 4092,
      "Ġwonderful": 4093
    },
    "merges": [
      [
        "Ġ",
        "t"
      ],
      [
        "Ġ",
        "a"
      ],
      [
        "i",
        "n"
      ],
      [
        "h",
        "e"
      ],
      [
        "r",
        "e"
      ],
      [
        "o",
        "n"
      ],
      [
        "Ġt",
        "he"
      ],
      [
        "e",
        "r"
      ],
      [
        "Ġ",
        "s"
      ],
      [
        "Ġ",
        "w"
      ],
      [
        "a",
        "t"
      ],
      [
        "Ġ",
        "o"
      ],
      [
        "n",
        "d"
      ],
      [
        "Ġ",
        "c"
      ],
      [
        "i",
        "t"
      ],
      [
        "o",
        "r"
      ],
      [
        "e",
        "s"
      ],
      [
        "i",
        "s"
      ],
      [
        "e",
        "n"
      ],
      [
        "o",
        "u"
      ],
      [
        "Ġ",
        "f"
      ],
      [
        "Ġ",
        "b"
      ],
      [
        "in",
        "g"
      ],
      [
        "Ġ",
        "p"
      ],
      [
        "e",
        "d"
      ],
      [
        "a",
        "n"
      ],
      [
        "a",
        "l"
      ],
      [
        "Ġt",
        "o"
      ],
      [
        "Ġ",
        "m"
      ],
      [
        "a",
        "r"
      ],
      [
        "Ġa",
        "nd"
      ],
      [
        "Ġo",
        "f"
      ],
      [
        "Ġ",
        "in"
      ],
      [
        "Ġ",
        "d"
      ],
      [
        "i",
        "c"
      ],
      [
        "Ġ",
        "h"
      ],
      [
        "l",
        "e"
      ],
      [
        "a",
        "s"
      ],
      [
        "o",
        "m"
      ],
      [
        "i",
        "on"
      ],
      [
        "Ġt",
        "h"
      ],
      [
        "l",
        "l"
      ],
      [
        "â",
        "Ģ"
      ],
      [
        "en",
        "t"
      ],
      [
        "Ġ",
        "l"
      ],
      [
        "v",
        "e"
      ],
      [
        "s",
        "t"
      ],
      [
        "Ġ",
        "e"
      ],
      [
        "Ġ",
        "re"
      ],
      [
        "Ġ",
        "n"
      ],
      [
        "r",
        "o"
      ],
      [
        "Ġ",
        "y"
      ],
      [
        "Ġ",
        "g"
      ],
      [
        "l",
        "y"
      ],
      [
        "Ġ",
        "I"
      ],
      [
        "c",
        "t"
      ],
      [
        "Ġb",
        "e"
      ],
      [
        "Ġ",
        "T"
      ],
      [
        "u",
        "t"
      ],
      [
        "e",
        "t"
      ],
      [
        "o",
        "t"
      ],
      [
        "Ġ",
        "S"
      ],
      [
        "Ġ",
        "is"
      ],
      [
        "i",
        "d"
      ],
      [
        "Ġy",
        "ou"
      ],
      [
        "a",
        "y"
      ],
      [
        "Ġ",
        "on"
      ],
      [
        "Ġf",
        "or"
      ],
      [
        "o",
        "w"
      ],
      [
        "Ġ",
        "A"
      ],
      [
        "Ġ",
        "C"
      ],
      [
        "u",
        "r"
      ],
      [
        "s",
        "e"
      ],
      [
        "i",
        "m"
      ],
      [
        "i",
        "g"
      ],
      [
        "a",
        "d"
      ],
      [
        "c",
        "e"
      ],
      [
        "a",
        "m"
      ],
      [
        "v",
        "er"
      ],
      [
        "Ġth",
        "at"
      ],
      [
        "Ġ",
        "u"
      ],
      [
        "c",
        "h"
      ],
      [
        "i",
        "l"
      ],
      [
        "it",
        "h"
      ],
      [
        "at",
        "ion"
      ],
      [
        "Ġs",
        "t"
      ],
      [
        "o",
        "l"
      ],
      [
        "i",
        "r"
      ],
      [
        "Ġw",
        "ith"
      ],
      [
        "âĢ",
        "Ļ"
      ],
      [
        "Ġ",
        "M"
      ],
      [
        "Ġ",
        "it"
      ],
      [
        "Ġ",
        "he"
      ],
      [
        "Ġw",
        "e"
      ],
      [
        "r",
        "a"
      ],
      [
        "Ġ",
        "B"
      ],
      [
        "Ġw",
        "h"
      ],
      [
        "Ġa",
        "s"
      ],
      [
        "Ġa",
        "n"
      ],
      [
        "Ġ",
        "P"
      ],
      [
        "i",
        "ll"
      ],
      [
        "er",
        "s"
      ],
      [
        "i",
        "f"
      ],
      [
        "k",
        "e"
      ],
      [
        "Ġp",
        "ro"
      ],
      [
        "t",
        "er"
      ],
      [
        "Ġh",
        "a"
      ],
      [
        "Ġa",
        "re"
      ],
      [
        "g",
        "e"
      ],
      [
        "Ġ",
        "W"
      ],
      [
        "Ġc",
        "on"
      ],
      [
        "l",
        "d"
      ],
      [
        "o",
        "o"
      ],
      [
        "he",
        "r"
      ],
      [
        "u",
        "l"
      ],
      [
        "Ġo",
        "r"
      ],
      [
        "at",
        "e"
      ],
      [
        "Ġ",
        "H"
      ],
      [
        "Ġ",
        "D"
      ],
      [
        "es",
        "s"
      ],
      [
        "c",
        "k"
      ],
      [
        "p",
        "p"
      ],
      [
        "Ġa",
        "t"
      ],
      [
        "Ġs",
        "e"
      ],
      [
        "Ġc",
        "om"
      ],
      [
        "o",
        "re"
      ],
      [
        "r",
        "i"
      ],
      [
        "m",
        "ent"
      ],
      [
        "Ġd",
        "e"
      ],
      [
        "ĠT",
        "he"
      ],
      [
        "es",
        "t"
      ],
      [
        "Ġ",
        "1"
      ],
      [
        "u",
        "s"
      ],
      [
        "Ġ",
        "F"
      ],
      [
        "Ġ",
        "R"
      ],
      [
        "ig",
        "h"
      ],
      [
        "t",
        "h"
      ],
      [
        "a",
        "b"
      ],
      [
        "Ġw",
        "as"
      ],
      [
        "Ġ",
        "("
      ],
      [
        "Ġ",
        "2"
      ],
      [
        "is",
        "t"
      ],
      [
        "r",
        "om"
      ],
      [
        "Ġn",
        "e"
      ],
      [
        "p",
        "e"
      ],
      [
        "u",
        "n"
      ],
      [
        "Ġe",
        "x"
      ],
      [
        "re",
        "s"
      ],
      [
        "Ġ",
        "L"
      ],
      [
        "an",
        "t"
      ],
      [
        "q",
        "u"
      ],
      [
        "it",
        "y"
      ],
      [
        "Ġs",
        "u"
      ],
      [
        "i",
        "ve"
      ],
      [
        "Ġ",
        "v"
      ],
      [
        "Ġ",
        "r"
      ],
      [
        "o",
        "p"
      ],
      [
        "e",
        "m"
      ],
      [
        "Ġ",
        "âĢ"
      ],
      [
        "Ġha",
        "ve"
      ],
      [
        "or",
        "t"
      ],
      [
        "Ġ",
        "G"
      ],
      [
        "Ġ",
        "N"
      ],
      [
        "a",
        "in"
      ],
      [
        "ar",
        "t"
      ],
      [
        "Ġ",
        "E"
      ],
      [
        "Ġth",
        "is"
      ],
      [
        "Ġn",
        "ot"
      ],
      [
        "u",
        "st"
      ],
      [
        "n",
        "t"
      ],
      [
        "Ġf",
        "rom"
      ],
      [
        "Ġs",
        "h"
      ],
      [
        "u",
        "m"
      ],
      [
        "Ġyou",
        "r"
      ],
      [
        "o",
        "s"
      ],
      [
        "Ġb",
        "y"
      ],
      [
        "a",
        "nd"
      ],
      [
        "e",
        "l"
      ],
      [
        "i",
        "es"
      ],
      [
        "igh",
        "t"
      ],
      [
        "Ġa",
        "l"
      ],
      [
        "Ġc",
        "h"
      ],
      [
        "Ġc",
        "an"
      ],
      [
        "al",
        "l"
      ],
      [
        "om",
        "e"
      ],
      [
        "i",
        "e"
      ],
      [
        "Ġ",
        "le"
      ],
      [
        "ar",
        "d"
      ],
      [
        "Ġ",
        "O"
      ],
      [
        "ou",
        "t"
      ],
      [
        "ou",
        "ld"
      ],
      [
        "Ġw",
        "ill"
      ],
      [
        "re",
        "d"
      ],
      [
        "ou",
        "r"
      ],
      [
        "u",
        "d"
      ],
      [
        "Ġa",
        "b"
      ],
      [
        "Ġd",
        "o"
      ],
      [
        "g",
        "h"
      ],
      [
        "i",
        "v"
      ],
      [
        "o",
        "st"
      ],
      [
        "Ġw",
        "or"
      ],
      [
        "t",
        "e"
      ],
      [
        "al",
        "ly"
      ],
      [
        "0",
        "0"
      ],
      [
        "'",
        "s"
      ],
      [
        "Ġp",
        "l"
      ],
      [
        "o",
        "d"
      ],
      [
        "Ġa",
        "ll"
      ],
      [
        "Ġ",
        "J"
      ],
      [
        "r",
        "ou"
      ],
      [
        "as",
        "t"
      ],
      [
        "c",
        "i"
      ],
      [
        "e",
        "ar"
      ],
      [
        "Ġ",
        "j"
      ],
      [
        "a",
        "k"
      ],
      [
        "id",
        "e"
      ],
      [
        "T",
        "he"
      ],
      [
        "Ġ",
        "k"
      ],
      [
        "in",
        "e"
      ],
      [
        "a",
        "g"
      ],
      [
        "u",
        "re"
      ],
      [
        "f",
        "e"
      ],
      [
        "Ġh",
        "as"
      ],
      [
        "p",
        "t"
      ],
      [
        "p",
        "er"
      ],
      [
        "Ġs",
        "o"
      ],
      [
        "Ġm",
        "e"
      ],
      [
        "Ġb",
        "ut"
      ],
      [
        "Ġw",
        "he"
      ],
      [
        "a",
        "ck"
      ],
      [
        "âĢ",
        "Ŀ"
      ],
      [
        "ic",
        "e"
      ],
      [
        "Ġu",
        "s"
      ],
      [
        "ct",
        "ion"
      ],
      [
        "a",
        "ge"
      ],
      [
        "ic",
        "h"
      ],
      [
        "t",
        "her"
      ],
      [
        "a",
        "c"
      ],
      [
        "Ġo",
        "ut"
      ],
      [
        "Ġa",
        "d"
      ],
      [
        "p",
        "l"
      ],
      [
        "Ġu",
        "p"
      ],
      [
        "Ġ",
        "U"
      ],
      [
        "a",
        "ke"
      ],
      [
        "Ġthe",
        "y"
      ],
      [
        "on",
        "e"
      ],
      [
        "oo",
        "k"
      ],
      [
        "in",
        "d"
      ],
      [
        "r",
        "y"
      ],
      [
        "s",
        "o"
      ],
      [
        "o",
        "g"
      ],
      [
        "Ġthe",
        "ir"
      ],
      [
        "a",
        "re"
      ],
      [
        "on",
        "g"
      ],
      [
        "Ġm",
        "ore"
      ],
      [
        "Ġcom",
        "p"
      ],
      [
        "Ġ",
        "en"
      ],
      [
        "Ġh",
        "is"
      ],
      [
        "ver",
        "y"
      ],
      [
        "im",
        "e"
      ],
      [
        "at",
        "ed"
      ],
      [
        "ab",
        "le"
      ],
      [
        "Ġm",
        "y"
      ],
      [
        "oo",
        "d"
      ],
      [
        "ou",
        "s"
      ],
      [
        "Ġt",
        "e"
      ],
      [
        "c",
        "c"
      ],
      [
        "Ġon",
        "e"
      ],
      [
        "am",
        "e"
      ],
      [
        "Ġc",
        "l"
      ],
      [
        "an",
        "s"
      ],
      [
        "it",
        "e"
      ],
      [
        "i",
        "z"
      ],
      [
        "i",
        "ke"
      ],
      [
        "Ġs",
        "a"
      ],
      [
        "i",
        "p"
      ],
      [
        "Ġwh",
        "o"
      ],
      [
        "or",
        "m"
      ],
      [
        "Ġab",
        "out"
      ],
      [
        "ĠT",
        "h"
      ],
      [
        "Ġ",
        "im"
      ],
      [
        "ĠâĢ",
        "ľ"
      ],
      [
        "ĠI",
        "n"
      ],
      [
        "i",
        "b"
      ],
      [
        "Ġcon",
        "t"
      ],
      [
        "Ġo",
        "ur"
      ],
      [
        "r",
        "u"
      ],
      [
        "Ġg",
        "o"
      ],
      [
        "ion",
        "s"
      ],
      [
        "Ġm",
        "an"
      ],
      [
        "n",
        "e"
      ],
      [
        "an",
        "ce"
      ],
      [
        "Ġwh",
        "ich"
      ],
      [
        "c",
        "l"
      ],
      [
        "d",
        "u"
      ],
      [
        "Ġf",
        "e"
      ],
      [
        "Ġ",
        "K"
      ],
      [
        "a",
        "ct"
      ],
      [
        "Ġ2",
        "0"
      ],
      [
        "t",
        "o"
      ],
      [
        "i",
        "a"
      ],
      [
        "b",
        "er"
      ],
      [
        "as",
        "e"
      ],
      [
        "i",
        "re"
      ],
      [
        "Ġre",
        "s"
      ],
      [
        "a",
        "il"
      ],
      [
        "f",
        "f"
      ],
      [
        "re",
        "e"
      ],
      [
        "re",
        "at"
      ],
      [
        "ig",
        "n"
      ],
      [
        "Ġwor",
        "k"
      ],
      [
        "o",
        "c"
      ],
      [
        "Ġ",
        "Y"
      ],
      [
        "ay",
        "s"
      ],
      [
        "a",
        "ch"
      ],
      [
        "Ġp",
        "er"
      ],
      [
        "ar",
        "y"
      ],
      [
        "Ġa",
        "pp"
      ],
      [
        "a",
        "p"
      ],
      [
        ".",
        "."
      ],
      [
        "a",
        "ce"
      ],
      [
        "ul",
        "t"
      ],
      [
        "Ġo",
        "ther"
      ],
      [
        "ation",
        "s"
      ],
      [
        "v",
        "en"
      ],
      [
        "ic",
        "k"
      ],
      [
        "e",
        "p"
      ],
      [
        "as",
        "s"
      ],
      [
        "a",
        "u"
      ],
      [
        "ĠS",
        "t"
      ],
      [
        "u",
        "b"
      ],
      [
        "Ġof",
        "f"
      ],
      [
        "Ġy",
        "ear"
      ],
      [
        "Ġt",
        "ime"
      ],
      [
        "Ġs",
        "ome"
      ],
      [
        "ic",
        "al"
      ],
      [
        "Ġ",
        "qu"
      ],
      [
        "u",
        "e"
      ],
      [
        "Ġl",
        "ike"
      ],
      [
        "i",
        "le"
      ],
      [
        "Ġal",
        "so"
      ],
      [
        "Ġan",
        "y"
      ],
      [
        "ou",
        "nt"
      ],
      [
        "Ġd",
        "is"
      ],
      [
        "Ġ",
        "\""
      ],
      [
        "Ġh",
        "ad"
      ],
      [
        "n",
        "ow"
      ],
      [
        "ar",
        "k"
      ],
      [
        "en",
        "ce"
      ],
      [
        "ve",
        "l"
      ],
      [
        "res",
        "s"
      ],
      [
        "Ġg",
        "et"
      ],
      [
        "Ġu",
        "n"
      ],
      [
        "or",
        "d"
      ],
      [
        "f",
        "orm"
      ],
      [
        "ĠI",
        "t"
      ],
      [
        "Ġwe",
        "re"
      ],
      [
        "Ġthe",
        "m"
      ],
      [
        "Ġbe",
        "en"
      ],
      [
        "ing",
        "s"
      ],
      [
        "Ġne",
        "w"
      ],
      [
        "er",
        "v"
      ],
      [
        "Ġ",
        "V"
      ],
      [
        "Ġp",
        "art"
      ],
      [
        "Ġ",
        "3"
      ],
      [
        "Ġs",
        "p"
      ],
      [
        "ĠC",
        "h"
      ],
      [
        "Ġa",
        "g"
      ],
      [
        "on",
        "d"
      ],
      [
        "Ġthe",
        "re"
      ],
      [
        "o",
        "se"
      ],
      [
        "o",
        "ve"
      ],
      [
        "Ġo",
        "ver"
      ],
      [
        "a",
        "v"
      ],
      [
        "Ġp",
        "e"
      ],
      [
        "Ġwhe",
        "n"
      ],
      [
        "Ġ",
        "-"
      ],
      [
        "Ġhe",
        "r"
      ],
      [
        "Ġw",
        "ould"
      ],
      [
        "ou",
        "gh"
      ],
      [
        "it",
        "ion"
      ],
      [
        "Ġwh",
        "at"
      ],
      [
        "Ġa",
        "r"
      ],
      [
        "i",
        "al"
      ],
      [
        "Ġ",
        "if"
      ],
      [
        "in",
        "k"
      ],
      [
        "ent",
        "s"
      ],
      [
        "or",
        "s"
      ],
      [
        "en",
        "s"
      ],
      [
        "Ġth",
        "an"
      ],
      [
        "Ġt",
        "r"
      ],
      [
        "Ġj",
        "ust"
      ],
      [
        "ou",
        "nd"
      ],
      [
        "Ġ20",
        "1"
      ],
      [
        "Ġ",
        "ro"
      ],
      [
        "ir",
        "st"
      ],
      [
        "Ġs",
        "pe"
      ],
      [
        "is",
        "h"
      ],
      [
        "Ġp",
        "re"
      ],
      [
        "m",
        "er"
      ],
      [
        "p",
        "ort"
      ],
      [
        "o",
        "b"
      ],
      [
        "in",
        "t"
      ],
      [
        "Ġbe",
        "c"
      ],
      [
        "Ġk",
        "now"
      ],
      [
        "Ġre",
        "c"
      ],
      [
        "w",
        "n"
      ],
      [
        "il",
        "d"
      ],
      [
        "Ġin",
        "to"
      ],
      [
        "op",
        "le"
      ],
      [
        "Ġsa",
        "id"
      ],
      [
        "ĠW",
        "e"
      ],
      [
        "re",
        "n"
      ],
      [
        "or",
        "y"
      ],
      [
        "f",
        "ter"
      ],
      [
        "nd",
        "er"
      ],
      [
        "ow",
        "n"
      ],
      [
        "o",
        "v"
      ],
      [
        "ĠH",
        "e"
      ],
      [
        "Ġne",
        "ed"
      ],
      [
        "Ġa",
        "m"
      ],
      [
        "o",
        "y"
      ],
      [
        "it",
        "t"
      ],
      [
        "Ġs",
        "c"
      ],
      [
        "rou",
        "gh"
      ],
      [
        "at",
        "er"
      ],
      [
        "Ġh",
        "ow"
      ],
      [
        "ad",
        "e"
      ],
      [
        "Ġc",
        "o"
      ],
      [
        "Ġt",
        "w"
      ],
      [
        "Ġa",
        "cc"
      ],
      [
        "Ġit",
        "s"
      ],
      [
        "an",
        "g"
      ],
      [
        "ol",
        "d"
      ],
      [
        "Ġn",
        "o"
      ],
      [
        "ver",
        "s"
      ],
      [
        "Ġpe",
        "ople"
      ],
      [
        "l",
        "ic"
      ],
      [
        "n",
        "ing"
      ],
      [
        "Ġb",
        "l"
      ],
      [
        "Ġd",
        "es"
      ],
      [
        "Ġf",
        "irst"
      ],
      [
        "on",
        "s"
      ],
      [
        "Ġm",
        "ay"
      ],
      [
        "w",
        "e"
      ],
      [
        "Ġs",
        "he"
      ],
      [
        "ĠâĢ",
        "ĵ"
      ],
      [
        "cl",
        "ud"
      ],
      [
        "c",
        "es"
      ],
      [
        "u",
        "al"
      ],
      [
        "he",
        "d"
      ],
      [
        "ci",
        "al"
      ],
      [
        "i",
        "an"
      ],
      [
        "Ġcom",
        "m"
      ],
      [
        "au",
        "se"
      ],
      [
        "am",
        "p"
      ],
      [
        "at",
        "es"
      ],
      [
        "'",
        "t"
      ],
      [
        "Ġon",
        "ly"
      ],
      [
        "f",
        "t"
      ],
      [
        "u",
        "ll"
      ],
      [
        "Ġ1",
        "9"
      ],
      [
        "l",
        "p"
      ],
      [
        "Ġt",
        "ra"
      ],
      [
        "Ġ",
        "4"
      ],
      [
        "Ġm",
        "ake"
      ],
      [
        "d",
        "ay"
      ],
      [
        "r",
        "ic"
      ],
      [
        "Ġbe",
        "t"
      ],
      [
        "Ġb",
        "ack"
      ],
      [
        "ment",
        "s"
      ],
      [
        "Ġm",
        "ost"
      ],
      [
        "Ġad",
        "d"
      ],
      [
        "e",
        "nd"
      ],
      [
        "Ġp",
        "o"
      ],
      [
        "re",
        "nt"
      ],
      [
        "ter",
        "n"
      ],
      [
        "Ġl",
        "ook"
      ],
      [
        "Ġe",
        "m"
      ],
      [
        "Ġpro",
        "v"
      ],
      [
        "rou",
        "nd"
      ],
      [
        "Ġhe",
        "lp"
      ],
      [
        "ĠR",
        "e"
      ],
      [
        "Ġe",
        "very"
      ],
      [
        "ĠTh",
        "is"
      ],
      [
        "Ġin",
        "d"
      ],
      [
        "i",
        "ly"
      ],
      [
        "Ġf",
        "l"
      ],
      [
        "Ġ",
        "5"
      ],
      [
        "at",
        "ing"
      ],
      [
        "Ġw",
        "ant"
      ],
      [
        "Ġth",
        "rough"
      ],
      [
        "h",
        "ing"
      ],
      [
        "ie",
        "w"
      ],
      [
        "Ġcon",
        "s"
      ],
      [
        "i",
        "ous"
      ],
      [
        "Ġtw",
        "o"
      ],
      [
        "Ġin",
        "clud"
      ],
      [
        "l",
        "es"
      ],
      [
        ")",
        "."
      ],
      [
        "Ġse",
        "e"
      ],
      [
        "g",
        "r"
      ],
      [
        "is",
        "e"
      ],
      [
        "ct",
        "s"
      ],
      [
        "Ġu",
        "se"
      ],
      [
        "Ġwe",
        "ll"
      ],
      [
        "Ġpro",
        "du"
      ],
      [
        "Ġthe",
        "se"
      ],
      [
        "Ġa",
        "fter"
      ],
      [
        "Ġu",
        "nder"
      ],
      [
        "k",
        "s"
      ],
      [
        "Ġb",
        "u"
      ],
      [
        "p",
        "h"
      ],
      [
        "is",
        "s"
      ],
      [
        "se",
        "l"
      ],
      [
        "Ġc",
        "ould"
      ],
      [
        "o",
        "ll"
      ],
      [
        "e",
        "w"
      ],
      [
        "it",
        "ies"
      ],
      [
        "Ġa",
        "ct"
      ],
      [
        "x",
        "t"
      ],
      [
        "j",
        "e"
      ],
      [
        "c",
        "ed"
      ],
      [
        "if",
        "e"
      ],
      [
        "f",
        "ore"
      ],
      [
        "Ġp",
        "h"
      ],
      [
        "er",
        "t"
      ],
      [
        "ur",
        "n"
      ],
      [
        "T",
        "h"
      ],
      [
        "Ġs",
        "erv"
      ],
      [
        "a",
        "w"
      ],
      [
        "if",
        "ic"
      ],
      [
        "pp",
        "ort"
      ],
      [
        "he",
        "n"
      ],
      [
        "Ġh",
        "im"
      ],
      [
        "Ġd",
        "if"
      ],
      [
        "ro",
        "w"
      ],
      [
        "Ġpl",
        "ay"
      ],
      [
        "u",
        "ch"
      ],
      [
        "Ġ",
        "very"
      ],
      [
        "Ġre",
        "l"
      ],
      [
        "Ġyear",
        "s"
      ],
      [
        "Ġs",
        "y"
      ],
      [
        "t",
        "ing"
      ],
      [
        "Ġin",
        "c"
      ],
      [
        "Ġw",
        "ay"
      ],
      [
        "Ġe",
        "ven"
      ],
      [
        "Ġre",
        "g"
      ],
      [
        "Ġg",
        "ood"
      ],
      [
        "on",
        "t"
      ],
      [
        "ers",
        "on"
      ],
      [
        "r",
        "it"
      ],
      [
        "Ġ",
        "ra"
      ],
      [
        "an",
        "ge"
      ],
      [
        "Ġp",
        "r"
      ],
      [
        "Ġin",
        "v"
      ],
      [
        "ation",
        "al"
      ],
      [
        "Ġn",
        "ow"
      ],
      [
        "Ġman",
        "y"
      ],
      [
        "Ġre",
        "m"
      ],
      [
        "o",
        "ck"
      ],
      [
        "Ġim",
        "p"
      ],
      [
        "Ġ",
        "ke"
      ],
      [
        "in",
        "ess"
      ],
      [
        "le",
        "ct"
      ],
      [
        "Ġe",
        "v"
      ],
      [
        "os",
        "s"
      ],
      [
        "Ġthe",
        "n"
      ],
      [
        "al",
        "s"
      ],
      [
        "Ġc",
        "ol"
      ],
      [
        "ak",
        "ing"
      ],
      [
        "Ġst",
        "ud"
      ],
      [
        "f",
        "ul"
      ],
      [
        "Ġ2",
        "00"
      ],
      [
        "Ġwhe",
        "re"
      ],
      [
        "c",
        "ess"
      ],
      [
        "Ġd",
        "id"
      ],
      [
        "Ġs",
        "m"
      ],
      [
        "ol",
        "og"
      ],
      [
        "c",
        "om"
      ],
      [
        "Ġsh",
        "ould"
      ],
      [
        "ot",
        "h"
      ],
      [
        "Ġr",
        "ight"
      ],
      [
        "as",
        "ed"
      ],
      [
        "|",
        "|"
      ],
      [
        "ĠY",
        "ou"
      ],
      [
        "f",
        "fe"
      ],
      [
        "ib",
        "le"
      ],
      [
        "il",
        "ity"
      ],
      [
        "id",
        "ent"
      ],
      [
        "o",
        "ol"
      ],
      [
        "an",
        "y"
      ],
      [
        "t",
        "s"
      ],
      [
        "Ġbec",
        "ause"
      ],
      [
        "ĠU",
        "n"
      ],
      [
        "at",
        "h"
      ],
      [
        "w",
        "ard"
      ],
      [
        "b",
        "s"
      ],
      [
        ".",
        "âĢĿ"
      ],
      [
        "Ġse",
        "c"
      ],
      [
        "ul",
        "ar"
      ],
      [
        "Ġst",
        "art"
      ],
      [
        "u",
        "res"
      ],
      [
        ")",
        ","
      ],
      [
        "b",
        "le"
      ],
      [
        "Ġd",
        "on"
      ],
      [
        "Ġo",
        "wn"
      ],
      [
        "ow",
        "er"
      ],
      [
        "ĠW",
        "h"
      ],
      [
        "i",
        "ed"
      ],
      [
        "ĠS",
        "e"
      ],
      [
        "g",
        "et"
      ],
      [
        "er",
        "m"
      ],
      [
        "ur",
        "ing"
      ],
      [
        "Ġex",
        "per"
      ],
      [
        "Ġg",
        "reat"
      ],
      [
        "Ġa",
        "c"
      ],
      [
        "ĠA",
        "s"
      ],
      [
        "Ġd",
        "own"
      ],
      [
        "Ġb",
        "us"
      ],
      [
        "Ġto",
        "o"
      ],
      [
        "Ġg",
        "u"
      ],
      [
        "h",
        "ip"
      ],
      [
        "y",
        "s"
      ],
      [
        "Ġf",
        "in"
      ],
      [
        "t",
        "y"
      ],
      [
        "Ġm",
        "uch"
      ],
      [
        "Ġsu",
        "ch"
      ],
      [
        "Ġth",
        "ink"
      ],
      [
        "Ġat",
        "t"
      ],
      [
        "ic",
        "es"
      ],
      [
        "Ġ",
        "ent"
      ],
      [
        "e",
        "ll"
      ],
      [
        "he",
        "s"
      ],
      [
        "ĠA",
        "nd"
      ],
      [
        "ot",
        "her"
      ],
      [
        "form",
        "ation"
      ],
      [
        "Ġ",
        "$"
      ],
      [
        "st",
        "em"
      ],
      [
        "Ġag",
        "ain"
      ],
      [
        "at",
        "ive"
      ],
      [
        "u",
        "p"
      ],
      [
        "Ġd",
        "ay"
      ],
      [
        "pe",
        "ct"
      ],
      [
        "it",
        "ed"
      ],
      [
        "ĠC",
        "om"
      ],
      [
        "Ġl",
        "ong"
      ],
      [
        "g",
        "an"
      ],
      [
        "it",
        "s"
      ],
      [
        "or",
        "k"
      ],
      [
        "Ġ",
        "6"
      ],
      [
        "ar",
        "ch"
      ],
      [
        "Ġt",
        "ake"
      ],
      [
        "Ġh",
        "igh"
      ],
      [
        "I",
        "n"
      ],
      [
        "vel",
        "op"
      ],
      [
        "ic",
        "t"
      ],
      [
        "a",
        "ir"
      ],
      [
        "ic",
        "s"
      ],
      [
        "Ġs",
        "et"
      ],
      [
        "om",
        "et"
      ],
      [
        "al",
        "th"
      ],
      [
        "Ġin",
        "st"
      ],
      [
        "Ġde",
        "c"
      ],
      [
        "en",
        "er"
      ],
      [
        "Ġc",
        "all"
      ],
      [
        "Ġf",
        "ind"
      ],
      [
        "Ġth",
        "ose"
      ],
      [
        "ri",
        "b"
      ],
      [
        "Ġbe",
        "fore"
      ],
      [
        "Ġhe",
        "re"
      ],
      [
        "Ġp",
        "res"
      ],
      [
        "Ġin",
        "te"
      ],
      [
        "Ġwe",
        "e"
      ],
      [
        "Ġdo",
        "es"
      ],
      [
        "Ġe",
        "nd"
      ],
      [
        "Ġbe",
        "l"
      ],
      [
        "u",
        "nd"
      ],
      [
        "Ġm",
        "ade"
      ],
      [
        "Ġsh",
        "ow"
      ],
      [
        "Ġm",
        "on"
      ],
      [
        "Ġbe",
        "ing"
      ],
      [
        "Ġ",
        "&"
      ],
      [
        "n",
        "er"
      ],
      [
        "as",
        "on"
      ],
      [
        "Ġre",
        "ad"
      ],
      [
        "Ġin",
        "s"
      ],
      [
        "ĠA",
        "n"
      ],
      [
        "c",
        "y"
      ],
      [
        "ĠP",
        "ro"
      ],
      [
        "Ġdif",
        "fe"
      ],
      [
        "ra",
        "ct"
      ],
      [
        "Ġb",
        "est"
      ],
      [
        "ĠD",
        "e"
      ],
      [
        "Ġp",
        "erson"
      ],
      [
        "i",
        "x"
      ],
      [
        "Ġre",
        "qu"
      ],
      [
        "oll",
        "ow"
      ],
      [
        "Ġwor",
        "ld"
      ],
      [
        "Ġas",
        "s"
      ],
      [
        "Ġc",
        "ar"
      ],
      [
        "u",
        "es"
      ],
      [
        "Ġm",
        "in"
      ],
      [
        "re",
        "st"
      ],
      [
        "al",
        "k"
      ],
      [
        "u",
        "ally"
      ],
      [
        "âĢ",
        "ľ"
      ],
      [
        "Ġl",
        "ast"
      ],
      [
        "a",
        "x"
      ],
      [
        "w",
        "ay"
      ],
      [
        "Ġl",
        "oc"
      ],
      [
        "i",
        "o"
      ],
      [
        "Ġs",
        "ur"
      ],
      [
        "Ġh",
        "ome"
      ],
      [
        "ĠI",
        "f"
      ],
      [
        "Ġf",
        "am"
      ],
      [
        "Ġb",
        "r"
      ],
      [
        "Ġs",
        "im"
      ],
      [
        "n",
        "g"
      ],
      [
        "ch",
        "ool"
      ],
      [
        "an",
        "k"
      ],
      [
        "2",
        "0"
      ],
      [
        "Ġbus",
        "iness"
      ],
      [
        "Ġ1",
        "0"
      ],
      [
        "ĠN",
        "ew"
      ],
      [
        "je",
        "ct"
      ],
      [
        "gr",
        "am"
      ],
      [
        "Ġha",
        "nd"
      ],
      [
        "Ġl",
        "ife"
      ],
      [
        "Ġin",
        "formation"
      ],
      [
        "Ġ",
        "7"
      ],
      [
        "Ġc",
        "he"
      ],
      [
        "Ġp",
        "ol"
      ],
      [
        "Ġa",
        "v"
      ],
      [
        "l",
        "ine"
      ],
      [
        "sel",
        "f"
      ],
      [
        "..",
        "."
      ],
      [
        "v",
        "ing"
      ],
      [
        "a",
        "ve"
      ],
      [
        "Ġe",
        "ar"
      ],
      [
        "W",
        "e"
      ],
      [
        "in",
        "s"
      ],
      [
        "ub",
        "lic"
      ],
      [
        "l",
        "ed"
      ],
      [
        "p",
        "en"
      ],
      [
        "Ġsy",
        "stem"
      ],
      [
        "in",
        "ce"
      ],
      [
        "ĠB",
        "ut"
      ],
      [
        "Ġm",
        "ark"
      ],
      [
        "Ġwh",
        "ile"
      ],
      [
        "Ġde",
        "velop"
      ],
      [
        "Ġtr",
        "ans"
      ],
      [
        "Ġm",
        "ed"
      ],
      [
        "Ġle",
        "ad"
      ],
      [
        "at",
        "ch"
      ],
      [
        "Ġc",
        "ount"
      ],
      [
        "Ġm",
        "em"
      ],
      [
        "Ġus",
        "ed"
      ],
      [
        "Ġin",
        "ter"
      ],
      [
        "ou",
        "se"
      ],
      [
        ".",
        "\""
      ],
      [
        "l",
        "i"
      ],
      [
        "ro",
        "s"
      ],
      [
        "ch",
        "n"
      ],
      [
        "l",
        "and"
      ],
      [
        "at",
        "her"
      ],
      [
        "a",
        "z"
      ],
      [
        "p",
        "r"
      ],
      [
        "Ġ",
        "8"
      ],
      [
        "Ġe",
        "ach"
      ],
      [
        "iv",
        "es"
      ],
      [
        "ar",
        "m"
      ],
      [
        "Ġm",
        "od"
      ],
      [
        "Ġc",
        "re"
      ],
      [
        "Ġre",
        "ally"
      ],
      [
        "Ġth",
        "ough"
      ],
      [
        "n",
        "ess"
      ],
      [
        "p",
        "le"
      ],
      [
        "Ġre",
        "t"
      ],
      [
        "Ġsu",
        "b"
      ],
      [
        "Ġn",
        "um"
      ],
      [
        "Ġgo",
        "ing"
      ],
      [
        "v",
        "iew"
      ],
      [
        "Ġar",
        "t"
      ],
      [
        "ak",
        "es"
      ],
      [
        "Ġa",
        "round"
      ],
      [
        "Ġfor",
        "m"
      ],
      [
        "ce",
        "pt"
      ],
      [
        "im",
        "es"
      ],
      [
        "Ġd",
        "et"
      ],
      [
        "Ġf",
        "ollow"
      ],
      [
        "in",
        "es"
      ],
      [
        "ĠA",
        "l"
      ],
      [
        "Ġdis",
        "c"
      ],
      [
        "Ġs",
        "omet"
      ],
      [
        "Ġc",
        "our"
      ],
      [
        "mer",
        "ic"
      ],
      [
        "we",
        "en"
      ],
      [
        "re",
        "ad"
      ],
      [
        ",",
        "âĢĿ"
      ],
      [
        "Ġsu",
        "pport"
      ],
      [
        "al",
        "e"
      ],
      [
        "Ġv",
        "is"
      ],
      [
        "i",
        "ence"
      ],
      [
        "g",
        "g"
      ],
      [
        "Ġdes",
        "ign"
      ],
      [
        "Ġst",
        "ill"
      ],
      [
        "ut",
        "ion"
      ],
      [
        "en",
        "e"
      ],
      [
        "Ġs",
        "er"
      ],
      [
        "ou",
        "n"
      ],
      [
        "ĠS",
        "h"
      ],
      [
        "ction",
        "s"
      ],
      [
        "e",
        "ver"
      ],
      [
        "rou",
        "p"
      ],
      [
        "Ġs",
        "ay"
      ],
      [
        "ri",
        "end"
      ],
      [
        "al",
        "ity"
      ],
      [
        "ire",
        "ct"
      ],
      [
        "le",
        "ase"
      ],
      [
        "v",
        "ed"
      ],
      [
        "et",
        "s"
      ],
      [
        "iz",
        "e"
      ],
      [
        "as",
        "h"
      ],
      [
        "Ġc",
        "ur"
      ],
      [
        "Ġcomp",
        "le"
      ],
      [
        "Ġb",
        "ook"
      ],
      [
        "Ġte",
        "am"
      ],
      [
        "Ġs",
        "ame"
      ],
      [
        "Ġs",
        "l"
      ],
      [
        "Ġc",
        "are"
      ],
      [
        "d",
        "er"
      ],
      [
        "Ġst",
        "r"
      ],
      [
        "Ġad",
        "v"
      ],
      [
        "Ġ",
        "ed"
      ],
      [
        "Ġprov",
        "id"
      ],
      [
        "ĠS",
        "o"
      ],
      [
        "Ġpo",
        "int"
      ],
      [
        "Ġg",
        "r"
      ],
      [
        "at",
        "a"
      ],
      [
        "Ġs",
        "k"
      ],
      [
        "Ġbet",
        "ween"
      ],
      [
        "Ġdiffe",
        "rent"
      ],
      [
        "Ġr",
        "un"
      ],
      [
        "Ġs",
        "ign"
      ],
      [
        "i",
        "vers"
      ],
      [
        "ĠA",
        "r"
      ],
      [
        "Ġch",
        "ar"
      ],
      [
        "a",
        "h"
      ],
      [
        "ag",
        "es"
      ],
      [
        "ĠF",
        "or"
      ],
      [
        "Th",
        "is"
      ],
      [
        "Ġa",
        "ut"
      ],
      [
        "t",
        "he"
      ],
      [
        "m",
        "an"
      ],
      [
        "Ġth",
        "ree"
      ],
      [
        "Ġch",
        "ild"
      ],
      [
        "Ġfe",
        "el"
      ],
      [
        "ĠThe",
        "y"
      ],
      [
        "ar",
        "s"
      ],
      [
        "itt",
        "le"
      ],
      [
        "Ġf",
        "ound"
      ],
      [
        "ut",
        "e"
      ],
      [
        "Ġcomm",
        "un"
      ],
      [
        "Ġpl",
        "ace"
      ],
      [
        "Ġb",
        "oth"
      ],
      [
        "W",
        "h"
      ],
      [
        "ĠC",
        "l"
      ],
      [
        "Ġ",
        "9"
      ],
      [
        "I",
        "t"
      ],
      [
        "ĠB",
        "e"
      ],
      [
        "Ġc",
        "le"
      ],
      [
        "Ġpro",
        "gram"
      ],
      [
        "Ġst",
        "ate"
      ],
      [
        "Ġg",
        "l"
      ],
      [
        "e",
        "x"
      ],
      [
        "ust",
        "om"
      ],
      [
        "Ġfe",
        "w"
      ],
      [
        "Ġex",
        "p"
      ],
      [
        "ĠA",
        "meric"
      ],
      [
        "00",
        "0"
      ],
      [
        "Ġe",
        "as"
      ],
      [
        "Ġb",
        "o"
      ],
      [
        "l",
        "ess"
      ],
      [
        "w",
        "ays"
      ],
      [
        "ion",
        "al"
      ],
      [
        "Ġl",
        "ot"
      ],
      [
        "Ġp",
        "ost"
      ],
      [
        "Ġre",
        "p"
      ],
      [
        "Ġp",
        "ur"
      ],
      [
        "Ġha",
        "pp"
      ],
      [
        "od",
        "y"
      ],
      [
        "ist",
        "s"
      ],
      [
        "ĠL",
        "e"
      ],
      [
        "b",
        "e"
      ],
      [
        "i",
        "red"
      ],
      [
        "Ġf",
        "ree"
      ],
      [
        "t",
        "en"
      ],
      [
        "t",
        "on"
      ],
      [
        "iz",
        "ed"
      ],
      [
        "Ġm",
        "et"
      ],
      [
        "Ġf",
        "un"
      ],
      [
        "v",
        "es"
      ],
      [
        "et",
        "y"
      ],
      [
        "or",
        "n"
      ],
      [
        "Ġth",
        "ings"
      ],
      [
        "am",
        "es"
      ],
      [
        "Ġex",
        "t"
      ],
      [
        "Ġl",
        "ove"
      ],
      [
        "i",
        "ent"
      ],
      [
        "ver",
        "n"
      ],
      [
        "olog",
        "y"
      ],
      [
        "Ġf",
        "ull"
      ],
      [
        "ĠA",
        "d"
      ],
      [
        "Ġl",
        "ar"
      ],
      [
        "th",
        "ing"
      ],
      [
        "Ġim",
        "port"
      ],
      [
        "ffe",
        "ct"
      ],
      [
        "Ġpro",
        "cess"
      ],
      [
        "Ġto",
        "p"
      ],
      [
        "Ġg",
        "ener"
      ],
      [
        "Ġpro",
        "f"
      ],
      [
        "Ġmon",
        "th"
      ],
      [
        "u",
        "c"
      ],
      [
        "o",
        "h"
      ],
      [
        "Ġl",
        "ittle"
      ],
      [
        "Ġhe",
        "alth"
      ],
      [
        "Ġre",
        "al"
      ],
      [
        "ant",
        "s"
      ],
      [
        "Ġre",
        "port"
      ],
      [
        "Ġl",
        "ist"
      ],
      [
        "Ġf",
        "act"
      ],
      [
        "at",
        "ure"
      ],
      [
        "Ġte",
        "chn"
      ],
      [
        "c",
        "ent"
      ],
      [
        "ail",
        "able"
      ],
      [
        "Ġd",
        "uring"
      ],
      [
        "it",
        "al"
      ],
      [
        "ros",
        "s"
      ],
      [
        "Ġpl",
        "an"
      ],
      [
        "is",
        "hed"
      ],
      [
        "b",
        "ers"
      ],
      [
        "c",
        "er"
      ],
      [
        "Ġke",
        "ep"
      ],
      [
        "ie",
        "ld"
      ],
      [
        ",",
        "\""
      ],
      [
        "u",
        "g"
      ],
      [
        "Ġde",
        "f"
      ],
      [
        "Ġcom",
        "e"
      ],
      [
        "c",
        "on"
      ],
      [
        "ar",
        "n"
      ],
      [
        "Ġo",
        "pen"
      ],
      [
        "Ġre",
        "f"
      ],
      [
        "Ġo",
        "b"
      ],
      [
        "Ġf",
        "il"
      ],
      [
        "er",
        "ing"
      ],
      [
        "Ġapp",
        "ro"
      ],
      [
        "Ġp",
        "oss"
      ],
      [
        "at",
        "t"
      ],
      [
        "Ġc",
        "ent"
      ],
      [
        "t",
        "t"
      ],
      [
        "Ġf",
        "r"
      ],
      [
        "ra",
        "nd"
      ],
      [
        "Ġin",
        "t"
      ],
      [
        "Ġsomet",
        "hing"
      ],
      [
        "Ġus",
        "ing"
      ],
      [
        "ic",
        "ally"
      ],
      [
        "Ġpart",
        "ic"
      ],
      [
        "Ġinte",
        "rest"
      ],
      [
        "Ġre",
        "st"
      ],
      [
        "Ġis",
        "s"
      ],
      [
        "m",
        "s"
      ],
      [
        "Ġcont",
        "in"
      ],
      [
        "1",
        "0"
      ],
      [
        "a",
        "red"
      ],
      [
        "o",
        "ad"
      ],
      [
        "Ġg",
        "ot"
      ],
      [
        "iv",
        "ing"
      ],
      [
        "g",
        "y"
      ],
      [
        "ent",
        "ion"
      ],
      [
        "in",
        "ed"
      ],
      [
        "at",
        "ur"
      ],
      [
        "o",
        "ot"
      ],
      [
        "Ġres",
        "p"
      ],
      [
        "ĠB",
        "l"
      ],
      [
        "Ġwith",
        "out"
      ],
      [
        "Ġb",
        "ig"
      ],
      [
        "Ġm",
        "ight"
      ],
      [
        "in",
        "ing"
      ],
      [
        "Ġres",
        "ult"
      ],
      [
        "Ġc",
        "or"
      ],
      [
        "Ġc",
        "ustom"
      ],
      [
        "Ġp",
        "ut"
      ],
      [
        "Ġm",
        "ust"
      ],
      [
        "Ġbet",
        "ter"
      ],
      [
        "Ġall",
        "ow"
      ],
      [
        "Ġne",
        "xt"
      ],
      [
        "ĠThe",
        "re"
      ],
      [
        "Ġcon",
        "f"
      ],
      [
        "Ġf",
        "riend"
      ],
      [
        "Ġt",
        "y"
      ],
      [
        "Ġp",
        "ri"
      ],
      [
        "Ġp",
        "at"
      ],
      [
        "Ġcomp",
        "any"
      ],
      [
        "Ġan",
        "other"
      ],
      [
        "Ġg",
        "ame"
      ],
      [
        "Ġg",
        "roup"
      ],
      [
        "Ġp",
        "ass"
      ],
      [
        "Ġinclud",
        "ing"
      ],
      [
        "Ġt",
        "ry"
      ],
      [
        "Ġv",
        "ar"
      ],
      [
        "g",
        "er"
      ],
      [
        "Ġsm",
        "all"
      ],
      [
        "Ġhe",
        "ad"
      ],
      [
        "Ġs",
        "chool"
      ],
      [
        "Ġd",
        "ist"
      ],
      [
        "Ġav",
        "ailable"
      ],
      [
        "Ġal",
        "ways"
      ],
      [
        "Ġs",
        "ol"
      ],
      [
        "Ġst",
        "and"
      ],
      [
        "Ġt",
        "ri"
      ],
      [
        "Ġwee",
        "k"
      ],
      [
        "Ġqu",
        "est"
      ],
      [
        "ĠS",
        "he"
      ],
      [
        "Ġsec",
        "ond"
      ],
      [
        "Ġ",
        "ide"
      ],
      [
        "ĠâĢ",
        "ĺ"
      ],
      [
        "Ġor",
        "gan"
      ],
      [
        "i",
        "qu"
      ],
      [
        "âĢ",
        "¦"
      ],
      [
        "Ġm",
        "ain"
      ],
      [
        "re",
        "en"
      ],
      [
        "Ġs",
        "ince"
      ],
      [
        "i",
        "k"
      ],
      [
        "Ġd",
        "ata"
      ],
      [
        "Ġd",
        "ri"
      ],
      [
        "us",
        "s"
      ],
      [
        "pl",
        "oy"
      ],
      [
        "Ġne",
        "ver"
      ],
      [
        "ĠH",
        "ow"
      ],
      [
        "Ġfam",
        "ily"
      ],
      [
        "st",
        "and"
      ],
      [
        "Ġm",
        "us"
      ],
      [
        "Ġv",
        "al"
      ],
      [
        "Ġw",
        "r"
      ],
      [
        "Ġm",
        "ov"
      ],
      [
        "Ġw",
        "ater"
      ],
      [
        "Ġmark",
        "et"
      ],
      [
        "Ġo",
        "pt"
      ],
      [
        "i",
        "er"
      ],
      [
        "Ġh",
        "ard"
      ],
      [
        "ro",
        "l"
      ],
      [
        "amp",
        "le"
      ],
      [
        "Ġbu",
        "ild"
      ],
      [
        "ert",
        "ain"
      ],
      [
        "Ġnum",
        "ber"
      ],
      [
        "ate",
        "ly"
      ],
      [
        "ĠA",
        "ll"
      ],
      [
        "w",
        "are"
      ],
      [
        "Ġre",
        "ce"
      ],
      [
        "Ġc",
        "r"
      ],
      [
        "Ġinc",
        "re"
      ],
      [
        "a",
        "j"
      ],
      [
        "ĠF",
        "r"
      ],
      [
        "ĠE",
        "x"
      ],
      [
        "is",
        "m"
      ],
      [
        "Ġo",
        "ld"
      ],
      [
        "l",
        "ing"
      ],
      [
        "Ġas",
        "k"
      ],
      [
        "ill",
        "ion"
      ],
      [
        "Ġpro",
        "ble"
      ],
      [
        "Ġp",
        "ower"
      ],
      [
        "Ġp",
        "ublic"
      ],
      [
        "Ġp",
        "ay"
      ],
      [
        "is",
        "ion"
      ],
      [
        "Ġper",
        "form"
      ],
      [
        "Ġex",
        "pl"
      ],
      [
        "ĠO",
        "n"
      ],
      [
        "ĠI",
        "nd"
      ],
      [
        "Ġb",
        "ro"
      ],
      [
        "p",
        "s"
      ],
      [
        "r",
        "al"
      ],
      [
        "ĠâĢ",
        "Ķ"
      ],
      [
        "1",
        "9"
      ],
      [
        "Ġcl",
        "ass"
      ],
      [
        "Ġd",
        "ays"
      ],
      [
        "t",
        "ed"
      ],
      [
        "ĠP",
        "l"
      ],
      [
        "Ġw",
        "om"
      ],
      [
        "Ġimport",
        "ant"
      ],
      [
        "el",
        "s"
      ],
      [
        "Ġsu",
        "re"
      ],
      [
        "ren",
        "ce"
      ],
      [
        "m",
        "e"
      ],
      [
        "âĢ",
        "Ķ"
      ],
      [
        "ĠI",
        "s"
      ],
      [
        "Ġle",
        "vel"
      ],
      [
        "Ġd",
        "irect"
      ],
      [
        "Ġin",
        "f"
      ],
      [
        "ivers",
        "ity"
      ],
      [
        "Ġagain",
        "st"
      ],
      [
        "Ġspe",
        "c"
      ],
      [
        "en",
        "se"
      ],
      [
        "r",
        "ist"
      ],
      [
        "Ġ",
        "Q"
      ],
      [
        "Ġexper",
        "ience"
      ],
      [
        "Ġe",
        "l"
      ],
      [
        "Ġl",
        "aw"
      ],
      [
        "one",
        "y"
      ],
      [
        "E",
        "R"
      ],
      [
        "i",
        "or"
      ],
      [
        "I",
        "f"
      ],
      [
        "cc",
        "ess"
      ],
      [
        "Ġ",
        "ve"
      ],
      [
        "Ġw",
        "in"
      ],
      [
        "Ġserv",
        "ice"
      ],
      [
        "ir",
        "d"
      ],
      [
        "Ġg",
        "ive"
      ],
      [
        "Ġse",
        "em"
      ],
      [
        "Ġ",
        "i"
      ],
      [
        "o",
        "k"
      ],
      [
        "Ġc",
        "ost"
      ],
      [
        "Ġh",
        "um"
      ],
      [
        "w",
        "ork"
      ],
      [
        "Ġc",
        "a"
      ],
      [
        "c",
        "o"
      ],
      [
        "pe",
        "nd"
      ],
      [
        "in",
        "al"
      ],
      [
        "Ġab",
        "le"
      ],
      [
        "u",
        "ck"
      ],
      [
        "Ġl",
        "ess"
      ],
      [
        "Ġbel",
        "ie"
      ],
      [
        "Ġt",
        "est"
      ],
      [
        "Ġ",
        "0"
      ],
      [
        "Ġl",
        "ight"
      ],
      [
        "ot",
        "e"
      ],
      [
        "Ġle",
        "t"
      ],
      [
        "Ġ1",
        "8"
      ],
      [
        "ard",
        "s"
      ],
      [
        "Ġinv",
        "est"
      ],
      [
        "Ġf",
        "our"
      ],
      [
        "ra",
        "ph"
      ],
      [
        "Ġs",
        "ays"
      ],
      [
        "Ġb",
        "re"
      ],
      [
        "Ġg",
        "row"
      ],
      [
        "Ġp",
        "os"
      ],
      [
        "as",
        "es"
      ],
      [
        "Ġ",
        "'"
      ],
      [
        "e",
        "red"
      ],
      [
        "Ġ1",
        "2"
      ],
      [
        "our",
        "s"
      ],
      [
        "Ġu",
        "nt"
      ],
      [
        "he",
        "re"
      ],
      [
        "Ġ",
        "Z"
      ],
      [
        "ab",
        "ly"
      ],
      [
        ".",
        ","
      ],
      [
        "ĠT",
        "e"
      ],
      [
        "Ġre",
        "se"
      ],
      [
        "ĠC",
        "on"
      ],
      [
        "Ġon",
        "line"
      ],
      [
        "Ġcur",
        "rent"
      ],
      [
        "Ġme",
        "et"
      ],
      [
        "g",
        "in"
      ],
      [
        "Ġwith",
        "in"
      ],
      [
        "Ġle",
        "g"
      ],
      [
        "at",
        "s"
      ],
      [
        "r",
        "ation"
      ],
      [
        "Ġs",
        "it"
      ],
      [
        "Ġd",
        "i"
      ],
      [
        "iv",
        "id"
      ],
      [
        "Ġprov",
        "ide"
      ],
      [
        "Ġgo",
        "vern"
      ],
      [
        "H",
        "e"
      ],
      [
        "Ġor",
        "der"
      ],
      [
        "ĠP",
        "h"
      ],
      [
        "Ġp",
        "op"
      ],
      [
        "ĠC",
        "ol"
      ],
      [
        "o",
        "pe"
      ],
      [
        "c",
        "ing"
      ],
      [
        "p",
        "os"
      ],
      [
        "at",
        "or"
      ],
      [
        "pp",
        "ed"
      ],
      [
        "Ġ",
        "."
      ],
      [
        "ou",
        "th"
      ],
      [
        "i",
        "en"
      ],
      [
        "Ġt",
        "urn"
      ],
      [
        "r",
        "on"
      ],
      [
        "5",
        "0"
      ],
      [
        "Ġo",
        "per"
      ],
      [
        "ff",
        "ic"
      ],
      [
        "an",
        "n"
      ],
      [
        "re",
        "t"
      ],
      [
        "ent",
        "ly"
      ],
      [
        "Ġan",
        "n"
      ],
      [
        "Ġpro",
        "per"
      ],
      [
        "Ġto",
        "day"
      ],
      [
        "Ġa",
        "way"
      ],
      [
        "pp",
        "ing"
      ],
      [
        "m",
        "ed"
      ],
      [
        "ain",
        "s"
      ],
      [
        "ĠTh",
        "at"
      ],
      [
        "Ġh",
        "ist"
      ],
      [
        "Ġbe",
        "h"
      ],
      [
        "i",
        "ents"
      ],
      [
        "Ġ",
        "est"
      ],
      [
        "a",
        "ut"
      ],
      [
        "iss",
        "ion"
      ],
      [
        "em",
        "ber"
      ],
      [
        "ot",
        "t"
      ],
      [
        "Ġs",
        "ing"
      ],
      [
        "w",
        "w"
      ],
      [
        "id",
        "er"
      ],
      [
        "ur",
        "y"
      ],
      [
        "is",
        "ed"
      ],
      [
        "e",
        "c"
      ],
      [
        "Ġf",
        "ood"
      ],
      [
        "Ġpro",
        "te"
      ],
      [
        "Ġde",
        "m"
      ],
      [
        "Ġpre",
        "v"
      ],
      [
        "ne",
        "y"
      ],
      [
        "Ġn",
        "ight"
      ],
      [
        "Ġsu",
        "pp"
      ],
      [
        "Ġj",
        "ob"
      ],
      [
        "Ġv",
        "iew"
      ],
      [
        "h",
        "or"
      ],
      [
        "ĠU",
        "S"
      ],
      [
        "Ġwork",
        "ing"
      ],
      [
        "g",
        "ed"
      ],
      [
        "o",
        "int"
      ],
      [
        "Ġacc",
        "ess"
      ],
      [
        "i",
        "um"
      ],
      [
        "ru",
        "ct"
      ],
      [
        "Ġm",
        "aking"
      ],
      [
        "ord",
        "ing"
      ],
      [
        "m",
        "in"
      ],
      [
        "Y",
        "ou"
      ],
      [
        "re",
        "am"
      ],
      [
        "l",
        "ish"
      ],
      [
        "Ġpres",
        "ent"
      ],
      [
        "at",
        "ter"
      ],
      [
        "Ġare",
        "a"
      ],
      [
        "A",
        "s"
      ],
      [
        "ir",
        "on"
      ],
      [
        "Ġp",
        "rom"
      ],
      [
        "le",
        "y"
      ],
      [
        "Ġen",
        "g"
      ],
      [
        "Ġadd",
        "ition"
      ],
      [
        "p",
        "or"
      ],
      [
        "u",
        "red"
      ],
      [
        "Ġcour",
        "se"
      ],
      [
        "Ġserv",
        "ices"
      ],
      [
        "te",
        "nd"
      ],
      [
        "Ġt",
        "ru"
      ],
      [
        "Ġch",
        "ange"
      ],
      [
        "if",
        "ied"
      ],
      [
        "ĠO",
        "r"
      ],
      [
        "Ġch",
        "ang"
      ],
      [
        "Ġc",
        "ase"
      ],
      [
        "Ġunt",
        "il"
      ],
      [
        "ar",
        "ing"
      ],
      [
        "3",
        "0"
      ],
      [
        "Ġspe",
        "cial"
      ],
      [
        "Ġe",
        "qu"
      ],
      [
        "ĠT",
        "o"
      ],
      [
        "ĠCom",
        "m"
      ],
      [
        "fe",
        "ct"
      ],
      [
        "e",
        "ad"
      ],
      [
        "Ġth",
        "ing"
      ],
      [
        "or",
        "th"
      ],
      [
        "id",
        "s"
      ],
      [
        "o",
        "f"
      ],
      [
        "Ġc",
        "ap"
      ],
      [
        "ĠS",
        "p"
      ],
      [
        "Ġs",
        "al"
      ],
      [
        "Ġp",
        "ast"
      ],
      [
        "Ġloc",
        "al"
      ],
      [
        "ĠS",
        "c"
      ],
      [
        "in",
        "a"
      ],
      [
        "so",
        "ci"
      ],
      [
        "'",
        "re"
      ],
      [
        "ir",
        "l"
      ],
      [
        "I",
        "N"
      ],
      [
        "Ġde",
        "v"
      ],
      [
        "ĠR",
        "es"
      ],
      [
        "or",
        "ies"
      ],
      [
        "Ġ",
        "["
      ],
      [
        "Ġchild",
        "ren"
      ],
      [
        "Ġstud",
        "ents"
      ],
      [
        "ĠT",
        "r"
      ],
      [
        "Ġwor",
        "d"
      ],
      [
        "Ġwh",
        "y"
      ],
      [
        "b",
        "y"
      ],
      [
        "ab",
        "ility"
      ],
      [
        "if",
        "y"
      ],
      [
        "Ġle",
        "ft"
      ],
      [
        "ĠM",
        "an"
      ],
      [
        "Ġph",
        "ot"
      ],
      [
        "c",
        "u"
      ],
      [
        "en",
        "g"
      ],
      [
        "om",
        "m"
      ],
      [
        "Ġk",
        "ind"
      ],
      [
        "Ġf",
        "ac"
      ],
      [
        "s",
        "h"
      ],
      [
        "Ġe",
        "ffect"
      ],
      [
        "um",
        "p"
      ],
      [
        "Ġcon",
        "st"
      ],
      [
        "Ġp",
        "ract"
      ],
      [
        "ĠN",
        "o"
      ],
      [
        "Ġlook",
        "ing"
      ],
      [
        "le",
        "ction"
      ],
      [
        "Ġse",
        "ason"
      ],
      [
        "con",
        "om"
      ],
      [
        "au",
        "gh"
      ],
      [
        "Ġin",
        "tern"
      ],
      [
        "Ġt",
        "erm"
      ],
      [
        "it",
        "ing"
      ],
      [
        "Ġlar",
        "ge"
      ],
      [
        "Ġwe",
        "bs"
      ],
      [
        "j",
        "oy"
      ],
      [
        "ri",
        "es"
      ],
      [
        "ic",
        "le"
      ],
      [
        "1",
        "2"
      ],
      [
        "ĠC",
        "ent"
      ],
      [
        "Ġb",
        "as"
      ],
      [
        "Ġ1",
        "5"
      ],
      [
        "Ġunder",
        "stand"
      ],
      [
        "Ġm",
        "oney"
      ],
      [
        "Ġt",
        "alk"
      ],
      [
        "Ġd",
        "r"
      ],
      [
        "Ġem",
        "ploy"
      ],
      [
        "it",
        "ions"
      ],
      [
        "Ġev",
        "ent"
      ],
      [
        "oh",
        "n"
      ],
      [
        "le",
        "t"
      ],
      [
        "Ġprof",
        "ess"
      ],
      [
        "Ġt",
        "imes"
      ],
      [
        "b",
        "o"
      ],
      [
        "Ġro",
        "om"
      ],
      [
        "Ġn",
        "ame"
      ],
      [
        "are",
        "nt"
      ],
      [
        "iz",
        "ation"
      ],
      [
        "is",
        "ing"
      ],
      [
        "ĠM",
        "ar"
      ],
      [
        "Ġof",
        "ten"
      ],
      [
        "Ġsu",
        "ccess"
      ],
      [
        "ĠC",
        "an"
      ],
      [
        "Ġen",
        "ough"
      ],
      [
        "Ġal",
        "ong"
      ],
      [
        "Ġte",
        "ll"
      ],
      [
        "Ġm",
        "ove"
      ],
      [
        "Ġw",
        "rit"
      ],
      [
        "Ġact",
        "iv"
      ],
      [
        "Ġv",
        "ide"
      ],
      [
        "Ġapp",
        "lic"
      ],
      [
        "Ġne",
        "ar"
      ],
      [
        "Ġha",
        "ving"
      ],
      [
        "Ġd",
        "ra"
      ],
      [
        "Ġcon",
        "d"
      ],
      [
        "Ġs",
        "ite"
      ],
      [
        "aj",
        "or"
      ],
      [
        "age",
        "ment"
      ],
      [
        "Ġdid",
        "n"
      ],
      [
        "p",
        "art"
      ],
      [
        "get",
        "her"
      ],
      [
        "Ġto",
        "gether"
      ],
      [
        "Ġimp",
        "ro"
      ],
      [
        "ĠCh",
        "rist"
      ],
      [
        "read",
        "y"
      ],
      [
        "Ġcomple",
        "te"
      ],
      [
        "iv",
        "ed"
      ],
      [
        "Ġt",
        "reat"
      ],
      [
        "od",
        "e"
      ],
      [
        "ĠW",
        "hen"
      ],
      [
        "in",
        "ation"
      ],
      [
        "ut",
        "es"
      ],
      [
        "Ġ",
        "es"
      ],
      [
        "1",
        "1"
      ],
      [
        "al",
        "f"
      ],
      [
        "as",
        "ter"
      ],
      [
        "Ġe",
        "ver"
      ],
      [
        "ent",
        "ial"
      ],
      [
        "Ġind",
        "ust"
      ],
      [
        "oc",
        "us"
      ],
      [
        "Ġrec",
        "ord"
      ],
      [
        "Ġs",
        "w"
      ],
      [
        "Ġche",
        "ck"
      ],
      [
        "Ġcount",
        "ry"
      ],
      [
        "ill",
        "s"
      ],
      [
        "an",
        "e"
      ],
      [
        "ver",
        "al"
      ],
      [
        "ur",
        "s"
      ],
      [
        "ĠE",
        "ng"
      ],
      [
        "un",
        "e"
      ],
      [
        "iv",
        "en"
      ],
      [
        "Ġprodu",
        "ct"
      ],
      [
        "Ġc",
        "reat"
      ],
      [
        "Ġcommun",
        "ity"
      ],
      [
        "a",
        "im"
      ],
      [
        "Ġh",
        "ouse"
      ],
      [
        "en",
        "n"
      ],
      [
        "Ġle",
        "arn"
      ],
      [
        "Ġsh",
        "ort"
      ],
      [
        "Ġp",
        "ain"
      ],
      [
        "Ġcall",
        "ed"
      ],
      [
        "ĠUn",
        "iversity"
      ],
      [
        "Ġprodu",
        "cts"
      ],
      [
        "e",
        "e"
      ],
      [
        "Ġex",
        "pect"
      ],
      [
        "ĠWh",
        "at"
      ],
      [
        "Ġbec",
        "ome"
      ],
      [
        "ater",
        "ial"
      ],
      [
        "it",
        "ive"
      ],
      [
        "Ġa",
        "ir"
      ],
      [
        "Ġf",
        "ar"
      ],
      [
        "ĠM",
        "ay"
      ],
      [
        "ĠC",
        "o"
      ],
      [
        "Ġ19",
        "9"
      ],
      [
        "Ġb",
        "ody"
      ],
      [
        "Ġm",
        "en"
      ],
      [
        "Ġc",
        "ame"
      ],
      [
        "ĠA",
        "t"
      ],
      [
        "Ġb",
        "it"
      ],
      [
        "Ġs",
        "ide"
      ],
      [
        "Ġd",
        "one"
      ],
      [
        "Ġl",
        "ine"
      ],
      [
        "er",
        "n"
      ],
      [
        "b",
        "r"
      ],
      [
        "Wh",
        "at"
      ],
      [
        "ivid",
        "ual"
      ],
      [
        "Ġ3",
        "0"
      ],
      [
        "Ġst",
        "ory"
      ],
      [
        "ĠW",
        "ith"
      ],
      [
        "Ġcon",
        "ne"
      ],
      [
        "Ġal",
        "ready"
      ],
      [
        "Ġb",
        "ene"
      ],
      [
        "us",
        "h"
      ],
      [
        "Ġfollow",
        "ing"
      ],
      [
        "ow",
        "s"
      ],
      [
        "Ġoff",
        "ic"
      ],
      [
        "Ġinclud",
        "e"
      ],
      [
        "'",
        "m"
      ],
      [
        "s",
        "ide"
      ],
      [
        "Ġmem",
        "bers"
      ],
      [
        "Ġcont",
        "rol"
      ],
      [
        "ĠG",
        "od"
      ],
      [
        "Ġoff",
        "er"
      ],
      [
        "ot",
        "s"
      ],
      [
        "Ġm",
        "ar"
      ],
      [
        "v",
        "iron"
      ],
      [
        "Ġbu",
        "y"
      ],
      [
        "ain",
        "ed"
      ],
      [
        "Ġo",
        "cc"
      ],
      [
        "en",
        "cy"
      ],
      [
        "Ġfe",
        "at"
      ],
      [
        "s",
        "on"
      ],
      [
        "ore",
        "d"
      ],
      [
        "Ġw",
        "ent"
      ],
      [
        "Ġ1",
        "1"
      ],
      [
        "er",
        "y"
      ],
      [
        "Ġc",
        "ertain"
      ],
      [
        "F",
        "or"
      ],
      [
        "Ġ",
        "|"
      ],
      [
        "Ġacc",
        "ount"
      ],
      [
        "Ġen",
        "joy"
      ],
      [
        "Ġtr",
        "ad"
      ],
      [
        "Ġother",
        "s"
      ],
      [
        "Ġposs",
        "ible"
      ],
      [
        "Ġso",
        "cial"
      ],
      [
        "Ġm",
        "il"
      ],
      [
        "O",
        "N"
      ],
      [
        "Ġperson",
        "al"
      ],
      [
        "Ġse",
        "veral"
      ],
      [
        "Ġf",
        "ore"
      ],
      [
        "Ġrese",
        "arch"
      ],
      [
        "Ġp",
        "a"
      ],
      [
        "Ġre",
        "view"
      ],
      [
        "ĠAmeric",
        "an"
      ],
      [
        "Ġme",
        "an"
      ],
      [
        "Ġret",
        "urn"
      ],
      [
        "Ġget",
        "ting"
      ],
      [
        "ĠC",
        "ar"
      ],
      [
        "ro",
        "p"
      ],
      [
        "Ġgovern",
        "ment"
      ],
      [
        "S",
        "t"
      ],
      [
        "Ġnew",
        "s"
      ],
      [
        "it",
        "her"
      ],
      [
        "ra",
        "p"
      ],
      [
        "f",
        "er"
      ],
      [
        "and",
        "s"
      ],
      [
        "ĠF",
        "l"
      ],
      [
        "Ġme",
        "ans"
      ],
      [
        "Ġl",
        "ive"
      ],
      [
        "pport",
        "un"
      ],
      [
        "Ġt",
        "re"
      ],
      [
        "Ġm",
        "akes"
      ],
      [
        "Ġneed",
        "s"
      ],
      [
        "Ġle",
        "ast"
      ],
      [
        "Ġtoo",
        "k"
      ],
      [
        "Ġh",
        "old"
      ],
      [
        "Ġmus",
        "ic"
      ],
      [
        "Ġb",
        "ased"
      ],
      [
        "ut",
        "ure"
      ],
      [
        "an",
        "ces"
      ],
      [
        "Ġm",
        "ajor"
      ],
      [
        "Ġm",
        "illion"
      ],
      [
        "ail",
        "s"
      ],
      [
        "Ġdo",
        "ing"
      ],
      [
        "Ġind",
        "ividual"
      ],
      [
        "o",
        "ice"
      ],
      [
        "Ġeas",
        "y"
      ],
      [
        "Ġc",
        "ou"
      ],
      [
        "Ġl",
        "im"
      ],
      [
        "Ġm",
        "ind"
      ],
      [
        "Ġp",
        "ot"
      ],
      [
        "'",
        "ve"
      ],
      [
        "f",
        "ort"
      ],
      [
        "Ġf",
        "ocus"
      ],
      [
        "E",
        "S"
      ],
      [
        "Ġl",
        "a"
      ],
      [
        "Ġc",
        "amp"
      ],
      [
        "os",
        "ed"
      ],
      [
        "Ġf",
        "av"
      ],
      [
        "iqu",
        "e"
      ],
      [
        "Ġyou",
        "ng"
      ],
      [
        "ĠJ",
        "ohn"
      ],
      [
        "u",
        "ff"
      ],
      [
        "w",
        "h"
      ],
      [
        "Ġed",
        "uc"
      ],
      [
        "er",
        "al"
      ],
      [
        "on",
        "es"
      ],
      [
        "Ġqu",
        "ality"
      ],
      [
        "Ġdoes",
        "n"
      ],
      [
        "i",
        "ans"
      ],
      [
        "Ġthough",
        "t"
      ],
      [
        "Ġbene",
        "f"
      ],
      [
        "at",
        "ic"
      ],
      [
        "Ġpro",
        "ject"
      ],
      [
        "er",
        "r"
      ],
      [
        "id",
        "d"
      ],
      [
        "m",
        "ber"
      ],
      [
        "Ġn",
        "on"
      ],
      [
        "ri",
        "pt"
      ],
      [
        "ort",
        "s"
      ],
      [
        "ĠM",
        "y"
      ],
      [
        "le",
        "ment"
      ],
      [
        "A",
        "R"
      ],
      [
        "Ġvis",
        "it"
      ],
      [
        "n",
        "ot"
      ],
      [
        "Ġwebs",
        "ite"
      ],
      [
        "A",
        "T"
      ],
      [
        "Ġw",
        "on"
      ],
      [
        "Ġper",
        "cent"
      ],
      [
        "Ġact",
        "ually"
      ],
      [
        "ward",
        "s"
      ],
      [
        "a",
        "pp"
      ],
      [
        "Ġo",
        "pportun"
      ],
      [
        "Ġwom",
        "en"
      ],
      [
        "m",
        "ost"
      ],
      [
        "c",
        "hed"
      ],
      [
        "ap",
        "s"
      ],
      [
        "id",
        "es"
      ],
      [
        "ro",
        "du"
      ],
      [
        "Ġcle",
        "ar"
      ],
      [
        "ci",
        "ally"
      ],
      [
        "viron",
        "ment"
      ],
      [
        "Ġcom",
        "es"
      ],
      [
        "Ġor",
        "ig"
      ],
      [
        "f",
        "or"
      ],
      [
        "a",
        "ff"
      ],
      [
        "o",
        "or"
      ],
      [
        "c",
        "hes"
      ],
      [
        "A",
        "N"
      ],
      [
        "Ġac",
        "ross"
      ],
      [
        "Ġm",
        "om"
      ],
      [
        "ull",
        "y"
      ],
      [
        "o",
        "ver"
      ],
      [
        "Ġpartic",
        "ular"
      ],
      [
        "Ġcre",
        "ate"
      ],
      [
        "c",
        "rib"
      ],
      [
        "Ġe",
        "conom"
      ],
      [
        "Ġf",
        "und"
      ],
      [
        "e",
        "b"
      ],
      [
        "ĠA",
        "pp"
      ],
      [
        "ĠS",
        "u"
      ],
      [
        "Ġn",
        "et"
      ],
      [
        "u",
        "ro"
      ],
      [
        "ĠS",
        "te"
      ],
      [
        "Ġe",
        "lect"
      ],
      [
        "Ġstart",
        "ed"
      ],
      [
        "ĠA",
        "m"
      ],
      [
        "Ġre",
        "ason"
      ],
      [
        "Ġl",
        "ow"
      ],
      [
        "am",
        "a"
      ],
      [
        "The",
        "re"
      ],
      [
        "Ġhum",
        "an"
      ],
      [
        "Ġchar",
        "act"
      ],
      [
        "Ġm",
        "aterial"
      ],
      [
        "Ġde",
        "al"
      ],
      [
        "Ġe",
        "y"
      ],
      [
        "Ġan",
        "al"
      ],
      [
        "ak",
        "en"
      ],
      [
        "l",
        "ished"
      ],
      [
        "Ġdevelop",
        "ment"
      ],
      [
        "Ġy",
        "et"
      ],
      [
        "ur",
        "ther"
      ],
      [
        "Ġqu",
        "ick"
      ],
      [
        "ar",
        "r"
      ],
      [
        "Ġon",
        "ce"
      ],
      [
        "-",
        "-"
      ],
      [
        "Ġto",
        "ld"
      ],
      [
        "Ġhapp",
        "en"
      ],
      [
        "y",
        "le"
      ],
      [
        "Ġinv",
        "ol"
      ],
      [
        "Ġt",
        "ax"
      ],
      [
        "fe",
        "rence"
      ],
      [
        "a",
        "i"
      ],
      [
        "ct",
        "or"
      ],
      [
        "Ġl",
        "ink"
      ],
      [
        "on",
        "y"
      ],
      [
        "Ġcont",
        "act"
      ],
      [
        "Ġ",
        "Â"
      ],
      [
        "Ġc",
        "e"
      ],
      [
        "l",
        "f"
      ],
      [
        "Ġf",
        "uture"
      ],
      [
        "ĠR",
        "ep"
      ],
      [
        "Ġh",
        "ours"
      ],
      [
        "Ġm",
        "ult"
      ],
      [
        "Ġke",
        "y"
      ],
      [
        "Ġso",
        "ft"
      ],
      [
        "Ġex",
        "ample"
      ],
      [
        "c",
        "he"
      ],
      [
        "Ġp",
        "ar"
      ],
      [
        "Ġ",
        "vers"
      ],
      [
        "Ġear",
        "ly"
      ],
      [
        "Ġl",
        "ater"
      ],
      [
        "Ġ1",
        "6"
      ],
      [
        "Ġpol",
        "it"
      ],
      [
        "Ġc",
        "ity"
      ],
      [
        "O",
        "R"
      ],
      [
        "A",
        "nd"
      ],
      [
        "is",
        "ter"
      ],
      [
        "Ġc",
        "ut"
      ],
      [
        "Ġfriend",
        "s"
      ],
      [
        "ĠUn",
        "ited"
      ],
      [
        "âĢ",
        "ĵ"
      ],
      [
        "Ġ",
        "X"
      ],
      [
        "ate",
        "g"
      ],
      [
        "Ġstr",
        "ong"
      ],
      [
        "ĠM",
        "ed"
      ],
      [
        "ĠB",
        "r"
      ],
      [
        "og",
        "raph"
      ],
      [
        "Ġf",
        "ive"
      ],
      [
        "Ġ-",
        "-"
      ],
      [
        "Ġbr",
        "ing"
      ],
      [
        "Ġbe",
        "aut"
      ],
      [
        "if",
        "t"
      ],
      [
        "Ġmonth",
        "s"
      ],
      [
        "!",
        "!"
      ],
      [
        "m",
        "m"
      ],
      [
        "ver",
        "age"
      ],
      [
        "c",
        "le"
      ],
      [
        "A",
        "n"
      ],
      [
        "Ġf",
        "ield"
      ],
      [
        "Ġre",
        "du"
      ],
      [
        "g",
        "es"
      ],
      [
        "ip",
        "s"
      ],
      [
        "ul",
        "ation"
      ],
      [
        "Ġr",
        "is"
      ],
      [
        "our",
        "ce"
      ],
      [
        "Ġ",
        "ident"
      ],
      [
        "a",
        "pe"
      ],
      [
        "'",
        "ll"
      ],
      [
        "Ġsh",
        "are"
      ],
      [
        "Ġem",
        "ail"
      ],
      [
        "Ġper",
        "fect"
      ],
      [
        "Ġspec",
        "ific"
      ],
      [
        "b",
        "ook"
      ],
      [
        "ĠIn",
        "tern"
      ],
      [
        "Ġknow",
        "n"
      ],
      [
        "Ġrequ",
        "ire"
      ],
      [
        "ĠThe",
        "se"
      ],
      [
        "Ġstud",
        "y"
      ],
      [
        "Ġty",
        "p"
      ],
      [
        "Ġ1",
        "4"
      ],
      [
        "d",
        "e"
      ],
      [
        "ro",
        "om"
      ],
      [
        "Ġaut",
        "hor"
      ],
      [
        "u",
        "se"
      ],
      [
        "Ġbel",
        "ow"
      ],
      [
        "Ġhe",
        "art"
      ],
      [
        "Ġw",
        "a"
      ],
      [
        "id",
        "ay"
      ],
      [
        "Ġh",
        "ot"
      ],
      [
        "Ġh",
        "ig"
      ],
      [
        "ill",
        "ed"
      ],
      [
        "Ġbe",
        "gin"
      ],
      [
        "ĠSt",
        "ate"
      ],
      [
        "Ġvide",
        "o"
      ],
      [
        "Ġt",
        "em"
      ],
      [
        "Ġit",
        "em"
      ],
      [
        "Ġapp",
        "ear"
      ],
      [
        "Ġp",
        "ress"
      ],
      [
        "Ġdisc",
        "uss"
      ],
      [
        "Ġcl",
        "ose"
      ],
      [
        "res",
        "ent"
      ],
      [
        "B",
        "ut"
      ],
      [
        "l",
        "ight"
      ],
      [
        "o",
        "on"
      ],
      [
        "ĠW",
        "or"
      ],
      [
        "Ġpro",
        "b"
      ],
      [
        "Ġproble",
        "m"
      ],
      [
        "Ġe",
        "t"
      ],
      [
        "our",
        "n"
      ],
      [
        "Ġhist",
        "ory"
      ],
      [
        "o",
        "ber"
      ],
      [
        "p",
        "ar"
      ],
      [
        "ll",
        "ing"
      ],
      [
        "ac",
        "y"
      ],
      [
        "Ġpri",
        "v"
      ],
      [
        "ut",
        "ions"
      ],
      [
        "Ġc",
        "ult"
      ],
      [
        "je",
        "cts"
      ],
      [
        "ic",
        "y"
      ],
      [
        "Ġst",
        "ep"
      ],
      [
        "re",
        "et"
      ],
      [
        "le",
        "v"
      ],
      [
        "ĠO",
        "ne"
      ],
      [
        "Ġcom",
        "b"
      ],
      [
        "ĠC",
        "ont"
      ],
      [
        "Ġf",
        "ace"
      ],
      [
        "1",
        "5"
      ],
      [
        "st",
        "er"
      ],
      [
        "Ġ201",
        "2"
      ],
      [
        "i",
        "od"
      ],
      [
        "Ġp",
        "ack"
      ],
      [
        "it",
        "or"
      ],
      [
        "s",
        "w"
      ],
      [
        "ĠN",
        "e"
      ],
      [
        "un",
        "ch"
      ],
      [
        "Ġs",
        "ound"
      ],
      [
        "Ġcomp",
        "et"
      ],
      [
        "Ġam",
        "ong"
      ],
      [
        "Ġp",
        "ick"
      ],
      [
        "Ġw",
        "alk"
      ],
      [
        "ĠS",
        "y"
      ],
      [
        "n",
        "ers"
      ],
      [
        "ens",
        "ive"
      ],
      [
        "pl",
        "ay"
      ],
      [
        "oo",
        "se"
      ],
      [
        "ĠE",
        "n"
      ],
      [
        "an",
        "ies"
      ],
      [
        "ur",
        "ity"
      ],
      [
        "our",
        "ces"
      ],
      [
        "Ġadd",
        "ress"
      ],
      [
        "/",
        "/"
      ],
      [
        "Ġevery",
        "thing"
      ],
      [
        "Ġvar",
        "i"
      ],
      [
        "Ġp",
        "age"
      ],
      [
        "Ġm",
        "or"
      ],
      [
        "Ġh",
        "alf"
      ],
      [
        "os",
        "p"
      ],
      [
        "Ġindust",
        "ry"
      ],
      [
        "Ġwho",
        "le"
      ],
      [
        "Ġch",
        "all"
      ],
      [
        "b",
        "all"
      ],
      [
        "Ġsing",
        "le"
      ],
      [
        "l",
        "er"
      ],
      [
        "Ġresp",
        "ons"
      ],
      [
        "g",
        "o"
      ],
      [
        "ĠP",
        "r"
      ],
      [
        "H",
        "ow"
      ],
      [
        "Ġt",
        "aking"
      ],
      [
        "Ġpur",
        "ch"
      ],
      [
        "ne",
        "w"
      ],
      [
        "Ġen",
        "er"
      ],
      [
        "atur",
        "al"
      ],
      [
        "is",
        "on"
      ],
      [
        "Ġst",
        "ay"
      ],
      [
        "u",
        "ed"
      ],
      [
        "ur",
        "al"
      ],
      [
        "im",
        "ate"
      ],
      [
        "Ġse",
        "en"
      ],
      [
        "Ġag",
        "o"
      ],
      [
        "Ġmin",
        "utes"
      ],
      [
        "le",
        "ge"
      ],
      [
        "id",
        "ence"
      ],
      [
        "l",
        "oad"
      ],
      [
        "ĠD",
        "o"
      ],
      [
        "W",
        "hen"
      ],
      [
        "in",
        "o"
      ],
      [
        "Ġrel",
        "ations"
      ],
      [
        "Ġsome",
        "one"
      ],
      [
        "n",
        "ed"
      ],
      [
        "Ġw",
        "ind"
      ],
      [
        "th",
        "ough"
      ],
      [
        "ĠC",
        "al"
      ],
      [
        "Ġan",
        "t"
      ],
      [
        "Ġen",
        "s"
      ],
      [
        "il",
        "ar"
      ],
      [
        "ĠIn",
        "st"
      ],
      [
        "Ġbelie",
        "ve"
      ],
      [
        "Ġen",
        "c"
      ],
      [
        "il",
        "ities"
      ],
      [
        "O",
        "n"
      ],
      [
        "Ġwhe",
        "ther"
      ],
      [
        "Ġquest",
        "ion"
      ],
      [
        "h",
        "od"
      ],
      [
        "ĠHow",
        "ever"
      ],
      [
        "Ġg",
        "ames"
      ],
      [
        "S",
        "o"
      ],
      [
        "1",
        "6"
      ],
      [
        "Ġsp",
        "ace"
      ],
      [
        "f",
        "ic"
      ],
      [
        "Ġp",
        "ie"
      ],
      [
        "ĠCom",
        "p"
      ],
      [
        "Ġg",
        "irl"
      ],
      [
        "g",
        "ing"
      ],
      [
        "Ġbre",
        "ak"
      ],
      [
        "ac",
        "es"
      ],
      [
        "Ġs",
        "ci"
      ],
      [
        "pe",
        "cially"
      ],
      [
        "il",
        "t"
      ],
      [
        "il",
        "le"
      ],
      [
        "Ġ1",
        "7"
      ],
      [
        "ct",
        "ed"
      ],
      [
        "ra",
        "in"
      ],
      [
        "sel",
        "ves"
      ],
      [
        "ĠN",
        "ot"
      ],
      [
        "ab",
        "or"
      ],
      [
        "id",
        "ed"
      ],
      [
        "Ġto",
        "t"
      ],
      [
        "ĠY",
        "ork"
      ],
      [
        "re",
        "w"
      ],
      [
        "Ġh",
        "ope"
      ],
      [
        "p",
        "ro"
      ],
      [
        "Ġcl",
        "aim"
      ],
      [
        "Ġen",
        "vironment"
      ],
      [
        "ir",
        "m"
      ],
      [
        "p",
        "ly"
      ],
      [
        "ĠC",
        "ount"
      ],
      [
        "m",
        "b"
      ],
      [
        "Ġp",
        "ub"
      ],
      [
        "Ġmed",
        "ia"
      ],
      [
        "Ġst",
        "e"
      ],
      [
        "ĠM",
        "c"
      ],
      [
        "Ġa",
        "ge"
      ],
      [
        "un",
        "g"
      ],
      [
        "her",
        "s"
      ],
      [
        "Ġsu",
        "per"
      ],
      [
        "ib",
        "ility"
      ],
      [
        "Ġany",
        "thing"
      ],
      [
        "Ġg",
        "iven"
      ],
      [
        "led",
        "ge"
      ],
      [
        "or",
        "g"
      ],
      [
        "Ġ1",
        "00"
      ],
      [
        "Ġ1",
        "3"
      ],
      [
        "Ġiss",
        "ues"
      ],
      [
        "t",
        "ain"
      ],
      [
        "Ġcomp",
        "ut"
      ],
      [
        "ent",
        "al"
      ],
      [
        "ric",
        "t"
      ],
      [
        "i",
        "ver"
      ],
      [
        "f",
        "ully"
      ],
      [
        "Ġfr",
        "ont"
      ],
      [
        "Ġf",
        "re"
      ],
      [
        "ro",
        "wn"
      ],
      [
        "Ġst",
        "ore"
      ],
      [
        "a",
        "f"
      ],
      [
        "gg",
        "est"
      ],
      [
        "Ġb",
        "ad"
      ],
      [
        "1",
        "8"
      ],
      [
        "Ġph",
        "ys"
      ],
      [
        "Ġman",
        "ag"
      ],
      [
        "ious",
        "ly"
      ],
      [
        "og",
        "n"
      ],
      [
        "ir",
        "t"
      ],
      [
        "Ġam",
        "ount"
      ],
      [
        "Ġ",
        "ess"
      ],
      [
        "C",
        "h"
      ],
      [
        "Ġf",
        "all"
      ],
      [
        "Ġab",
        "ove"
      ],
      [
        "Ġcomm",
        "on"
      ],
      [
        "ĠM",
        "e"
      ],
      [
        "Ġm",
        "ess"
      ],
      [
        "Ġme",
        "as"
      ],
      [
        ":",
        "//"
      ],
      [
        "Ġpr",
        "ice"
      ],
      [
        "Ġp",
        "lease"
      ],
      [
        "ĠC",
        "ity"
      ],
      [
        "Ġde",
        "li"
      ],
      [
        "1",
        "3"
      ],
      [
        "ĠS",
        "erv"
      ],
      [
        "Ġcle",
        "an"
      ],
      [
        "Ġj",
        "o"
      ],
      [
        "Ġd",
        "ue"
      ],
      [
        "ĠG",
        "u"
      ],
      [
        "Ġresult",
        "s"
      ],
      [
        "ur",
        "ch"
      ],
      [
        "ĠSt",
        "ates"
      ],
      [
        "R",
        "e"
      ],
      [
        "Ġcont",
        "ent"
      ],
      [
        "Ġ2",
        "5"
      ],
      [
        "Ġe",
        "ff"
      ],
      [
        "d",
        "d"
      ],
      [
        "Ġrec",
        "omm"
      ],
      [
        "Ġw",
        "atch"
      ],
      [
        "Ġide",
        "a"
      ],
      [
        "Ġse",
        "arch"
      ],
      [
        "c",
        "ome"
      ],
      [
        "Ġc",
        "ra"
      ],
      [
        "Ġ2",
        "4"
      ],
      [
        "Ġm",
        "ot"
      ],
      [
        "Ġper",
        "iod"
      ],
      [
        "itt",
        "ed"
      ],
      [
        "at",
        "ors"
      ],
      [
        "Ġrecomm",
        "end"
      ],
      [
        "v",
        "ent"
      ],
      [
        "as",
        "ing"
      ],
      [
        "Ġ",
        "z"
      ],
      [
        "ĠN",
        "ational"
      ],
      [
        "A",
        "S"
      ],
      [
        "Ġto",
        "ol"
      ],
      [
        "Ġc",
        "red"
      ],
      [
        "Ġcons",
        "ider"
      ],
      [
        "Ġser",
        "ies"
      ],
      [
        "ĠE",
        "uro"
      ],
      [
        "ĠM",
        "in"
      ],
      [
        "Ġquest",
        "ions"
      ],
      [
        "Ġal",
        "most"
      ],
      [
        "Ġs",
        "ix"
      ],
      [
        "Ġcomp",
        "anies"
      ],
      [
        "Ġf",
        "urther"
      ],
      [
        "Ġw",
        "ond"
      ],
      [
        "Ġ",
        "/"
      ],
      [
        "Ġ",
        "#"
      ],
      [
        "o",
        "x"
      ],
      [
        "I",
        "S"
      ],
      [
        "Ġr",
        "ange"
      ],
      [
        "ĠP",
        "res"
      ],
      [
        "Ġtechn",
        "ology"
      ],
      [
        "b",
        "ack"
      ],
      [
        "u",
        "ation"
      ],
      [
        "Ġv",
        "ol"
      ],
      [
        "1",
        "4"
      ],
      [
        "Ġsu",
        "ggest"
      ],
      [
        "Ġde",
        "b"
      ],
      [
        "am",
        "s"
      ],
      [
        "Ġe",
        "ither"
      ],
      [
        "E",
        "D"
      ],
      [
        "Ġne",
        "cess"
      ],
      [
        "Ġt",
        "aken"
      ],
      [
        "Ġc",
        "ell"
      ],
      [
        "us",
        "ed"
      ],
      [
        "Ġener",
        "gy"
      ],
      [
        "Ġa",
        "ud"
      ],
      [
        "Ġth",
        "ird"
      ],
      [
        "E",
        "N"
      ],
      [
        "Ġcon",
        "cer"
      ],
      [
        "ri",
        "ed"
      ],
      [
        "an",
        "cial"
      ],
      [
        "Ġc",
        "al"
      ],
      [
        "Ġp",
        "ort"
      ],
      [
        "Ġbl",
        "og"
      ],
      [
        "Ġb",
        "ar"
      ],
      [
        "ĠC",
        "he"
      ],
      [
        "Ġa",
        "ff"
      ],
      [
        "Ġd",
        "ou"
      ],
      [
        "Ġbuild",
        "ing"
      ],
      [
        "an",
        "ks"
      ],
      [
        "Ġtra",
        "vel"
      ],
      [
        "Ġbl",
        "ack"
      ],
      [
        "Ġse",
        "lf"
      ],
      [
        "Ġpoint",
        "s"
      ],
      [
        "op",
        "y"
      ],
      [
        "Ġtry",
        "ing"
      ],
      [
        "op",
        "s"
      ],
      [
        "Ġevery",
        "one"
      ],
      [
        "Ġwork",
        "s"
      ],
      [
        "Ġtra",
        "ck"
      ],
      [
        "Ġb",
        "rand"
      ],
      [
        "Ġent",
        "ire"
      ],
      [
        "Ġfav",
        "or"
      ],
      [
        "Ġc",
        "ir"
      ],
      [
        "as",
        "k"
      ],
      [
        "Ġre",
        "pl"
      ],
      [
        "ĠY",
        "our"
      ],
      [
        "el",
        "t"
      ],
      [
        "2",
        "00"
      ],
      [
        "Ġlike",
        "ly"
      ],
      [
        "Ġfeat",
        "ures"
      ],
      [
        "Ġfil",
        "m"
      ],
      [
        "ive",
        "ly"
      ],
      [
        "c",
        "ript"
      ],
      [
        "Ġw",
        "ar"
      ],
      [
        "g",
        "le"
      ],
      [
        "fic",
        "ult"
      ],
      [
        "ce",
        "ll"
      ],
      [
        "Ġ",
        ":"
      ],
      [
        "A",
        "L"
      ],
      [
        "ob",
        "al"
      ],
      [
        ".",
        ")"
      ],
      [
        "pl",
        "es"
      ],
      [
        "y",
        "l"
      ],
      [
        "Ġc",
        "rit"
      ],
      [
        "ĠG",
        "o"
      ],
      [
        "Ġm",
        "ag"
      ],
      [
        "ĠO",
        "ur"
      ],
      [
        "Ġ201",
        "3"
      ],
      [
        "Ġp",
        "ict"
      ],
      [
        "Ġs",
        "ent"
      ],
      [
        "Ġare",
        "as"
      ],
      [
        "ĠJ",
        "an"
      ],
      [
        "t",
        "ime"
      ],
      [
        "_",
        "_"
      ],
      [
        "g",
        "ress"
      ],
      [
        "Ġdo",
        "cu"
      ],
      [
        "Ġpre",
        "t"
      ],
      [
        "y",
        "ear"
      ],
      [
        "ĠM",
        "r"
      ],
      [
        "Ġwant",
        "ed"
      ],
      [
        "Ġman",
        "agement"
      ],
      [
        "ri",
        "e"
      ],
      [
        "Ġtra",
        "ining"
      ],
      [
        "Ġes",
        "pecially"
      ],
      [
        "g",
        "est"
      ],
      [
        "itt",
        "ing"
      ],
      [
        "ver",
        "t"
      ],
      [
        "ru",
        "g"
      ],
      [
        "Ġcustom",
        "ers"
      ],
      [
        "Ġse",
        "x"
      ],
      [
        "Ġsim",
        "ple"
      ],
      [
        "ĠT",
        "w"
      ],
      [
        "Ġty",
        "pe"
      ],
      [
        "ic",
        "ation"
      ],
      [
        "Ġ5",
        "0"
      ],
      [
        "le",
        "x"
      ],
      [
        "it",
        "es"
      ],
      [
        "Ġh",
        "ost"
      ],
      [
        "Ġl",
        "and"
      ],
      [
        "Ġm",
        "iss"
      ],
      [
        "Ġcom",
        "pl"
      ],
      [
        "Ġqu",
        "ite"
      ],
      [
        "i",
        "res"
      ],
      [
        "Ġrelations",
        "hip"
      ],
      [
        "Ġex",
        "c"
      ],
      [
        "m",
        "y"
      ],
      [
        "ĠE",
        "d"
      ],
      [
        "2",
        "5"
      ],
      [
        "ĠA",
        "fter"
      ],
      [
        "Ġinst",
        "all"
      ],
      [
        "res",
        "h"
      ],
      [
        "Ġsign",
        "ific"
      ],
      [
        "a",
        "ur"
      ],
      [
        "Ġhow",
        "ever"
      ],
      [
        "o",
        "id"
      ],
      [
        "Ġwe",
        "b"
      ],
      [
        "I",
        "T"
      ],
      [
        "il",
        "i"
      ],
      [
        "Ġval",
        "ue"
      ],
      [
        "Ġcom",
        "ing"
      ],
      [
        "Ġprob",
        "ably"
      ],
      [
        "Ġvar",
        "ious"
      ],
      [
        "Ġoff",
        "ice"
      ],
      [
        "Ġd",
        "am"
      ],
      [
        "Ġneed",
        "ed"
      ],
      [
        "um",
        "b"
      ],
      [
        "om",
        "es"
      ],
      [
        "ĠEuro",
        "pe"
      ],
      [
        "Ġde",
        "ath"
      ],
      [
        "min",
        "ist"
      ],
      [
        "i",
        "ally"
      ],
      [
        "Ġdif",
        "ficult"
      ],
      [
        "I",
        "C"
      ],
      [
        "ight",
        "s"
      ],
      [
        "Ġte",
        "xt"
      ],
      [
        "Ġr",
        "ather"
      ],
      [
        "ĠWor",
        "ld"
      ],
      [
        "ific",
        "ation"
      ],
      [
        "Ġrequ",
        "ired"
      ],
      [
        "T",
        "o"
      ],
      [
        "Ġel",
        "se"
      ],
      [
        "it",
        "ch"
      ],
      [
        "Ġask",
        "ed"
      ],
      [
        "ov",
        "ed"
      ],
      [
        "Ġre",
        "d"
      ],
      [
        "Ġiss",
        "ue"
      ],
      [
        "if",
        "ul"
      ],
      [
        "ĠP",
        "e"
      ],
      [
        "Ġimpro",
        "ve"
      ],
      [
        "ĠG",
        "e"
      ],
      [
        "Ġp",
        "arent"
      ],
      [
        "Ġacc",
        "ording"
      ],
      [
        "Ġd",
        "ig"
      ],
      [
        "Ġab",
        "s"
      ],
      [
        "Ġpret",
        "ty"
      ],
      [
        "ĠSe",
        "c"
      ],
      [
        "Ġpartic",
        "ip"
      ],
      [
        "Ġbeh",
        "ind"
      ],
      [
        "Ġcons",
        "um"
      ],
      [
        "Ġwh",
        "ite"
      ],
      [
        "ib",
        "r"
      ],
      [
        "Ġev",
        "ents"
      ],
      [
        "ch",
        "ie"
      ],
      [
        "y",
        "n"
      ],
      [
        "Ġl",
        "iving"
      ],
      [
        "Ġperform",
        "ance"
      ],
      [
        "w",
        "here"
      ],
      [
        "em",
        "pt"
      ],
      [
        "ĠA",
        "ust"
      ],
      [
        "itt",
        "en"
      ],
      [
        "ĠN",
        "orth"
      ],
      [
        "Ġoff",
        "ers"
      ],
      [
        "nd",
        "ing"
      ],
      [
        "Ġpos",
        "ition"
      ],
      [
        "Ġprovid",
        "es"
      ],
      [
        "Ġs",
        "ong"
      ],
      [
        "ĠG",
        "l"
      ],
      [
        "Ġex",
        "ist"
      ],
      [
        "ĠW",
        "ill"
      ],
      [
        "ĠP",
        "art"
      ],
      [
        "ol",
        "ution"
      ],
      [
        "f",
        "act"
      ],
      [
        "Ġproble",
        "ms"
      ],
      [
        "1",
        "7"
      ],
      [
        "ic",
        "ated"
      ],
      [
        "Ġf",
        "oot"
      ],
      [
        "o",
        "e"
      ],
      [
        "ang",
        "u"
      ],
      [
        "Ġsim",
        "ply"
      ],
      [
        "Ġso",
        "on"
      ],
      [
        "i",
        "ol"
      ],
      [
        "Ġis",
        "n"
      ],
      [
        "ĠD",
        "ep"
      ],
      [
        "Ġass",
        "ist"
      ],
      [
        "Ġo",
        "il"
      ],
      [
        "ĠS",
        "chool"
      ],
      [
        "ro",
        "ll"
      ],
      [
        "Ġnot",
        "hing"
      ],
      [
        "Ġmet",
        "hod"
      ],
      [
        "Ġs",
        "we"
      ],
      [
        "Ġan",
        "sw"
      ],
      [
        "Ġw",
        "ays"
      ],
      [
        "v",
        "al"
      ],
      [
        "a",
        "pt"
      ],
      [
        "Ġword",
        "s"
      ],
      [
        "Ġin",
        "it"
      ],
      [
        "n",
        "es"
      ],
      [
        "Ġup",
        "on"
      ],
      [
        "Ġadd",
        "ed"
      ],
      [
        "Ġg",
        "ra"
      ],
      [
        "ru",
        "ction"
      ],
      [
        "Ġris",
        "k"
      ],
      [
        "ĠQ",
        "u"
      ],
      [
        "Ġdet",
        "erm"
      ],
      [
        "re",
        "me"
      ],
      [
        "Ġinf",
        "l"
      ],
      [
        "Ġ201",
        "1"
      ],
      [
        "ĠH",
        "is"
      ],
      [
        "Ġh",
        "y"
      ],
      [
        "Ġcharact",
        "er"
      ],
      [
        "Ġexper",
        "ien"
      ],
      [
        "Ġcontin",
        "ue"
      ],
      [
        "Ġprofess",
        "ional"
      ],
      [
        "et",
        "h"
      ],
      [
        "ach",
        "ing"
      ],
      [
        "ĠM",
        "ark"
      ],
      [
        "ĠB",
        "ar"
      ],
      [
        "ic",
        "ro"
      ],
      [
        "Ġpop",
        "ular"
      ],
      [
        "âĢ",
        "¢"
      ],
      [
        "ie",
        "f"
      ],
      [
        "ĠG",
        "r"
      ],
      [
        "pr",
        "il"
      ],
      [
        "Ġprovid",
        "ed"
      ],
      [
        "ab",
        "les"
      ],
      [
        "Ġrep",
        "resent"
      ],
      [
        "ĠS",
        "outh"
      ],
      [
        "Ã",
        "©"
      ],
      [
        "ition",
        "al"
      ],
      [
        "Ġac",
        "cept"
      ],
      [
        "Ġm",
        "atter"
      ],
      [
        "z",
        "e"
      ],
      [
        "ĠP",
        "ark"
      ],
      [
        "Ġf",
        "ire"
      ],
      [
        "ĠA",
        "f"
      ],
      [
        "Ġs",
        "ize"
      ],
      [
        "he",
        "ad"
      ],
      [
        "Ġproper",
        "ty"
      ],
      [
        "Ġc",
        "ard"
      ],
      [
        "Ġin",
        "n"
      ],
      [
        "Ġsim",
        "ilar"
      ],
      [
        "Ġwee",
        "ks"
      ],
      [
        "Ġt",
        "ou"
      ],
      [
        "U",
        "S"
      ],
      [
        "am",
        "er"
      ],
      [
        "Ġa",
        "ction"
      ],
      [
        "Ġf",
        "ail"
      ],
      [
        "Ġann",
        "oun"
      ],
      [
        "Ġst",
        "aff"
      ],
      [
        "an",
        "c"
      ],
      [
        "Ġup",
        "d"
      ],
      [
        "Ġh",
        "tt"
      ],
      [
        "Ġg",
        "round"
      ],
      [
        "ĠCent",
        "er"
      ],
      [
        "Ġrequ",
        "est"
      ],
      [
        "Ġst",
        "at"
      ],
      [
        "Ġpre",
        "p"
      ],
      [
        "r",
        "ing"
      ],
      [
        "Ġt",
        "akes"
      ],
      [
        "Ġl",
        "og"
      ],
      [
        "ĠS",
        "m"
      ],
      [
        "ĠAmeric",
        "a"
      ],
      [
        "Ġwrit",
        "ing"
      ],
      [
        "Ġpart",
        "y"
      ],
      [
        "..",
        ".."
      ],
      [
        "A",
        "l"
      ],
      [
        "o",
        "le"
      ],
      [
        "Ġph",
        "one"
      ],
      [
        "ur",
        "ance"
      ],
      [
        "Ġhe",
        "ld"
      ],
      [
        "e",
        "es"
      ],
      [
        "Ġro",
        "ad"
      ],
      [
        "ĠO",
        "ct"
      ],
      [
        "Ġext",
        "ra"
      ],
      [
        "Ġr",
        "ad"
      ],
      [
        "ĠD",
        "r"
      ],
      [
        "Ġsignific",
        "ant"
      ],
      [
        "ul",
        "es"
      ],
      [
        "ad",
        "es"
      ],
      [
        "Ġh",
        "on"
      ],
      [
        "Ġknow",
        "ledge"
      ],
      [
        "Ġn",
        "atural"
      ],
      [
        "u",
        "ge"
      ],
      [
        "re",
        "g"
      ],
      [
        "Ġro",
        "le"
      ],
      [
        "Ġtru",
        "e"
      ],
      [
        "ĠD",
        "es"
      ],
      [
        "n",
        "a"
      ],
      [
        "ĠD",
        "is"
      ],
      [
        "Ġimp",
        "act"
      ],
      [
        "ĠT",
        "ra"
      ],
      [
        "Ġseem",
        "s"
      ],
      [
        "ĠP",
        "er"
      ],
      [
        "R",
        "E"
      ],
      [
        "Ġgener",
        "al"
      ],
      [
        "cl",
        "us"
      ],
      [
        "ob",
        "ile"
      ],
      [
        "Ġinclud",
        "es"
      ],
      [
        "a",
        "ily"
      ],
      [
        "Ġsk",
        "in"
      ],
      [
        "Ġfor",
        "ward"
      ],
      [
        "is",
        "es"
      ],
      [
        "um",
        "e"
      ],
      [
        "Ġde",
        "l"
      ],
      [
        "Ġfin",
        "al"
      ],
      [
        "Ġas",
        "soci"
      ],
      [
        "ĠJ",
        "u"
      ],
      [
        "2",
        "2"
      ],
      [
        "pp",
        "er"
      ],
      [
        "Ġb",
        "ed"
      ],
      [
        "Ġrec",
        "ent"
      ],
      [
        "A",
        "C"
      ],
      [
        "ad",
        "a"
      ],
      [
        "med",
        "i"
      ],
      [
        "ĠC",
        "or"
      ],
      [
        "Ġest",
        "ab"
      ],
      [
        "Ġchang",
        "es"
      ],
      [
        "iv",
        "al"
      ],
      [
        "Ġatt",
        "ack"
      ],
      [
        "f",
        "ace"
      ],
      [
        "Ġc",
        "ook"
      ],
      [
        "ove",
        "red"
      ],
      [
        "le",
        "ased"
      ],
      [
        "Ġshow",
        "s"
      ],
      [
        "Ġco",
        "ll"
      ],
      [
        "Ġrec",
        "ogn"
      ],
      [
        "Ġincre",
        "ase"
      ],
      [
        "ĠCount",
        "y"
      ],
      [
        "ĠM",
        "arch"
      ],
      [
        "Ġcan",
        "not"
      ],
      [
        "Ġout",
        "side"
      ],
      [
        "p",
        "ut"
      ],
      [
        "Ġeduc",
        "ation"
      ],
      [
        "Ġd",
        "ate"
      ],
      [
        "l",
        "t"
      ],
      [
        "Ġreg",
        "ard"
      ],
      [
        "ĠA",
        "ct"
      ],
      [
        "Ġco",
        "ver"
      ],
      [
        "Ġh",
        "it"
      ],
      [
        "ĠK",
        "e"
      ],
      [
        "ĠJ",
        "ust"
      ],
      [
        "Ġind",
        "e"
      ],
      [
        "Ġk",
        "ids"
      ],
      [
        "I",
        "D"
      ],
      [
        "Ġan",
        "im"
      ],
      [
        "Ġsa",
        "w"
      ],
      [
        "Ġmod",
        "el"
      ],
      [
        "Ġst",
        "op"
      ],
      [
        "av",
        "ing"
      ],
      [
        "Ġtreat",
        "ment"
      ],
      [
        "ĠA",
        "b"
      ],
      [
        "ĠA",
        "ug"
      ],
      [
        "Ġn",
        "ational"
      ],
      [
        "Ġfun",
        "ction"
      ],
      [
        "Ġcour",
        "t"
      ],
      [
        "r",
        "ight"
      ],
      [
        "Ġb",
        "all"
      ],
      [
        "Ġyour",
        "self"
      ],
      [
        "Ġun",
        "ique"
      ],
      [
        "ar",
        "get"
      ],
      [
        "Ġf",
        "ig"
      ],
      [
        "ĠS",
        "ome"
      ],
      [
        "ĠJ",
        "une"
      ],
      [
        "Ġw",
        "ide"
      ],
      [
        "Ġse",
        "lect"
      ],
      [
        "Ġeng",
        "ine"
      ],
      [
        "et",
        "er"
      ],
      [
        "Ġt",
        "able"
      ],
      [
        "Ġ201",
        "0"
      ],
      [
        "Ġin",
        "j"
      ],
      [
        "h",
        "ib"
      ],
      [
        "Ġcre",
        "ated"
      ],
      [
        "Ġmom",
        "ent"
      ],
      [
        "Ġo",
        "p"
      ],
      [
        "ud",
        "e"
      ],
      [
        "ĠPres",
        "ident"
      ],
      [
        "ĠD",
        "av"
      ],
      [
        "Ġrun",
        "ning"
      ],
      [
        "Ġpr",
        "int"
      ],
      [
        "Ġg",
        "en"
      ],
      [
        "ir",
        "it"
      ],
      [
        "u",
        "ary"
      ],
      [
        "am",
        "ed"
      ],
      [
        "ast",
        "ic"
      ],
      [
        "Ġmem",
        "ber"
      ],
      [
        "Ġfin",
        "ancial"
      ],
      [
        "ar",
        "ter"
      ],
      [
        "Ġle",
        "ave"
      ],
      [
        "an",
        "ced"
      ],
      [
        "Ġart",
        "icle"
      ],
      [
        "Ġnet",
        "work"
      ],
      [
        "Ġd",
        "om"
      ],
      [
        "6",
        "0"
      ],
      [
        "Ġp",
        "ark"
      ],
      [
        "Ġl",
        "oss"
      ],
      [
        "Ġsu",
        "m"
      ],
      [
        "Ġlong",
        "er"
      ],
      [
        "Ġoffic",
        "ial"
      ],
      [
        "Ġdef",
        "in"
      ],
      [
        "ĠT",
        "H"
      ],
      [
        "it",
        "er"
      ],
      [
        "or",
        "ing"
      ],
      [
        "Ġorig",
        "inal"
      ],
      [
        "Ġl",
        "ay"
      ],
      [
        "u",
        "fact"
      ],
      [
        "Ġs",
        "le"
      ],
      [
        "id",
        "ge"
      ],
      [
        "Ġst",
        "ri"
      ],
      [
        "Ġo",
        "pp"
      ],
      [
        "Ġb",
        "ase"
      ],
      [
        "Ġl",
        "at"
      ],
      [
        "Ġa",
        "chie"
      ],
      [
        "Ġt",
        "it"
      ],
      [
        "op",
        "h"
      ],
      [
        "Ġdesign",
        "ed"
      ],
      [
        "Ġdes",
        "crib"
      ],
      [
        "Ġcont",
        "rib"
      ],
      [
        "8",
        "0"
      ],
      [
        "if",
        "f"
      ],
      [
        "ear",
        "ch"
      ],
      [
        "Ġsa",
        "fe"
      ],
      [
        "g",
        "u"
      ],
      [
        "ĠP",
        "ol"
      ],
      [
        "ed",
        "eral"
      ],
      [
        "Ġopportun",
        "ity"
      ],
      [
        "Ġsec",
        "urity"
      ],
      [
        "i",
        "et"
      ],
      [
        "Ġcou",
        "ple"
      ],
      [
        "Ġcomput",
        "er"
      ],
      [
        "Ġbook",
        "s"
      ],
      [
        "Ġf",
        "a"
      ],
      [
        "at",
        "ory"
      ],
      [
        "Ġthrough",
        "out"
      ],
      [
        "al",
        "es"
      ],
      [
        "Ġbl",
        "ood"
      ],
      [
        "Ġspe",
        "ak"
      ],
      [
        "Ġbeaut",
        "iful"
      ],
      [
        "er",
        "c"
      ],
      [
        "Ġag",
        "ree"
      ],
      [
        "Ġr",
        "ate"
      ],
      [
        "b",
        "ased"
      ],
      [
        "ĠO",
        "b"
      ],
      [
        "Ġex",
        "am"
      ],
      [
        "Ġsystem",
        "s"
      ],
      [
        "ac",
        "ed"
      ],
      [
        "Ġl",
        "ate"
      ],
      [
        "ci",
        "ety"
      ],
      [
        "Ġto",
        "wn"
      ],
      [
        "Ġc",
        "ause"
      ],
      [
        "ĠI",
        "m"
      ],
      [
        "Ġdo",
        "g"
      ],
      [
        "ou",
        "ra"
      ],
      [
        "Ġn",
        "orm"
      ],
      [
        "Ġhig",
        "her"
      ],
      [
        "Ġwor",
        "th"
      ],
      [
        "Ġus",
        "ually"
      ],
      [
        "idd",
        "le"
      ],
      [
        "Ġplay",
        "ers"
      ],
      [
        "Ġres",
        "pect"
      ],
      [
        "Ġlead",
        "ers"
      ],
      [
        "Ġpolit",
        "ical"
      ],
      [
        "Ġem",
        "b"
      ],
      [
        "re",
        "m"
      ],
      [
        "Ġsoft",
        "ware"
      ],
      [
        "Ġet",
        "c"
      ],
      [
        "Ġl",
        "ost"
      ],
      [
        "Ġread",
        "y"
      ],
      [
        "Ġapplic",
        "ation"
      ],
      [
        "Ġopt",
        "ions"
      ],
      [
        "Ġmor",
        "ning"
      ],
      [
        "Ġc",
        "oun"
      ],
      [
        "ĠA",
        "g"
      ],
      [
        "ĠRe",
        "g"
      ],
      [
        "Ġrece",
        "ive"
      ],
      [
        "ĠB",
        "o"
      ],
      [
        "Ġvers",
        "ion"
      ],
      [
        "iz",
        "ing"
      ],
      [
        "Ġus",
        "ers"
      ],
      [
        "Ġ",
        "ill"
      ],
      [
        "ĠIn",
        "c"
      ],
      [
        "ce",
        "ed"
      ],
      [
        "Ġsal",
        "es"
      ],
      [
        "ou",
        "d"
      ],
      [
        "ĠA",
        "pril"
      ],
      [
        "Ġmed",
        "ical"
      ],
      [
        "Ġs",
        "ense"
      ],
      [
        "Ġexp",
        "ress"
      ],
      [
        "c",
        "il"
      ],
      [
        "Ġthem",
        "selves"
      ],
      [
        "Ġrece",
        "ived"
      ],
      [
        "Ġs",
        "ens"
      ],
      [
        "ĠSt",
        "ud"
      ],
      [
        "Ġd",
        "est"
      ],
      [
        "Ġrec",
        "ently"
      ],
      [
        "ys",
        "is"
      ],
      [
        "Ġdet",
        "ails"
      ],
      [
        "ain",
        "ing"
      ],
      [
        "Ġany",
        "one"
      ],
      [
        "Ġb",
        "ott"
      ],
      [
        "an",
        "a"
      ],
      [
        "Ġf",
        "ast"
      ],
      [
        "Ġens",
        "ure"
      ],
      [
        "A",
        "M"
      ],
      [
        "Ġbo",
        "x"
      ],
      [
        "ĠB",
        "y"
      ],
      [
        "Ġins",
        "ide"
      ],
      [
        "m",
        "it"
      ],
      [
        "Ġright",
        "s"
      ],
      [
        "ffe",
        "cts"
      ],
      [
        "s",
        "y"
      ],
      [
        "Ġ",
        "x"
      ],
      [
        "Ġf",
        "it"
      ],
      [
        "ed",
        "d"
      ],
      [
        "Ġread",
        "ing"
      ],
      [
        "Ġcol",
        "lect"
      ],
      [
        "o",
        "ff"
      ],
      [
        "Ġn",
        "ice"
      ],
      [
        "ĠS",
        "pe"
      ],
      [
        "Ġreg",
        "ular"
      ],
      [
        "atur",
        "day"
      ],
      [
        "Ġbl",
        "ock"
      ],
      [
        "ut",
        "h"
      ],
      [
        "Ġm",
        "ach"
      ],
      [
        "Ġ",
        ","
      ],
      [
        "Ġpri",
        "or"
      ],
      [
        "Ġtot",
        "al"
      ],
      [
        "4",
        "0"
      ],
      [
        "s",
        "c"
      ],
      [
        "ĠW",
        "est"
      ],
      [
        "Ġpot",
        "ential"
      ],
      [
        "h",
        "a"
      ],
      [
        "ar",
        "ning"
      ],
      [
        "Ġhand",
        "s"
      ],
      [
        "Ġgrow",
        "th"
      ],
      [
        "ĠH",
        "igh"
      ],
      [
        "ag",
        "ue"
      ],
      [
        "Ġmeet",
        "ing"
      ],
      [
        "ourn",
        "al"
      ],
      [
        "ĠH",
        "ar"
      ],
      [
        "as",
        "hing"
      ],
      [
        "Ġfor",
        "mer"
      ],
      [
        "Ġcol",
        "or"
      ],
      [
        "a",
        "ign"
      ],
      [
        "Ġ",
        "ri"
      ],
      [
        "Ġde",
        "ep"
      ],
      [
        "Ġpol",
        "icy"
      ],
      [
        "f",
        "l"
      ],
      [
        "ir",
        "th"
      ],
      [
        "oo",
        "gle"
      ],
      [
        "o",
        "es"
      ],
      [
        "olog",
        "ical"
      ],
      [
        "ĠN",
        "ow"
      ],
      [
        "Ġl",
        "ives"
      ],
      [
        "Ġch",
        "oose"
      ],
      [
        "ĠD",
        "ay"
      ],
      [
        "et",
        "t"
      ],
      [
        "Ġcare",
        "er"
      ],
      [
        "Ġwond",
        "er"
      ],
      [
        "ac",
        "hed"
      ],
      [
        "Ġpriv",
        "ate"
      ],
      [
        "ĠH",
        "ouse"
      ],
      [
        "l",
        "ike"
      ],
      [
        "Ġprogram",
        "s"
      ],
      [
        "ĠSe",
        "pt"
      ],
      [
        "Ġcurrent",
        "ly"
      ],
      [
        "c",
        "ast"
      ],
      [
        "o",
        "ke"
      ],
      [
        "Ġe",
        "le"
      ],
      [
        "Ġsh",
        "all"
      ],
      [
        "p",
        "ri"
      ],
      [
        "Ġb",
        "al"
      ],
      [
        "Ġne",
        "g"
      ],
      [
        "art",
        "ment"
      ],
      [
        "ĠE",
        "l"
      ],
      [
        "Ġcl",
        "ick"
      ],
      [
        "ag",
        "ing"
      ],
      [
        "Ġpract",
        "ice"
      ],
      [
        "Ġde",
        "pend"
      ],
      [
        "Ġit",
        "self"
      ],
      [
        "Ġhapp",
        "y"
      ],
      [
        "ess",
        "ion"
      ],
      [
        "li",
        "er"
      ],
      [
        "nd",
        "s"
      ],
      [
        "Ġst",
        "ra"
      ],
      [
        "Ġo",
        "bs"
      ],
      [
        "ĠP",
        "a"
      ],
      [
        "he",
        "l"
      ],
      [
        "ĠD",
        "on"
      ],
      [
        "Ġbe",
        "gan"
      ],
      [
        "Ġcom",
        "fort"
      ],
      [
        "Ġterm",
        "s"
      ],
      [
        "Ġv",
        "ia"
      ],
      [
        "Ġm",
        "ass"
      ],
      [
        "Ġpa",
        "per"
      ],
      [
        "Ġp",
        "ers"
      ],
      [
        "Ġitem",
        "s"
      ],
      [
        "ic",
        "les"
      ],
      [
        "Ġp",
        "ric"
      ],
      [
        "Ġat",
        "tend"
      ],
      [
        "Ġte",
        "ac"
      ],
      [
        "e",
        "k"
      ],
      [
        "Ġde",
        "g"
      ],
      [
        "ist",
        "ic"
      ],
      [
        "Ġdri",
        "ve"
      ],
      [
        "W",
        "ith"
      ],
      [
        "Ġ201",
        "4"
      ],
      [
        "rough",
        "t"
      ],
      [
        "Ġaddition",
        "al"
      ],
      [
        "Ġint",
        "rodu"
      ],
      [
        "ĠM",
        "ich"
      ],
      [
        "a",
        "ction"
      ],
      [
        "Ġgo",
        "al"
      ],
      [
        "Ġde",
        "fe"
      ],
      [
        "Ġ",
        "ut"
      ],
      [
        "ĠF",
        "eb"
      ],
      [
        "Ġch",
        "ance"
      ],
      [
        "Ġwas",
        "n"
      ],
      [
        "Ġ",
        "..."
      ],
      [
        "Ġcount",
        "ries"
      ],
      [
        "M",
        "y"
      ],
      [
        "Ġex",
        "act"
      ],
      [
        "en",
        "ces"
      ],
      [
        "Ġst",
        "ruct"
      ],
      [
        "Ġp",
        "an"
      ],
      [
        "g",
        "round"
      ],
      [
        "Ġ2",
        "1"
      ],
      [
        "Ġe",
        "p"
      ],
      [
        "Ġwork",
        "ed"
      ],
      [
        "ĠAs",
        "soci"
      ],
      [
        "Ġ",
        "ur"
      ],
      [
        "Ġdec",
        "ision"
      ],
      [
        "Ġf",
        "ight"
      ],
      [
        "Ġm",
        "atch"
      ],
      [
        "Ġl",
        "o"
      ],
      [
        "es",
        "e"
      ],
      [
        "Ġcor",
        "re"
      ],
      [
        "Ġd",
        "rug"
      ],
      [
        "Ġplay",
        "ing"
      ],
      [
        "Ġs",
        "at"
      ],
      [
        "Ġquick",
        "ly"
      ],
      [
        "am",
        "ent"
      ],
      [
        "att",
        "le"
      ],
      [
        "Ġgo",
        "es"
      ],
      [
        "A",
        "ll"
      ],
      [
        "Ġar",
        "ri"
      ],
      [
        "h",
        "aps"
      ],
      [
        "angu",
        "age"
      ],
      [
        "at",
        "ives"
      ],
      [
        "us",
        "es"
      ],
      [
        "az",
        "ing"
      ],
      [
        "Ġbo",
        "ard"
      ],
      [
        "2",
        "4"
[...]
